<pad>	0
<unk>	0
<s>	0
</s>	0
▁I	-2.83065
.	-2.85963
▁to	-3.68572
▁a	-3.71923
▁the	-3.90071
▁my	-3.91829
'	-3.96178
▁and	-4.0946
▁was	-4.14794
,	-4.19224
▁it	-4.335
s	-4.41458
!	-4.52491
▁of	-4.64136
▁for	-4.67979
▁in	-4.68581
▁that	-4.72923
t	-4.77213
▁so	-4.82012
▁me	-4.83994
▁you	-4.85395
▁is	-5.00972
▁have	-5.02544
▁am	-5.15372
▁on	-5.15812
?	-5.18678
▁My	-5.18778
▁i	-5.26007
▁with	-5.28435
m	-5.34139
▁at	-5.38979
▁when	-5.39958
▁had	-5.42113
▁be	-5.45764
▁It	-5.48078
▁out	-5.5168
▁but	-5.56383
▁really	-5.60152
▁just	-5.60871
▁get	-5.63333
▁got	-5.67405
▁about	-5.73704
▁not	-5.75
▁can	-5.75828
▁time	-5.75929
▁up	-5.76519
▁this	-5.78833
▁he	-5.81184
▁her	-5.83212
▁all	-5.84933
▁do	-5.85734
ed	-5.87454
▁like	-5.88764
ing	-5.89074
▁they	-5.91127
▁going	-5.9133
▁good	-5.92493
▁been	-5.92723
▁work	-5.93566
▁are	-5.9492
▁That	-5.95909
▁she	-6.00253
▁day	-6.04539
▁new	-6.04991
▁friend	-6.09309
▁go	-6.11193
▁very	-6.12767
▁from	-6.14613
▁feel	-6.16171
▁will	-6.17737
▁one	-6.19253
▁did	-6.19275
▁him	-6.20123
▁last	-6.22375
▁know	-6.23279
▁an	-6.26271
▁some	-6.27048
▁we	-6.32259
▁went	-6.36337
▁week	-6.36916
▁them	-6.37226
▁back	-6.37373
▁happy	-6.39468
▁would	-6.39577
▁think	-6.39928
▁car	-6.4032
▁other	-6.41174
▁now	-6.42911
▁today	-6.43617
▁what	-6.4394
▁job	-6.44381
▁were	-6.46184
▁too	-6.46921
▁home	-6.48073
▁there	-6.50083
ve	-6.50137
▁bad	-6.50599
▁his	-6.53084
▁no	-6.53182
▁don	-6.53456
▁felt	-6.53574
▁school	-6.53695
▁dog	-6.54367
▁didn	-6.56939
▁great	-6.57098
▁old	-6.58532
d	-6.59199
▁first	-6.60361
▁always	-6.61216
▁your	-6.61498
▁He	-6.6167
▁see	-6.62224
▁Oh	-6.64274
▁over	-6.6442
▁how	-6.64869
▁year	-6.64932
▁sure	-6.65284
▁much	-6.65336
▁night	-6.69618
▁The	-6.70234
▁people	-6.70514
▁hope	-6.71165
▁as	-6.71186
▁friends	-6.71866
▁by	-6.72102
▁hard	-6.72821
▁house	-6.74835
▁years	-6.7547
▁because	-6.75524
▁lot	-6.76702
▁has	-6.77538
▁off	-6.77798
▁well	-6.7801
▁What	-6.78823
▁never	-6.79446
▁She	-6.80201
▁When	-6.81466
▁We	-6.8356
▁made	-6.84334
▁family	-6.84344
▁wait	-6.88247
▁make	-6.88338
▁someone	-6.88553
▁into	-6.88585
▁if	-6.89413
▁saw	-6.89807
▁weekend	-6.91582
▁found	-6.91908
▁little	-6.92654
▁away	-6.92676
▁life	-6.92685
▁could	-6.92866
▁nice	-6.93146
▁after	-6.93259
▁love	-6.93967
▁pretty	-6.95181
▁way	-6.96793
▁more	-6.96953
▁next	-6.97176
▁or	-6.97502
▁A	-6.98493
▁best	-6.98744
▁They	-6.9989
▁kids	-7.00032
▁right	-7.00516
▁want	-7.01578
▁getting	-7.01579
▁still	-7.03808
▁long	-7.04287
▁even	-7.04808
▁our	-7.06434
▁take	-7.07062
▁money	-7.08042
▁down	-7.08713
▁son	-7.10228
▁things	-7.13317
▁daughter	-7.13868
▁	-7.15466
▁took	-7.1552
▁ready	-7.15785
▁days	-7.16485
▁recently	-7.16774
▁You	-7.17031
▁myself	-7.17604
▁wife	-7.17821
▁scared	-7.18019
▁yesterday	-7.18327
▁brother	-7.18997
▁something	-7.19021
▁while	-7.19814
▁better	-7.20236
▁though	-7.2071
▁who	-7.20908
-	-7.22122
re	-7.23169
▁girlfriend	-7.23531
▁before	-7.23627
ll	-7.23867
▁feeling	-7.2457
▁should	-7.25171
▁looking	-7.26222
▁being	-7.26717
▁wanted	-7.26991
▁Yeah	-7.28051
▁Yes	-7.28106
▁believe	-7.29284
▁through	-7.29327
▁find	-7.2969
▁won	-7.30243
▁few	-7.3031
▁came	-7.30314
▁able	-7.31495
▁hear	-7.31777
▁ago	-7.31886
▁Did	-7.32151
▁around	-7.32862
▁fun	-7.32885
▁thought	-7.33598
▁their	-7.33743
▁then	-7.34626
▁lost	-7.35318
▁big	-7.36246
▁husband	-7.36582
▁birthday	-7.37359
▁left	-7.3803
▁sad	-7.38427
...	-7.40372
▁mom	-7.41145
▁used	-7.41659
▁test	-7.42284
▁need	-7.42289
▁nervous	-7.43629
▁having	-7.43988
▁than	-7.44142
▁excited	-7.45126
▁help	-7.45491
▁miss	-7.45703
▁alone	-7.47318
▁any	-7.47474
▁let	-7.48132
▁bought	-7.48188
▁mad	-7.48522
▁put	-7.48731
▁coming	-7.49893
▁only	-7.49965
▁But	-7.50018
▁everything	-7.50192
▁Well	-7.5161
▁told	-7.51662
▁come	-7.5176
▁tomorrow	-7.51983
▁sorry	-7.52253
▁food	-7.52361
▁kind	-7.531
▁since	-7.54128
▁college	-7.54998
▁wish	-7.55441
▁upset	-7.56934
▁doing	-7.56981
▁How	-7.57142
ly	-7.57252
▁thing	-7.57328
▁trip	-7.57665
▁kid	-7.57731
▁parents	-7.58455
▁anything	-7.58932
▁passed	-7.59302
▁cat	-7.59752
▁So	-7.60482
y	-7.60571
▁party	-7.60911
▁care	-7.61454
▁again	-7.61715
▁many	-7.63504
▁remember	-7.63763
▁month	-7.64548
▁vacation	-7.64551
▁favorite	-7.65296
▁finally	-7.65384
▁There	-7.65425
▁hate	-7.65583
▁high	-7.65617
▁game	-7.65923
▁such	-7.66472
▁must	-7.66514
▁sounds	-7.66708
▁store	-7.67169
▁trying	-7.67175
▁makes	-7.67291
▁done	-7.67441
▁wasn	-7.67633
▁knew	-7.68051
▁started	-7.68084
▁girl	-7.68945
▁every	-7.69282
▁sister	-7.69931
▁us	-7.70445
▁ever	-7.70617
▁place	-7.71509
▁awesome	-7.71599
▁No	-7.72209
▁said	-7.73182
▁almost	-7.73342
▁once	-7.73551
▁man	-7.73598
▁start	-7.73719
▁soon	-7.74161
▁where	-7.74473
▁morning	-7.74953
▁try	-7.75085
▁here	-7.75494
▁working	-7.75591
▁live	-7.75684
▁Some	-7.76588
▁person	-7.76738
▁dad	-7.77495
▁months	-7.77529
▁keep	-7.77839
▁died	-7.78034
▁another	-7.79045
▁glad	-7.79184
▁bit	-7.79341
▁forward	-7.79372
▁two	-7.79608
▁guy	-7.79864
e	-7.81408
▁gave	-7.81758
▁happened	-7.83359
▁weeks	-7.84337
▁2	-7.84812
▁play	-7.85234
▁without	-7.86006
▁same	-7.86291
▁broke	-7.87446
▁taking	-7.87574
▁baby	-7.88312
▁pay	-7.8842
▁sometimes	-7.88582
▁interview	-7.89993
▁hit	-7.90352
▁waiting	-7.91244
▁moved	-7.91446
▁eat	-7.91939
▁buy	-7.92206
▁3	-7.92988
▁show	-7.93414
n	-7.94298
▁sick	-7.94629
▁couldn	-7.94845
▁lol	-7.94932
▁ate	-7.95411
▁watch	-7.95475
▁say	-7.96371
▁movie	-7.96646
▁look	-7.97425
▁tell	-7.9747
▁One	-7.98472
▁scary	-7.98566
▁class	-7.98827
▁times	-7.9896
▁tried	-7.99393
▁walking	-7.99742
▁proud	-8.00328
▁does	-8.00393
▁Wow	-8.00434
▁front	-8.01067
▁together	-8.0117
▁those	-8.01277
▁super	-8.02229
▁cool	-8.02306
▁everyone	-8.02486
▁amazing	-8.02607
▁bet	-8.02871
▁enough	-8.02872
▁end	-8.03358
▁Thi	-8.03661
▁whole	-8.04514
▁Do	-8.04597
▁late	-8.04641
▁terrible	-8.05043
▁until	-8.05153
▁door	-8.05602
▁summer	-8.05703
▁date	-8.05783
▁haven	-8.05798
▁quite	-8.06303
▁most	-8.06763
▁give	-8.06816
▁past	-8.07123
er	-8.07685
▁heard	-8.07689
▁child	-8.07935
▁boyfriend	-8.08337
▁watching	-8.08591
▁own	-8.08761
▁why	-8.08961
▁move	-8.09393
▁forgot	-8.10698
▁shocked	-8.10724
▁dinner	-8.11266
▁neighbor	-8.11357
▁win	-8.1163
▁guess	-8.11688
one	-8.11779
▁worried	-8.1197
▁leave	-8.12674
▁outside	-8.13296
▁idea	-8.13752
▁least	-8.13989
▁Why	-8.1399
▁thinking	-8.14002
▁happen	-8.14141
▁ended	-8.14177
▁phone	-8.14243
▁afraid	-8.14625
▁town	-8.14659
▁actually	-8.14835
▁promotion	-8.15439
▁couple	-8.15714
▁mother	-8.15839
▁might	-8.16664
▁Just	-8.16664
▁playing	-8.16918
▁stay	-8.17155
▁asked	-8.17816
▁exam	-8.17931
▁Last	-8.17943
▁stuff	-8.18001
▁worked	-8.19383
▁its	-8.19499
▁ran	-8.19885
▁understand	-8.20104
▁nothing	-8.20687
▁close	-8.20687
▁Are	-8.21386
▁company	-8.21459
▁Maybe	-8.21848
▁talk	-8.22456
▁needed	-8.22721
▁cant	-8.23166
▁,	-8.23624
▁driving	-8.23682
▁wrong	-8.24878
▁also	-8.24905
▁seen	-8.25058
▁pizza	-8.25165
▁room	-8.25675
▁visit	-8.25698
▁5	-8.26785
▁call	-8.26941
▁M	-8.27534
▁team	-8.27961
▁else	-8.2828
▁world	-8.2842
▁making	-8.28422
▁yet	-8.28558
▁S	-8.2859
▁didnt	-8.29394
▁these	-8.29891
▁doesn	-8.30426
▁already	-8.30803
▁4	-8.31202
▁mine	-8.31375
▁surprised	-8.31487
▁brought	-8.31515
▁anyone	-8.31728
▁restaurant	-8.32048
▁angry	-8.32233
▁boss	-8.32654
f	-8.32996
▁tonight	-8.33133
▁oh	-8.33238
▁memories	-8.34416
▁im	-8.34863
▁okay	-8.35157
▁prepared	-8.36376
▁gone	-8.36824
▁drive	-8.3709
▁sleep	-8.37378
▁use	-8.37821
▁coworker	-8.38045
▁married	-8.38624
▁which	-8.38626
▁10	-8.39091
▁thankful	-8.3919
▁final	-8.39233
▁stole	-8.39359
▁wow	-8.3955
▁fell	-8.39708
▁road	-8.4017
▁ex	-8.41143
▁dont	-8.41308
▁mean	-8.41436
▁talking	-8.42236
r	-8.42669
▁enjoy	-8.42935
▁hurt	-8.43003
▁And	-8.43212
▁clean	-8.44693
▁called	-8.44801
▁part	-8.449
▁trust	-8.45392
▁far	-8.46237
▁T	-8.46329
▁paid	-8.47444
▁seeing	-8.48031
▁"	-8.48192
▁hours	-8.48247
▁bed	-8.48285
▁dur	-8.48308
▁supposed	-8.48656
▁childhood	-8.48965
▁expecting	-8.49295
▁poop	-8.49437
▁eating	-8.49625
▁looked	-8.49769
▁meeting	-8.49897
▁sweet	-8.49962
▁important	-8.49997
▁ordered	-8.5003
▁huge	-8.50338
▁stop	-8.50695
▁grandmother	-8.50699
▁loved	-8.50845
w	-8.51051
▁turned	-8.51238
▁Was	-8.51728
▁cut	-8.51853
▁gross	-8.52055
▁yes	-8.52078
I	-8.52137
▁football	-8.52252
▁Have	-8.52387
▁pet	-8.52538
▁crazy	-8.52604
▁Now	-8.52648
▁father	-8.52826
▁surprise	-8.5317
▁season	-8.53313
th	-8.54035
▁walked	-8.54094
▁hoping	-8.54578
▁bring	-8.54746
▁Good	-8.54923
in	-8.55064
▁gift	-8.55265
▁starting	-8.55369
▁change	-8.55588
▁seems	-8.5572
"	-8.55813
▁each	-8.56382
▁park	-8.56469
▁anymore	-8.56749
▁doctor	-8.5684
▁kept	-8.56933
▁cake	-8.57032
▁lucky	-8.57351
▁Not	-8.57414
▁fast	-8.57458
▁check	-8.57577
▁confident	-8.57859
▁studied	-8.58419
▁watched	-8.58749
▁run	-8.59102
▁dogs	-8.5914
▁luck	-8.59497
▁meet	-8.59855
▁lately	-8.60206
▁break	-8.60745
▁both	-8.60846
▁ok	-8.61312
▁beach	-8.61492
▁gonna	-8.61682
▁true	-8.61844
Y	-8.61919
▁card	-8.61937
▁moving	-8.62622
▁water	-8.62821
▁spent	-8.63013
▁city	-8.63015
▁situation	-8.63191
▁young	-8.63539
▁later	-8.64036
▁-	-8.64227
▁maybe	-8.64394
▁shopping	-8.64792
a	-8.64891
▁horrible	-8.64991
▁neighbors	-8.65235
▁walk	-8.65248
▁early	-8.65599
k	-8.65761
▁living	-8.658
▁children	-8.65995
▁puppy	-8.65995
▁co	-8.66163
▁pass	-8.66397
▁usually	-8.66407
▁lottery	-8.66602
▁gets	-8.66622
▁caught	-8.66806
▁free	-8.66916
▁spend	-8.66937
▁movies	-8.66976
▁threw	-8.67213
▁wouldn	-8.67525
▁probably	-8.67623
▁yeah	-8.67836
▁apartment	-8.67898
▁near	-8.68239
▁future	-8.68654
▁tough	-8.68771
▁younger	-8.69331
▁under	-8.69677
▁deal	-8.70053
▁different	-8.70062
▁remind	-8.70484
▁fine	-8.70571
▁semester	-8.71172
▁ask	-8.71282
▁full	-8.71748
▁concert	-8.72026
▁raise	-8.72318
▁definitely	-8.72672
▁lonely	-8.72888
▁yard	-8.72889
▁games	-8.72904
▁worst	-8.73104
▁graduated	-8.73174
▁relationship	-8.73205
▁un	-8.73329
▁side	-8.73547
▁behind	-8.73756
▁open	-8.73971
▁math	-8.74637
▁decid	-8.74655
▁applied	-8.74882
▁lunch	-8.75061
▁real	-8.75122
▁entire	-8.75243
▁law	-8.75288
▁thats	-8.75558
▁project	-8.7565
▁Yesterday	-8.75738
▁awful	-8.75739
▁partner	-8.75963
▁ticket	-8.76105
▁All	-8.76179
▁experience	-8.76184
▁mind	-8.76411
▁pants	-8.76727
▁order	-8.76757
▁pick	-8.76923
▁happens	-8.77293
▁reason	-8.77459
▁Sometimes	-8.78057
▁pregnant	-8.78216
▁truck	-8.78217
▁turn	-8.78295
▁wonderful	-8.7862
▁ashamed	-8.78673
▁accidentally	-8.78905
▁accident	-8.7908
al	-8.79744
▁sound	-8.79809
▁Me	-8.79828
▁Thanks	-8.80077
▁couldnt	-8.80269
▁bunch	-8.80527
▁running	-8.80993
▁Thank	-8.81205
▁yourself	-8.81229
▁country	-8.81462
▁totally	-8.81942
▁cheated	-8.82088
▁results	-8.8225
▁woke	-8.82408
▁After	-8.82646
▁agree	-8.82741
▁fall	-8.82849
▁street	-8.83123
▁head	-8.83833
▁weird	-8.83845
▁three	-8.84328
▁heart	-8.84676
▁met	-8.84722
▁jealous	-8.84762
▁grocery	-8.85059
▁goes	-8.85243
▁Hopefully	-8.85303
▁isn	-8.85317
▁realized	-8.85428
▁business	-8.85548
▁cannot	-8.85572
▁grade	-8.85609
▁sucks	-8.86698
▁yea	-8.86998
▁afford	-8.87022
▁face	-8.87187
▁guys	-8.87278
▁exciting	-8.8728
▁traffic	-8.87531
▁At	-8.87583
▁fix	-8.88513
▁born	-8.8879
▁bar	-8.88845
▁video	-8.88861
▁storm	-8.89092
▁comes	-8.89175
▁imagine	-8.89185
▁:)	-8.89292
▁helped	-8.89695
▁ride	-8.89755
▁weight	-8.89965
▁decide	-8.90299
▁dropped	-8.90341
▁paying	-8.90573
▁across	-8.9058
▁gotten	-8.911
▁envious	-8.91357
▁earlier	-8.91358
▁state	-8.91466
▁wedding	-8.91618
▁coffee	-8.91618
▁stand	-8.91625
▁often	-8.91625
▁extra	-8.9235
▁C	-8.92509
▁mess	-8.92604
▁small	-8.92636
▁special	-8.92667
▁sitting	-8.9268
▁mail	-8.9293
▁news	-8.93558
▁boy	-8.93869
▁instead	-8.93993
▁tickets	-8.94087
▁busy	-8.94296
▁studying	-8.94445
▁middle	-8.94528
o	-8.947
▁pictures	-8.94853
▁6	-8.94902
▁cousin	-8.95228
▁planned	-8.95338
▁Once	-8.95339
▁Thats	-8.95549
▁W	-8.95661
▁Go	-8.95826
▁window	-8.96043
▁played	-8.96442
▁lied	-8.9678
▁dream	-8.96878
▁haha	-8.97288
▁online	-8.97291
▁nephew	-8.97433
▁office	-8.97493
▁leaving	-8.97526
▁grandma	-8.97803
▁half	-8.97806
▁music	-8.9808
▁either	-8.98081
▁credit	-8.98359
▁lose	-8.98603
▁Can	-8.98929
▁local	-8.99199
▁moment	-8.9971
▁anxious	-8.99763
▁broken	-9.00156
▁20	-9.00593
▁clothes	-9.00616
▁manager	-9.00675
▁inside	-9.00751
▁finished	-9.00791
▁wallet	-9.00902
▁seem	-9.01311
▁worth	-9.02001
▁difficult	-9.02284
ting	-9.0231
▁sent	-9.02342
▁single	-9.02344
▁trouble	-9.02596
▁annoying	-9.02673
▁keeps	-9.03005
/	-9.03132
▁bathroom	-9.03217
▁hot	-9.03314
c	-9.03357
▁girls	-9.03392
▁expect	-9.03763
▁For	-9.03806
▁hair	-9.03808
▁plans	-9.03962
▁expensive	-9.04099
▁disappointed	-9.04395
▁neighborhood	-9.04396
▁line	-9.04428
es	-9.05203
▁lady	-9.05589
▁(	-9.05591
▁cancer	-9.056
▁point	-9.05784
▁gym	-9.05888
▁minutes	-9.05973
▁forever	-9.06393
▁Christmas	-9.06491
i	-9.06889
▁planning	-9.071
▁coworkers	-9.07355
▁Sounds	-9.07403
▁set	-9.07518
▁computer	-9.08016
▁trash	-9.08017
▁brand	-9.08323
▁cute	-9.08374
▁B	-9.08395
▁rug	-9.08632
▁received	-9.08688
▁rest	-9.08784
▁Every	-9.09228
▁embarrassed	-9.09261
▁second	-9.09291
▁read	-9.09561
▁Yea	-9.09843
▁name	-9.09927
▁dark	-9.10189
▁easy	-9.10189
▁ice	-9.1038
▁positive	-9.10453
st	-9.1079
▁woman	-9.10819
▁hospital	-9.10929
▁hour	-9.11213
▁looks	-9.11369
it	-9.11405
▁health	-9.11407
▁starts	-9.11409
▁self	-9.11456
▁worry	-9.11493
▁area	-9.1162
▁loud	-9.11723
▁borrow	-9.11773
▁course	-9.11844
▁Then	-9.11853
en	-9.11873
▁N	-9.11957
▁spill	-9.12104
▁failed	-9.12203
▁rain	-9.12592
▁Today	-9.12735
▁may	-9.12739
▁faith	-9.13053
▁Nice	-9.13057
▁8	-9.13164
▁pulled	-9.13234
▁due	-9.13387
▁worse	-9.13704
▁drink	-9.1419
▁learned	-9.14284
▁box	-9.14294
▁book	-9.14522
▁missed	-9.14537
▁completely	-9.14702
▁police	-9.15011
▁guilty	-9.15018
▁especially	-9.1502
▁In	-9.15184
▁kitchen	-9.15344
▁fight	-9.15521
▁older	-9.15747
▁case	-9.1601
▁gas	-9.16372
▁lived	-9.16931
▁weather	-9.1701
▁position	-9.17347
▁Where	-9.17349
▁plan	-9.17542
▁expected	-9.17664
▁Don	-9.1845
▁impressed	-9.18726
▁chance	-9.18872
▁parking	-9.18878
▁realize	-9.18915
▁drunk	-9.19048
▁30	-9.19054
▁telling	-9.19294
▁pool	-9.19738
▁1	-9.20429
▁taken	-9.20726
▁quiet	-9.20746
▁less	-9.20841
▁word	-9.2098
▁invited	-9.21192
▁hang	-9.21348
▁grateful	-9.21478
▁everyday	-9.21485
p	-9.21561
▁P	-9.21647
▁thank	-9.2183
▁bank	-9.21839
▁top	-9.21845
▁learn	-9.22513
▁problem	-9.22766
▁dollars	-9.23153
▁shoes	-9.23192
▁safe	-9.23197
▁stuck	-9.23252
▁snake	-9.23486
▁floor	-9.23688
▁seemed	-9.23974
▁sit	-9.24026
or	-9.24102
▁matter	-9.24213
▁photos	-9.24463
▁beautiful	-9.24639
▁15	-9.24707
▁pain	-9.24922
▁stopped	-9.25063
▁beat	-9.25104
▁bill	-9.25312
▁takes	-9.2536
▁dead	-9.25369
est	-9.25386
▁Be	-9.25406
▁smart	-9.26114
▁terrified	-9.26529
▁bills	-9.26626
▁stepp	-9.26648
▁bus	-9.26663
▁training	-9.2669
▁age	-9.26725
▁along	-9.27084
▁trusted	-9.27148
▁Our	-9.27269
▁offered	-9.27541
▁Never	-9.27647
▁diet	-9.27658
▁throw	-9.277
▁dent	-9.27732
▁missing	-9.27849
▁fair	-9.27967
▁meal	-9.28078
▁given	-9.28132
▁d	-9.28274
▁presentation	-9.28394
▁offer	-9.28498
▁cleaning	-9.29031
▁tired	-9.29225
▁Were	-9.29231
▁light	-9.29477
▁camping	-9.29632
worker	-9.30148
u	-9.30244
▁works	-9.30273
▁cruise	-9.30291
)	-9.30476
▁cheating	-9.30544
h	-9.30619
▁funny	-9.30681
▁save	-9.30833
▁wants	-9.30839
l	-9.30943
▁wear	-9.31015
▁bag	-9.31026
▁type	-9.31062
able	-9.31145
b	-9.31196
▁teacher	-9.3143
▁helping	-9.31669
▁animals	-9.31757
▁band	-9.31824
▁church	-9.31839
▁aunt	-9.31842
▁returned	-9.32052
▁Monday	-9.3223
▁present	-9.32314
▁showed	-9.32552
▁group	-9.32591
▁feels	-9.32896
▁rent	-9.33406
▁loan	-9.33412
▁tv	-9.33413
ther	-9.33568
coming	-9.33754
▁noise	-9.3382
but	-9.34133
▁forget	-9.34193
▁asking	-9.34356
▁red	-9.34377
▁Trump	-9.34606
▁:(	-9.34606
▁study	-9.34733
▁liked	-9.34741
▁others	-9.35114
hose	-9.35158
▁growing	-9.35234
▁unexpected	-9.3536
▁cream	-9.3541
▁become	-9.35435
less	-9.35574
▁awhile	-9.35816
▁piece	-9.3583
▁roommate	-9.3583
▁noticed	-9.35922
▁As	-9.37395
▁relaxing	-9.37647
▁insurance	-9.37865
▁TV	-9.37868
▁hopefully	-9.37925
and	-9.38107
▁bonus	-9.38267
▁giving	-9.38696
▁surgery	-9.38696
▁cup	-9.38699
▁quickly	-9.38716
le	-9.39017
▁hopeful	-9.39191
▁cheat	-9.39403
▁attention	-9.39562
▁Everyone	-9.39577
▁F	-9.39925
▁stayed	-9.40053
▁short	-9.40799
▁amount	-9.4084
▁problems	-9.4096
▁ground	-9.40961
▁On	-9.41209
▁package	-9.41235
▁animal	-9.41323
▁healthy	-9.4173
▁saying	-9.41984
▁daughters	-9.42493
▁Friday	-9.42527
▁speech	-9.42527
▁Congratulations	-9.42587
▁graduate	-9.42819
▁rough	-9.42963
▁interesting	-9.43071
▁saved	-9.43122
▁lots	-9.43353
▁furious	-9.43398
▁cooking	-9.43653
▁changed	-9.43741
▁stupid	-9.43833
▁competition	-9.43837
▁degree	-9.43837
▁figure	-9.43871
▁annoyed	-9.43897
▁accepted	-9.43971
▁score	-9.44257
▁supplies	-9.44277
▁support	-9.44437
▁exams	-9.44527
▁cats	-9.44544
▁lives	-9.44974
▁exactly	-9.45174
▁wanting	-9.45199
▁spending	-9.45324
▁hand	-9.45578
▁Even	-9.45611
▁flight	-9.45611
▁Really	-9.45616
▁smash	-9.45782
▁quit	-9.45858
▁promised	-9.46097
▁contest	-9.46509
▁shop	-9.46546
▁aren	-9.46547
▁issues	-9.46788
te	-9.46841
▁current	-9.4691
▁c	-9.47133
▁fire	-9.47287
▁power	-9.47414
▁New	-9.47418
▁sign	-9.47753
▁kinda	-9.47814
▁catch	-9.47942
▁anyway	-9.48054
!!!	-9.48161
▁Luckily	-9.48332
▁People	-9.48332
▁soccer	-9.4836
▁classes	-9.48385
▁sisters	-9.48527
▁tripped	-9.48812
▁pleased	-9.48835
▁count	-9.49171
▁everywhere	-9.49258
▁pissed	-9.49287
▁candy	-9.49296
▁cause	-9.49354
▁re	-9.49354
▁driver	-9.49519
▁finish	-9.49562
▁Man	-9.4968
▁god	-9.49729
▁ha	-9.49783
▁needs	-9.49852
▁scratch	-9.49863
▁large	-9.50166
ment	-9.50245
▁die	-9.50314
▁poor	-9.51085
▁amazed	-9.51624
▁talked	-9.51656
▁cook	-9.51694
▁opened	-9.52205
▁?	-9.52359
▁frustrating	-9.52558
▁control	-9.52683
▁service	-9.52788
▁rat	-9.52882
▁financial	-9.52987
▁knowing	-9.53261
▁secret	-9.53286
▁cost	-9.53336
▁cried	-9.53522
▁content	-9.53541
▁Went	-9.53566
▁fly	-9.53762
▁appreciate	-9.53917
▁nostalgic	-9.54007
on	-9.54587
▁cleaned	-9.54834
▁grow	-9.54888
▁t	-9.55497
▁crashed	-9.55638
▁hadn	-9.55912
▁Make	-9.55977
▁Sorry	-9.55978
▁sat	-9.56112
▁major	-9.5647
▁black	-9.5647
▁shows	-9.56572
▁pull	-9.56694
▁lawn	-9.5705
▁killed	-9.5714
▁bother	-9.57357
▁dress	-9.57374
▁shouldn	-9.57485
▁social	-9.57488
▁ones	-9.57527
▁return	-9.57725
▁photo	-9.57792
▁perfect	-9.57926
▁D	-9.57948
▁strange	-9.57954
▁chicken	-9.5798
▁dating	-9.57987
▁gre	-9.58006
▁turns	-9.58098
▁Haha	-9.58167
▁smell	-9.58199
▁ahead	-9.58259
▁fan	-9.58289
▁baseball	-9.58486
▁anniversary	-9.58487
▁IT	-9.58498
▁fixed	-9.58533
▁slow	-9.58914
▁public	-9.58996
▁saving	-9.59334
▁song	-9.59871
▁internet	-9.60542
▁rude	-9.60542
▁Who	-9.60587
▁longer	-9.60944
▁appointment	-9.61063
▁death	-9.61063
▁minute	-9.61438
▁7	-9.61561
▁asleep	-9.61586
▁losing	-9.61588
▁putting	-9.61706
▁wonder	-9.62073
▁university	-9.62113
ta	-9.62139
▁buddy	-9.62642
▁riding	-9.62806
▁homeless	-9.62843
▁bros	-9.62871
▁fear	-9.63019
▁serious	-9.63122
▁pair	-9.63175
▁spider	-9.63582
▁nerve	-9.63625
▁listen	-9.63697
▁graduation	-9.63709
▁knows	-9.64016
▁items	-9.64122
▁Got	-9.64306
▁cookies	-9.64498
▁picture	-9.64673
▁sold	-9.64791
▁winning	-9.64795
▁himself	-9.64801
▁send	-9.64859
▁mistake	-9.65184
▁grandfather	-9.65216
▁story	-9.65331
▁notice	-9.6543
▁deserve	-9.65623
▁using	-9.65639
▁towards	-9.65645
▁chocolate	-9.65755
▁miles	-9.66299
▁push	-9.66432
▁irritated	-9.66442
▁spot	-9.66978
▁impressive	-9.66979
▁swimming	-9.66982
▁ruined	-9.6709
ever	-9.67122
▁packed	-9.67175
▁wasnt	-9.67242
▁certain	-9.67483
▁carpet	-9.67535
▁enjoyed	-9.67938
▁number	-9.68014
▁faithful	-9.68097
▁Super	-9.68112
▁visiting	-9.6812
▁jumped	-9.68354
▁empty	-9.68655
▁laptop	-9.68655
▁several	-9.68655
▁promoted	-9.68662
▁mall	-9.68707
▁Hope	-9.69223
▁sentimental	-9.69226
▁roller	-9.69243
▁parent	-9.69441
▁E	-9.69663
▁satisfied	-9.69788
▁babies	-9.69788
▁badly	-9.69896
▁cheap	-9.70328
▁blood	-9.70359
▁toilet	-9.70366
▁hold	-9.70602
▁flying	-9.70687
▁bike	-9.70948
▁picked	-9.71065
▁tree	-9.7146
▁couch	-9.71528
▁buying	-9.72016
▁switch	-9.72093
▁Look	-9.72095
▁sort	-9.72124
▁relax	-9.72261
▁sun	-9.72554
▁honest	-9.72575
▁blame	-9.72627
▁foot	-9.72681
▁system	-9.72694
▁crush	-9.72997
▁eyes	-9.73007
out	-9.73072
▁paper	-9.73243
▁World	-9.73268
▁manage	-9.73466
▁handle	-9.73534
▁sleeping	-9.73755
▁jump	-9.73819
▁optimistic	-9.74453
▁tournament	-9.74453
▁basement	-9.74454
▁winter	-9.74468
▁plane	-9.7452
▁nerves	-9.74594
▁speak	-9.74738
▁12	-9.74986
▁absolutely	-9.75056
▁extremely	-9.7506
▁race	-9.75076
▁against	-9.75236
▁Sunday	-9.75649
▁Eagles	-9.75655
▁ball	-9.7567
▁embarrassing	-9.75672
▁Ah	-9.75745
▁Aw	-9.75802
hile	-9.75822
▁wearing	-9.76089
▁peace	-9.76211
▁shirt	-9.76277
▁award	-9.76642
▁School	-9.76871
▁table	-9.76884
▁building	-9.77081
▁dentist	-9.77487
▁approved	-9.77498
▁stranger	-9.77531
▁research	-9.78101
▁bummed	-9.78101
▁distance	-9.78104
▁train	-9.78145
▁weren	-9.78206
▁scare	-9.78655
▁cash	-9.78721
▁truly	-9.78723
▁hungry	-9.78723
▁coaster	-9.78776
▁helps	-9.79108
▁license	-9.79221
;	-9.79264
▁blue	-9.79347
▁performance	-9.79348
▁choice	-9.79396
▁yelled	-9.79425
▁sense	-9.79436
▁fired	-9.79564
▁alive	-9.79694
▁nasty	-9.79976
▁celebrate	-9.79994
▁cars	-9.80188
se	-9.80225
▁hanging	-9.80475
▁barely	-9.80615
▁staying	-9.80757
▁toys	-9.80758
g	-9.811
▁share	-9.81101
▁beer	-9.8113
▁filled	-9.81332
▁bowl	-9.81336
▁jobs	-9.81359
▁drop	-9.81605
▁Recently	-9.81887
▁court	-9.81887
▁groceries	-9.81887
▁medical	-9.81888
▁comfortable	-9.81892
▁fit	-9.82094
▁drivers	-9.8227
▁meant	-9.82482
▁lay	-9.82501
▁devastated	-9.82532
▁Very	-9.82532
▁disgusted	-9.82573
▁niece	-9.82617
▁hurricane	-9.82618
▁air	-9.82751
▁sell	-9.8287
▁cry	-9.82897
▁complain	-9.82903
▁means	-9.82908
▁eventually	-9.83182
▁burger	-9.83185
▁R	-9.83232
▁rush	-9.83829
▁uncle	-9.83835
▁stress	-9.83971
▁brothers	-9.84171
▁haunted	-9.8451
▁vet	-9.84514
▁herself	-9.84518
▁18	-9.84775
▁checked	-9.84816
▁skills	-9.8502
▁drinking	-9.85053
▁possible	-9.85155
▁Had	-9.85242
▁turning	-9.85296
▁shower	-9.85417
▁steal	-9.85544
▁shouldnt	-9.85647
ies	-9.85674
▁easier	-9.85822
▁scholarship	-9.85822
▁stressful	-9.85825
▁vomited	-9.85944
▁drove	-9.86493
▁Everything	-9.86493
▁loss	-9.86533
D	-9.86665
▁low	-9.87147
▁track	-9.87215
▁b	-9.873
▁feet	-9.87368
▁strong	-9.87818
came	-9.87833
▁report	-9.8785
▁travel	-9.88254
us	-9.8846
▁Nintendo	-9.88534
▁anxiety	-9.88534
▁delicious	-9.88534
▁marriage	-9.88534
▁spouse	-9.88534
▁boat	-9.8854
▁cold	-9.8855
▁calling	-9.88551
▁tire	-9.8857
▁closed	-9.88611
▁happening	-9.88741
▁garden	-9.88941
▁cancel	-9.88943
▁learning	-9.89071
▁step	-9.89172
▁Tomorrow	-9.89224
▁fault	-9.89224
▁stoked	-9.89224
▁adult	-9.89404
▁dollar	-9.89414
▁lie	-9.89502
an	-9.89753
▁Disney	-9.89917
▁robbed	-9.89918
▁decent	-9.89919
▁arrived	-9.90031
▁note	-9.9007
▁whenever	-9.90489
▁Florida	-9.90617
▁christmas	-9.90617
▁list	-9.90629
▁stolen	-9.90777
▁random	-9.9127
▁wake	-9.91323
▁station	-9.91325
▁feed	-9.91433
▁destroyed	-9.91446
▁words	-9.91624
▁cooked	-9.91733
▁chas	-9.9181
▁m	-9.91813
▁shelter	-9.92041
▁randomly	-9.92083
▁treat	-9.924
▁attend	-9.92498
▁rescue	-9.92602
ar	-9.92655
▁Hey	-9.92678
▁fridge	-9.92745
▁tornado	-9.92745
▁hearing	-9.92921
▁cover	-9.93124
▁Before	-9.93464
▁alright	-9.93465
▁paycheck	-9.93467
▁honestly	-9.93528
ro	-9.93547
▁bird	-9.9371
▁students	-9.93886
▁career	-9.93972
▁emotional	-9.94139
▁attack	-9.94179
▁Turn	-9.94189
▁process	-9.94189
▁dump	-9.94565
▁pre	-9.94649
▁lake	-9.94917
▁Get	-9.94919
▁cashier	-9.94921
▁backyard	-9.94927
▁suddenly	-9.94954
▁rock	-9.95215
▁God	-9.95305
▁debt	-9.95626
▁sandwich	-9.95642
▁Awesome	-9.95654
▁Nothing	-9.95655
▁body	-9.95676
▁40	-9.95839
▁holiday	-9.95934
▁issue	-9.96023
▁50	-9.96111
ion	-9.96115
▁garage	-9.96395
▁anywhere	-9.964
▁Hi	-9.96554
▁calm	-9.969
▁grades	-9.97052
▁L	-9.97066
▁careful	-9.97116
▁de	-9.97705
▁pets	-9.97723
▁loyal	-9.97891
▁between	-9.97893
▁memory	-9.97893
▁disgusting	-9.97941
▁following	-9.98042
▁nose	-9.98101
▁feelings	-9.98134
▁effort	-9.9819
▁student	-9.98209
▁crying	-9.98216
▁crushed	-9.98249
▁reading	-9.98566
▁roll	-9.98658
▁Congrats	-9.98665
▁Does	-9.98679
▁unfortunately	-9.98687
▁fact	-9.98714
▁grown	-9.98714
▁places	-9.98768
▁spiders	-9.98831
▁wreck	-9.98844
▁stressed	-9.98972
▁afterwards	-9.99016
▁contact	-9.99134
her	-9.99137
▁13	-9.9934
▁lane	-9.99414
▁roof	-9.99414
▁LOL	-9.99415
▁Yep	-9.99415
▁breakfast	-9.99415
▁four	-9.99416
▁ghost	-9.99463
▁eye	-9.99614
▁act	-9.99705
▁O	-9.99967
▁suppose	-10.0004
▁teach	-10.0007
▁deep	-10.0013
▁diagnos	-10.0018
▁hockey	-10.0018
▁Life	-10.0018
▁cancelled	-10.0018
▁honor	-10.0022
▁fle	-10.0032
▁peed	-10.0035
▁ten	-10.0043
▁stinks	-10.0044
▁leg	-10.0049
time	-10.0058
▁trusting	-10.0071
▁prepare	-10.0082
▁touch	-10.0088
ers	-10.0089
▁fiance	-10.0092
▁York	-10.0096
▁hasn	-10.0099
▁pack	-10.0119
ic	-10.0122
▁9	-10.0148
▁receive	-10.0157
▁somewhere	-10.0176
▁decision	-10.0211
▁His	-10.0222
▁fail	-10.0233
S	-10.0244
▁themselves	-10.0253
▁heartbroken	-10.0253
▁delivery	-10.0255
▁mower	-10.0256
▁passing	-10.0282
at	-10.0289
▁U	-10.029
▁fish	-10.0293
▁glass	-10.0331
el	-10.0332
▁horror	-10.0332
▁Ugh	-10.0332
▁ripped	-10.0332
▁abused	-10.034
▁account	-10.0341
▁shame	-10.0343
▁goodness	-10.0353
▁thanks	-10.0364
▁ma	-10.0378
▁depressed	-10.0412
▁reunion	-10.0412
▁emergency	-10.0412
▁pride	-10.0412
▁mouth	-10.0412
▁G	-10.0426
▁goal	-10.0449
▁kitten	-10.0451
▁16	-10.046
▁match	-10.0492
▁teeth	-10.0493
▁hide	-10.0496
▁bigge	-10.0497
rank	-10.0509
▁shock	-10.0519
▁normal	-10.0569
▁stock	-10.0574
▁sunday	-10.0574
▁carry	-10.0587
▁kill	-10.0597
▁keys	-10.0606
▁pray	-10.061
▁build	-10.0628
▁fat	-10.0652
▁awkward	-10.0656
▁lazy	-10.0656
▁lights	-10.0668
▁farted	-10.0676
▁stealing	-10.069
▁event	-10.0697
▁books	-10.0712
▁says	-10.0725
▁stomach	-10.0739
▁Like	-10.0739
▁reach	-10.0741
ur	-10.0787
▁swim	-10.0798
▁evening	-10.0811
▁landlord	-10.0822
▁dirty	-10.0823
▁flowers	-10.083
▁fishing	-10.0851
▁closet	-10.0873
▁ill	-10.088
▁e	-10.0893
▁visited	-10.091
▁closer	-10.092
▁speeding	-10.0929
▁loves	-10.0953
▁tip	-10.0955
▁fingers	-10.0956
ity	-10.0959
▁throwing	-10.0969
▁ring	-10.0984
▁With	-10.0991
▁bummer	-10.0991
▁literally	-10.0991
▁twice	-10.0991
▁third	-10.0991
▁stage	-10.0991
▁constantly	-10.0991
▁nowhere	-10.0992
▁attic	-10.1005
▁crash	-10.1022
▁land	-10.1022
▁ra	-10.1035
▁pays	-10.1059
▁argument	-10.1076
▁terrifying	-10.1077
nd	-10.1085
▁moments	-10.1096
▁wa	-10.1129
▁key	-10.113
▁board	-10.1136
▁dance	-10.1144
▁dumb	-10.1162
▁desk	-10.1162
▁loose	-10.1167
▁Aww	-10.1168
▁burned	-10.1173
▁freaked	-10.1183
▁whatever	-10.1188
▁gives	-10.1221
▁purse	-10.1249
▁Cool	-10.1249
▁Lol	-10.125
▁noises	-10.1251
▁doesnt	-10.1251
▁pumped	-10.1256
▁stick	-10.1286
▁breaking	-10.1288
▁gifts	-10.1301
▁pounds	-10.1317
▁arrive	-10.1323
taught	-10.1325
am	-10.1332
▁warm	-10.1335
▁To	-10.1337
▁$20	-10.1337
▁giant	-10.1337
▁level	-10.1337
▁progress	-10.1337
▁involved	-10.1339
▁certainly	-10.1345
▁entered	-10.1349
▁purchased	-10.135
ext	-10.1372
▁Or	-10.1383
▁100	-10.142
▁flat	-10.1425
▁Especially	-10.1426
▁beyond	-10.1426
▁ditch	-10.1426
▁boring	-10.1427
▁peaceful	-10.1433
▁keeping	-10.1453
▁rid	-10.1471
▁patient	-10.1478
▁ton	-10.1478
▁customer	-10.1484
▁result	-10.1485
▁steps	-10.1491
▁replace	-10.15
▁ya	-10.1512
▁Because	-10.1515
▁fence	-10.1515
▁answer	-10.1518
▁five	-10.1519
▁wont	-10.1541
▁continue	-10.1545
▁smelled	-10.1564
▁accept	-10.1576
▁crawl	-10.1604
▁straight	-10.1605
▁Wait	-10.1625
ng	-10.1629
▁conversation	-10.1666
▁practice	-10.1682
▁raining	-10.1683
▁dish	-10.1696
▁physics	-10.1696
▁practicing	-10.1696
▁confidence	-10.1696
▁luckily	-10.1697
▁peeved	-10.1698
▁youngest	-10.17
▁charge	-10.1728
▁laugh	-10.1732
▁canceled	-10.1733
▁bugs	-10.1747
▁hands	-10.1758
▁knock	-10.176
▁post	-10.1763
▁f	-10.1772
▁white	-10.1788
▁Glad	-10.1788
▁easily	-10.1788
▁explain	-10.1788
▁advice	-10.1788
▁block	-10.1788
▁fresh	-10.1788
▁kick	-10.1794
▁currently	-10.1798
▁See	-10.1815
▁w	-10.1833
▁program	-10.1852
▁cross	-10.1852
▁letter	-10.1857
▁st	-10.1874
▁preparing	-10.188
▁grand	-10.1882
▁caus	-10.1891
▁grandparents	-10.1892
▁Your	-10.1926
▁o	-10.1929
ation	-10.1929
▁joy	-10.1943
▁behavior	-10.1945
▁grad	-10.1964
ce	-10.1971
▁alot	-10.1974
▁senior	-10.1974
▁concerned	-10.1979
▁fully	-10.1997
▁onto	-10.2003
aw	-10.204
▁shot	-10.2042
▁invite	-10.2055
▁successful	-10.2065
▁Great	-10.2068
▁mortified	-10.2068
▁dishes	-10.2069
▁Of	-10.2071
▁caring	-10.2071
▁accomplished	-10.2082
▁heat	-10.2088
T	-10.2094
▁parked	-10.2116
▁kiss	-10.2134
▁woods	-10.2134
▁vehicle	-10.2163
▁Halloween	-10.2163
▁spring	-10.2163
▁wrote	-10.2163
▁friday	-10.2163
▁Most	-10.2164
▁Her	-10.2165
▁adopted	-10.2175
▁headed	-10.2177
bout	-10.2201
uch	-10.2208
▁human	-10.2234
▁albums	-10.2254
▁birth	-10.2259
▁vacuum	-10.2259
▁dude	-10.226
▁s	-10.2261
▁till	-10.2262
▁simple	-10.227
▁hitting	-10.2274
▁g	-10.2281
wo	-10.2282
▁moms	-10.2301
▁join	-10.231
▁remembered	-10.2337
▁complete	-10.2339
▁tooth	-10.2345
▁milk	-10.2357
▁swear	-10.2357
▁blast	-10.2357
▁indeed	-10.2357
▁flies	-10.2357
▁hated	-10.2358
as	-10.2367
▁applying	-10.2376
▁thankfully	-10.2389
▁plant	-10.239
▁doctors	-10.2404
▁sports	-10.2418
▁jerk	-10.2431
▁questions	-10.2454
▁afternoon	-10.2455
▁supervisor	-10.2455
▁film	-10.2461
▁text	-10.2476
▁Unfortunately	-10.2554
▁doubt	-10.2554
▁graduating	-10.2554
▁six	-10.2554
▁cell	-10.2554
▁Nope	-10.2556
▁amuse	-10.2562
old	-10.2574
▁picking	-10.2577
▁scored	-10.2586
ness	-10.2606
▁camp	-10.2623
▁alarm	-10.2625
▁avoid	-10.2626
▁regret	-10.2634
▁size	-10.264
▁basketball	-10.2654
▁Will	-10.2654
▁heights	-10.2654
▁gate	-10.2655
▁owner	-10.266
▁wouldnt	-10.2681
▁covered	-10.2693
up	-10.2694
▁lead	-10.2729
▁nail	-10.2737
▁garbage	-10.2755
▁held	-10.2755
▁immediately	-10.2755
▁mistakes	-10.2775
▁deserved	-10.2781
▁speed	-10.2836
▁coasters	-10.2849
▁subject	-10.2857
▁dangerous	-10.2857
▁Dang	-10.2857
▁grass	-10.2858
▁engaged	-10.2858
▁stairs	-10.2863
▁eaten	-10.2868
▁whe	-10.2889
▁men	-10.2895
▁oldest	-10.2896
▁mostly	-10.2904
ir	-10.2913
▁holidays	-10.2921
▁employee	-10.2942
▁frustrated	-10.296
▁opportunity	-10.296
▁happier	-10.2961
▁blessed	-10.2963
▁waited	-10.2967
cting	-10.2971
▁teaching	-10.2997
ry	-10.3009
▁drives	-10.3053
▁recent	-10.3059
▁:	-10.3063
▁women	-10.3064
▁Thankfully	-10.3064
▁tiny	-10.3064
▁harder	-10.307
▁highway	-10.3072
▁n	-10.3086
▁knocked	-10.3095
▁traveling	-10.3106
▁p	-10.3124
▁enjoying	-10.3141
▁divorce	-10.3155
▁Time	-10.3169
▁above	-10.3169
▁Right	-10.317
▁staring	-10.3183
gged	-10.3186
▁interested	-10.3197
▁opening	-10.3197
▁laughing	-10.3201
▁gun	-10.3206
▁dreams	-10.3206
▁14	-10.3221
▁goals	-10.3222
▁perform	-10.323
▁drinks	-10.324
the	-10.3269
▁bright	-10.3271
▁success	-10.3273
▁Exactly	-10.3276
▁airport	-10.3276
▁mood	-10.3277
▁driveway	-10.3277
▁field	-10.3278
▁normally	-10.3284
▁thrilled	-10.3285
▁perfectly	-10.3286
▁falling	-10.3293
▁ace	-10.3302
ive	-10.3322
▁depend	-10.3337
▁consider	-10.3355
▁attitude	-10.3368
▁sudden	-10.3378
▁apart	-10.3383
▁machine	-10.3383
▁property	-10.3383
▁fed	-10.3388
▁row	-10.3391
▁practiced	-10.34
▁tend	-10.3401
▁wasted	-10.3403
▁listening	-10.3439
me	-10.345
▁focus	-10.3464
▁unfortunate	-10.3487
▁$100	-10.3492
▁information	-10.3493
▁gosh	-10.3505
▁locked	-10.3516
▁slipp	-10.3526
▁interest	-10.3535
▁pot	-10.3536
▁holding	-10.3545
▁Any	-10.3547
▁space	-10.3574
▁quick	-10.3593
▁til	-10.3596
il	-10.3597
▁female	-10.3602
▁irritating	-10.3602
▁motorcycle	-10.3602
▁laid	-10.3602
▁email	-10.3602
▁Finally	-10.3602
▁corner	-10.3604
▁laughed	-10.3635
▁Too	-10.3668
▁odd	-10.3702
▁exercise	-10.3713
▁science	-10.3713
▁turtle	-10.3713
▁Think	-10.3713
▁porch	-10.3713
▁million	-10.3713
▁Fall	-10.3714
▁somehow	-10.3714
▁relaxed	-10.3767
▁Saturday	-10.3816
▁toddler	-10.3816
▁shut	-10.3825
▁Tinder	-10.3825
▁energy	-10.3825
▁blind	-10.3825
▁department	-10.3825
▁stray	-10.3825
▁bedroom	-10.3826
▁bigger	-10.383
▁snacks	-10.3862
▁praying	-10.3863
▁waste	-10.3879
▁per	-10.3885
▁drugs	-10.391
▁Ha	-10.392
ck	-10.392
▁color	-10.3932
▁lesson	-10.3935
▁gold	-10.3938
▁community	-10.3939
▁similar	-10.3939
▁stories	-10.3939
▁shape	-10.3939
▁etc	-10.3939
▁vase	-10.3939
▁oil	-10.3939
▁lying	-10.3939
▁lbs	-10.3958
ced	-10.3982
▁selling	-10.3988
v	-10.3996
▁freak	-10.404
▁period	-10.4048
▁review	-10.4048
▁soup	-10.4052
▁comfort	-10.4053
▁apprehensive	-10.4054
▁miserable	-10.4054
▁casino	-10.4054
▁basically	-10.4054
▁Back	-10.4054
▁double	-10.406
▁worker	-10.4107
▁correct	-10.4136
ous	-10.4162
▁bachelor	-10.417
▁Lebron	-10.417
▁skydiving	-10.417
▁confront	-10.417
▁Things	-10.417
▁Big	-10.4171
▁boxes	-10.4174
workers	-10.4175
▁nobody	-10.4176
▁bread	-10.4176
▁hired	-10.4179
▁cards	-10.4199
▁ending	-10.4238
ate	-10.4249
▁videos	-10.4254
▁market	-10.426
▁h	-10.4273
▁cheese	-10.4288
▁jail	-10.4288
▁closing	-10.4288
▁hotel	-10.4289
▁cable	-10.429
▁bee	-10.431
▁havent	-10.4311
▁l	-10.4321
▁r	-10.4322
▁suit	-10.4394
▁Fel	-10.4397
ra	-10.4398
▁disappointing	-10.4407
▁furniture	-10.4407
▁therapy	-10.4407
▁bottle	-10.4407
▁marry	-10.4407
▁ah	-10.4414
▁11	-10.4416
uring	-10.4431
▁crossed	-10.4443
ell	-10.4443
▁landed	-10.4446
▁higher	-10.4457
▁spray	-10.4499
▁earn	-10.4511
▁discover	-10.4525
▁nurse	-10.4527
▁drama	-10.4527
▁insane	-10.4527
▁daycare	-10.4527
▁struggling	-10.4527
▁sugar	-10.4527
▁monday	-10.4527
▁pretend	-10.4527
▁question	-10.4527
▁pregnancy	-10.4527
▁90	-10.4528
▁guard	-10.4528
▁sink	-10.4529
▁sale	-10.4531
▁spelling	-10.4534
▁yelling	-10.4542
▁fairly	-10.4544
C	-10.4551
▁kicked	-10.4564
▁seat	-10.4571
▁bear	-10.4588
nual	-10.459
▁clear	-10.4616
▁mark	-10.4629
▁prize	-10.4634
▁professional	-10.4644
▁necklace	-10.4649
▁Keep	-10.4649
▁taxes	-10.465
▁ugh	-10.4651
▁alcohol	-10.4653
▁fart	-10.466
▁personal	-10.4666
▁raised	-10.474
▁lock	-10.4742
▁repair	-10.4747
ound	-10.4753
▁mow	-10.4764
▁nursing	-10.4773
▁parcel	-10.4773
▁screen	-10.4773
▁starved	-10.4773
▁facebook	-10.4773
▁message	-10.4776
▁golf	-10.4776
ad	-10.4777
ped	-10.4788
▁delivered	-10.4791
▁boys	-10.4834
▁McDonalds	-10.4842
▁relatives	-10.4846
▁storms	-10.4861
▁condition	-10.4869
▁marathon	-10.4898
▁shining	-10.4898
▁buffet	-10.4898
▁nuts	-10.4898
▁25	-10.49
ch	-10.491
▁rely	-10.4912
▁allow	-10.4916
A	-10.4942
is	-10.4943
▁rode	-10.5023
▁except	-10.5024
▁Probably	-10.5024
▁overseas	-10.5024
▁trick	-10.5026
▁creepy	-10.5026
▁homework	-10.5027
▁Try	-10.5028
▁waitress	-10.5028
▁SO	-10.5028
▁album	-10.5032
▁However	-10.5036
▁skin	-10.5041
▁recover	-10.509
▁Fir	-10.5123
▁Feel	-10.5124
▁u	-10.5127
▁talent	-10.5132
▁calculus	-10.5152
▁plenty	-10.5152
▁underwear	-10.5152
▁illness	-10.5153
▁application	-10.5158
▁warning	-10.5159
son	-10.5172
rs	-10.5227
ally	-10.5233
▁schedule	-10.5268
▁write	-10.5273
▁taste	-10.5278
▁specific	-10.5282
▁employer	-10.5282
▁series	-10.5282
▁bite	-10.5283
▁helpful	-10.5288
▁app	-10.5296
▁arm	-10.5297
▁spit	-10.5297
▁soda	-10.5298
▁payment	-10.5303
▁charged	-10.5312
▁speaking	-10.5343
▁members	-10.5382
mash	-10.5395
hich	-10.5412
▁Kind	-10.5412
▁appreciative	-10.5414
▁cheer	-10.5414
▁education	-10.5414
▁gesture	-10.5414
▁beginning	-10.5414
▁value	-10.5414
▁fancy	-10.5414
▁accomplishment	-10.5414
▁injured	-10.5415
▁pleasant	-10.5417
▁media	-10.5421
▁presents	-10.5422
▁wall	-10.5433
▁followed	-10.544
▁$1	-10.5476
▁...	-10.5491
▁pro	-10.5507
▁relate	-10.5533
▁An	-10.5544
▁France	-10.5547
▁loving	-10.5547
▁ocean	-10.5547
▁expectations	-10.5547
▁bored	-10.5549
▁21	-10.5551
▁recipe	-10.556
▁task	-10.5561
▁shooting	-10.5561
▁teenager	-10.5562
▁workout	-10.5608
ful	-10.5628
▁prefer	-10.5682
▁Definitely	-10.5682
▁built	-10.5682
▁dancing	-10.5682
▁uncomfortable	-10.5682
▁writing	-10.5682
▁ridiculous	-10.5682
▁envy	-10.5683
▁restroom	-10.5683
▁seriously	-10.5695
nna	-10.5696
▁screaming	-10.5698
O	-10.5712
▁bump	-10.5713
▁sometime	-10.5733
▁eggs	-10.5748
▁ruin	-10.5763
▁Mom	-10.5786
ay	-10.5788
▁apply	-10.5797
▁gain	-10.5807
▁interviewed	-10.5809
▁spoke	-10.5816
retty	-10.5819
▁advantage	-10.5819
▁congratulations	-10.5819
▁funeral	-10.5819
▁skating	-10.5819
▁Still	-10.5819
▁travelling	-10.582
▁diving	-10.582
▁hiking	-10.582
▁deb	-10.5832
▁horse	-10.5834
▁crap	-10.5852
▁zoo	-10.5908
▁H	-10.5923
ter	-10.5924
▁anticipat	-10.5925
▁purchase	-10.5945
▁sales	-10.5957
▁despi	-10.5957
▁Absolutely	-10.5958
▁Europe	-10.5958
▁South	-10.5958
▁distraught	-10.5958
▁guitar	-10.5958
▁material	-10.5958
▁elementary	-10.5958
▁halloween	-10.5958
▁hurry	-10.5958
▁congrats	-10.5958
▁relief	-10.5958
▁elderly	-10.5959
▁thrones	-10.5966
▁Hawaii	-10.5966
▁price	-10.5972
▁financially	-10.5973
ant	-10.5974
▁mechanic	-10.5975
▁follow	-10.6043
▁upon	-10.6046
▁hahaha	-10.6058
▁remain	-10.607
ight	-10.6072
ri	-10.6076
gan	-10.6082
▁respect	-10.6084
▁physical	-10.6094
▁Facebook	-10.6099
▁Vegas	-10.6099
▁difference	-10.6099
▁humiliated	-10.6099
▁oven	-10.6099
▁litter	-10.6099
▁Yup	-10.6099
▁qualified	-10.6099
▁retirement	-10.6099
▁supermarket	-10.6099
▁US	-10.6099
▁printer	-10.61
▁Mine	-10.6101
▁joyful	-10.6103
▁bags	-10.6113
▁tasted	-10.6114
▁none	-10.6119
▁volunteered	-10.6122
um	-10.6124
▁pigs	-10.6133
▁leftovers	-10.614
▁wine	-10.6148
▁acted	-10.615
▁cousins	-10.616
ie	-10.6165
nt	-10.6168
▁cops	-10.6169
▁flood	-10.6186
▁file	-10.6197
▁usual	-10.6239
so	-10.6241
▁convince	-10.6242
▁fantastic	-10.6242
▁register	-10.6242
▁shoe	-10.6266
▁texting	-10.6282
▁parts	-10.6286
▁shocking	-10.6291
▁hurts	-10.6306
▁trained	-10.6306
".	-10.6315
1	-10.6332
▁hurting	-10.6348
▁invest	-10.6359
R	-10.6363
▁smoke	-10.6372
▁abuse	-10.6372
▁paint	-10.6378
▁direct	-10.6385
▁Texas	-10.6387
▁apparently	-10.6387
▁president	-10.6387
▁rabbit	-10.6387
▁security	-10.6387
▁cheesecake	-10.6387
▁damage	-10.6395
▁client	-10.641
▁th	-10.6419
▁painting	-10.642
▁beard	-10.6425
▁pee	-10.646
▁dis	-10.6462
▁interviews	-10.647
▁fighting	-10.651
▁particular	-10.6529
▁tax	-10.6534
▁airplane	-10.6534
▁heavy	-10.6534
▁quality	-10.6534
▁admit	-10.6534
▁judge	-10.6534
▁Although	-10.6542
▁county	-10.655
▁wild	-10.6561
▁plate	-10.6561
man	-10.6568
▁however	-10.657
▁sky	-10.6605
▁tea	-10.6625
▁y	-10.6627
▁birds	-10.6632
ent	-10.6636
way	-10.6645
▁tricks	-10.6675
▁Instead	-10.6683
▁Yikes	-10.6683
▁league	-10.6683
▁nintendo	-10.6683
▁refund	-10.6683
▁thursday	-10.6683
▁radio	-10.6683
▁ER	-10.6685
▁suprising	-10.6685
▁ability	-10.6686
▁record	-10.6687
age	-10.669
▁dying	-10.669
▁skill	-10.6691
▁history	-10.6692
▁tests	-10.6693
▁club	-10.6695
▁officer	-10.6708
▁pile	-10.6753
▁vomit	-10.6779
▁mental	-10.6831
▁America	-10.6831
▁Pokemon	-10.6835
▁pocket	-10.6835
▁smile	-10.6835
▁attractive	-10.6835
▁potty	-10.6835
▁bomb	-10.6835
▁Must	-10.6835
▁begin	-10.6836
▁rear	-10.6837
▁somebody	-10.6845
tion	-10.6851
▁screamed	-10.6852
▁breath	-10.687
).	-10.6872
▁shots	-10.6876
▁hu	-10.6892
he	-10.6899
▁nap	-10.6904
▁toy	-10.6904
▁jumping	-10.6906
ian	-10.6933
ephew	-10.6988
▁English	-10.6988
▁junior	-10.6988
▁mortgage	-10.6988
▁mouse	-10.6988
▁salad	-10.6988
▁highschool	-10.699
ling	-10.6995
▁ear	-10.7
▁punch	-10.7001
year	-10.7015
▁rollercoaster	-10.7023
▁mile	-10.7025
▁pound	-10.7026
▁monsters	-10.7035
▁item	-10.7036
▁limit	-10.7042
la	-10.7052
ut	-10.7066
▁wondering	-10.707
▁tour	-10.7078
▁Uh	-10.7098
▁destroy	-10.7117
▁booked	-10.712
▁advance	-10.713
▁lo	-10.7139
▁babysit	-10.7144
▁Indeed	-10.7145
▁bucks	-10.7145
▁hometown	-10.7145
▁committed	-10.7145
ical	-10.7145
▁frightened	-10.7146
▁cord	-10.715
▁proposed	-10.7151
▁nest	-10.7152
▁friendship	-10.7154
▁art	-10.7164
▁plays	-10.7168
▁sucked	-10.7169
▁replaced	-10.717
▁donate	-10.7175
▁member	-10.7183
▁savings	-10.7198
▁attacked	-10.7205
▁lovely	-10.7212
▁Mad	-10.7233
▁provide	-10.7282
▁Would	-10.7294
▁responsible	-10.7303
▁unhappy	-10.7303
▁witness	-10.7303
▁unsure	-10.7303
▁livid	-10.7303
▁awe	-10.7307
▁da	-10.7313
E	-10.7323
▁Hav	-10.7325
▁crime	-10.7341
▁drug	-10.7348
▁war	-10.7368
▁pop	-10.7372
▁wasp	-10.7383
▁nicer	-10.7401
He	-10.7402
▁experienced	-10.7406
▁tall	-10.7418
▁cared	-10.7454
▁general	-10.746
▁protect	-10.7464
▁jeans	-10.7465
▁style	-10.7465
▁Since	-10.7465
▁slept	-10.7465
▁Something	-10.7465
▁OK	-10.7465
▁fried	-10.7468
▁crowd	-10.7477
▁19	-10.7486
▁rescued	-10.7497
▁shift	-10.7507
ne	-10.7508
lent	-10.7509
▁joined	-10.7511
▁Kids	-10.7511
ose	-10.7538
▁pen	-10.7554
▁fights	-10.7566
▁22	-10.7572
▁diapers	-10.7575
▁snow	-10.7601
▁improve	-10.7613
▁BMW	-10.7629
▁Same	-10.7629
▁Tesla	-10.7629
▁Thanksgiving	-10.7629
▁ecstatic	-10.7629
▁split	-10.7629
▁Japan	-10.7629
▁certification	-10.7629
▁unknown	-10.7629
▁freshman	-10.7629
▁September	-10.7629
▁fries	-10.763
▁supportive	-10.763
▁overall	-10.7641
▁ignored	-10.7641
▁sub	-10.7644
▁related	-10.7647
▁unexpectedly	-10.765
▁singing	-10.765
▁promise	-10.7659
▁allowed	-10.767
▁hole	-10.7674
▁appreciated	-10.7677
end	-10.7683
aking	-10.7712
▁owe	-10.7723
▁player	-10.7731
▁cart	-10.7743
▁happiness	-10.7795
▁stubb	-10.7795
▁throat	-10.7795
▁laundry	-10.7796
▁anticipation	-10.7796
▁meat	-10.7796
ey	-10.7797
▁Watching	-10.7805
▁everytime	-10.7805
▁Has	-10.7806
▁Take	-10.7809
▁situations	-10.7811
▁income	-10.7811
▁refused	-10.7817
▁upsetting	-10.7831
▁habit	-10.7841
▁steak	-10.7842
▁ways	-10.7863
▁secrets	-10.7877
ty	-10.7902
une	-10.7906
▁tho	-10.7916
▁calls	-10.7917
waiting	-10.7957
▁scares	-10.7957
▁require	-10.7964
,000	-10.7964
▁$50	-10.7964
▁engine	-10.7965
▁athletic	-10.7965
▁disease	-10.7965
▁Always	-10.7965
▁succeed	-10.7965
▁gaming	-10.7965
▁voice	-10.7965
ALL	-10.7965
▁previous	-10.7965
▁dragon	-10.7965
▁plus	-10.7965
▁dumpster	-10.7965
▁properly	-10.7967
▁round	-10.7968
▁shy	-10.7968
▁irked	-10.797
▁teachers	-10.7982
▁understanding	-10.7995
ach	-10.8
▁spare	-10.8001
▁wood	-10.8018
▁songs	-10.8023
pe	-10.8028
ast	-10.806
rd	-10.8096
▁bat	-10.8097
▁volunteer	-10.8109
▁Happy	-10.8137
▁medicine	-10.8137
▁television	-10.8137
▁chair	-10.8137
▁trustworthy	-10.8138
▁superbowl	-10.8138
▁silly	-10.8138
▁prank	-10.8138
▁backpack	-10.814
▁Li	-10.8141
ance	-10.8143
▁ticked	-10.8144
▁approached	-10.8144
▁organized	-10.8147
▁pit	-10.8152
▁Bell	-10.8173
▁unit	-10.8208
nother	-10.8237
▁poo	-10.8247
▁flirt	-10.8284
▁fortunate	-10.8307
FC	-10.8313
▁knife	-10.8313
▁purpose	-10.8313
▁forgive	-10.8313
▁bakery	-10.8313
▁ends	-10.8315
▁blown	-10.8316
▁isolated	-10.8317
▁somewhat	-10.8323
Donald	-10.8325
▁rewarding	-10.8326
lthough	-10.8337
▁achieve	-10.8337
▁numbers	-10.8339
▁electric	-10.8342
▁stuffed	-10.8352
▁knee	-10.8367
▁diaper	-10.837
▁nephews	-10.8372
▁killing	-10.8373
▁snakes	-10.8374
▁failing	-10.8375
▁packing	-10.8376
▁J	-10.8393
▁k	-10.8394
▁sons	-10.8405
▁dressed	-10.8411
▁agreed	-10.842
▁chat	-10.843
no	-10.8456
▁blow	-10.8461
▁prices	-10.8466
▁bake	-10.8481
employed	-10.8481
▁negative	-10.8486
▁abroad	-10.8491
▁bottom	-10.8491
▁sidewalk	-10.8491
▁uneasy	-10.8491
▁disney	-10.8491
▁grill	-10.8491
▁request	-10.8491
▁grandpa	-10.8491
▁pressure	-10.8491
▁Wish	-10.8492
▁leash	-10.8492
▁painful	-10.8492
▁ta	-10.8493
▁rich	-10.8493
▁inspired	-10.8494
▁breed	-10.8496
▁belong	-10.8507
▁chest	-10.8516
▁heading	-10.8519
▁wishing	-10.8519
▁suck	-10.8524
▁flooded	-10.8526
▁coach	-10.8546
▁classic	-10.8552
▁wrecked	-10.8557
▁treated	-10.8561
▁manag	-10.8577
▁ski	-10.8613
▁rides	-10.8636
ile	-10.8641
▁lend	-10.8645
▁mix	-10.8645
ese	-10.8656
back	-10.8664
▁fond	-10.8668
▁idiot	-10.8673
▁instructor	-10.8673
▁intense	-10.8673
▁nature	-10.8673
▁thanksgiving	-10.8673
▁responsibility	-10.8673
▁chain	-10.8673
▁role	-10.8673
▁gig	-10.8673
▁tries	-10.8674
▁hike	-10.8674
▁bench	-10.8674
▁expired	-10.8675
▁overcome	-10.8675
▁Cup	-10.8675
▁baked	-10.8688
▁finances	-10.869
▁bull	-10.869
▁hall	-10.8701
▁soul	-10.8716
▁ordering	-10.8717
▁edge	-10.8726
▁answers	-10.8736
▁flu	-10.8746
▁skipp	-10.8756
▁accomplish	-10.883
op	-10.8836
▁phones	-10.8838
▁hire	-10.885
--	-10.885
▁California	-10.8858
▁average	-10.8858
▁balcony	-10.8858
▁disaster	-10.8858
▁inconsiderate	-10.8858
▁precious	-10.8858
▁reminisce	-10.8858
▁Mario	-10.8858
▁saturday	-10.8858
▁common	-10.8858
▁squid	-10.8858
▁daily	-10.8858
▁thru	-10.8858
▁Croatia	-10.8858
▁chill	-10.8859
▁tight	-10.8859
▁management	-10.8861
▁everybody	-10.8861
▁Work	-10.8862
▁wracking	-10.8863
▁deer	-10.8866
all	-10.8867
ated	-10.8867
▁rare	-10.8868
▁likely	-10.887
▁slowly	-10.8877
▁pics	-10.8882
▁foods	-10.8888
▁talented	-10.8899
▁Brothers	-10.8901
▁considering	-10.8907
▁isnt	-10.8907
▁80	-10.8909
▁belt	-10.8911
▁shake	-10.892
▁dr	-10.892
▁election	-10.8924
▁500	-10.8938
▁nights	-10.8947
▁deliver	-10.9014
z	-10.9018
▁repeat	-10.9019
W	-10.9027
she	-10.9033
▁severe	-10.9042
▁sex	-10.9042
▁incredibl	-10.9043
▁heal	-10.9046
▁lap	-10.9046
▁basic	-10.9047
▁True	-10.9047
▁piano	-10.9047
▁pokemon	-10.9047
▁strength	-10.9047
▁jacket	-10.9047
▁complex	-10.9047
▁shady	-10.9047
▁dealership	-10.9047
▁championship	-10.9047
▁engineering	-10.9047
▁USA	-10.9047
▁High	-10.9048
▁nearby	-10.9048
▁selected	-10.9049
▁earth	-10.9049
▁Boy	-10.905
▁anybody	-10.9051
▁puked	-10.9056
▁auto	-10.9058
▁someday	-10.9064
▁onions	-10.9076
sh	-10.9085
ook	-10.9093
▁dealing	-10.9109
▁ch	-10.9112
▁sport	-10.9119
▁Haven	-10.9126
hen	-10.9156
ex	-10.9174
▁farm	-10.9193
▁60	-10.921
▁affect	-10.9211
▁dang	-10.9236
▁chose	-10.9239
’	-10.9239
▁February	-10.9239
▁abilities	-10.9239
▁depressing	-10.9239
▁society	-10.9239
▁madden	-10.9239
▁hamster	-10.9239
▁ladies	-10.9239
▁location	-10.9239
▁baking	-10.924
▁smoking	-10.924
▁Ouch	-10.924
▁center	-10.9241
▁mass	-10.9242
▁dry	-10.9243
▁Ok	-10.9243
▁delayed	-10.9248
▁lessons	-10.925
▁headphones	-10.925
▁abandoned	-10.925
▁thrown	-10.9258
lbs	-10.926
▁Rid	-10.926
▁donuts	-10.9276
side	-10.93
ure	-10.9302
▁De	-10.9304
▁gra	-10.9305
▁hundred	-10.9314
▁braves	-10.933
▁workers	-10.9335
▁decisions	-10.9342
▁2000	-10.9361
▁search	-10.9407
▁rained	-10.9408
id	-10.9427
▁regular	-10.943
▁courage	-10.9435
▁truth	-10.9435
▁dread	-10.9435
▁appartment	-10.9435
▁economy	-10.9435
▁language	-10.9435
▁:/	-10.9438
▁relieved	-10.9438
gr	-10.944
▁climbing	-10.9462
▁lifting	-10.9462
▁itself	-10.947
▁alley	-10.947
▁battle	-10.9471
▁completed	-10.9475
ap	-10.948
▁multipl	-10.9486
▁letters	-10.9495
L	-10.9497
▁challenge	-10.9512
ge	-10.9513
king	-10.9523
▁wash	-10.9528
ee	-10.9534
▁annoy	-10.958
▁Taco	-10.9583
▁clo	-10.9592
ist	-10.96
to	-10.9607
8	-10.962
▁fool	-10.9635
▁Black	-10.9635
▁ourselves	-10.9635
▁raffle	-10.9635
▁written	-10.9635
▁wore	-10.9635
▁OH	-10.9636
▁17	-10.9636
▁bond	-10.9637
▁chatting	-10.9637
▁semi	-10.9639
▁incredible	-10.964
▁softball	-10.9641
▁loans	-10.9642
▁physically	-10.9643
▁AC	-10.965
▁aid	-10.966
▁approaching	-10.9661
▁posted	-10.9697
ence	-10.9706
▁relative	-10.9718
▁finger	-10.9719
ning	-10.972
▁rip	-10.9747
800	-10.9782
▁se	-10.9786
▁players	-10.9794
▁star	-10.9796
▁lift	-10.9812
▁po	-10.9832
▁risk	-10.9836
▁marks	-10.9836
▁August	-10.9839
▁October	-10.9839
▁allergic	-10.9839
▁argue	-10.9839
▁exercising	-10.9839
▁journey	-10.9839
▁lebron	-10.9839
▁quarter	-10.9839
▁youtube	-10.9839
▁evaluation	-10.984
▁neat	-10.984
▁fill	-10.984
▁protective	-10.984
▁socks	-10.9841
ca	-10.9841
▁male	-10.9841
now	-10.9848
▁outcome	-10.9848
▁clearly	-10.9848
▁barking	-10.9854
▁released	-10.986
The	-10.9868
▁sc	-10.987
▁ze	-10.9879
▁trips	-10.9887
blew	-10.9898
▁emotions	-10.9899
▁windows	-10.9922
▁Los	-10.9922
▁colleague	-10.9925
▁direction	-10.9927
▁non	-10.9927
ig	-10.9959
▁rolls	-10.996
▁finals	-10.999
▁lies	-10.9994
▁climb	-11.002
▁bang	-11.002
▁tasks	-11.0026
▁crack	-11.0035
▁character	-11.0042
▁Walmart	-11.0048
▁dementia	-11.0048
▁florida	-11.0048
▁kindergarten	-11.0048
▁naked	-11.0048
▁nowadays	-11.0048
▁puppies	-11.0048
▁root	-11.0048
▁welcome	-11.0048
▁Colorado	-11.0048
▁path	-11.0049
▁1000	-11.005
▁embarassed	-11.0052
▁familiar	-11.0052
▁regularly	-11.0053
▁counter	-11.0062
▁toward	-11.0064
▁heck	-11.01
ary	-11.0103
▁occasion	-11.0136
▁headache	-11.0138
▁nightmare	-11.0138
▁blessing	-11.0145
4	-11.0162
▁ho	-11.0179
▁j	-11.0183
▁pan	-11.0185
▁mothers	-11.02
▁enter	-11.0204
▁K	-11.0208
▁sweat	-11.0219
▁sing	-11.0221
▁react	-11.0232
▁Awww	-11.0236
ine	-11.0248
▁actual	-11.0256
▁Mexico	-11.026
▁Should	-11.026
▁circus	-11.026
▁private	-11.026
▁response	-11.026
▁website	-11.026
▁escape	-11.026
▁slammed	-11.0261
▁duty	-11.0261
▁ease	-11.0261
▁festival	-11.0261
▁green	-11.0262
▁refuse	-11.0262
▁rejected	-11.0263
▁du	-11.0271
▁hyped	-11.0272
that	-11.0283
▁faster	-11.0297
▁grandfathers	-11.0306
▁friendly	-11.0328
▁bothers	-11.0351
▁thousand	-11.0354
▁bug	-11.0355
▁joke	-11.0355
▁apple	-11.0356
▁McDonald	-11.0357
▁finishing	-11.039
im	-11.0397
H	-11.0399
▁meaning	-11.0427
P	-11.0443
▁worrying	-11.0451
▁panic	-11.0465
▁natural	-11.0473
▁express	-11.0474
▁dear	-11.0474
▁adorable	-11.0478
▁terribly	-11.0478
▁tuition	-11.0478
▁Disneyland	-11.0478
▁forgotten	-11.0478
▁cage	-11.0479
▁theater	-11.0479
▁stain	-11.048
▁attached	-11.0483
▁Sure	-11.0483
▁hill	-11.0485
▁mentally	-11.0485
▁retired	-11.0486
▁leaves	-11.0486
law	-11.0488
▁apologized	-11.0489
▁understandable	-11.0494
▁pie	-11.0495
▁damaged	-11.0502
▁King	-11.0506
▁Wars	-11.0536
ia	-11.0542
▁please	-11.0551
▁chase	-11.056
dn	-11.057
▁owned	-11.0575
▁term	-11.0577
▁Star	-11.0595
▁mountains	-11.0595
ma	-11.0628
▁events	-11.0633
▁couples	-11.0642
▁yell	-11.0645
▁hi	-11.0687
▁admire	-11.07
▁aggressive	-11.07
▁devestated	-11.07
▁downstairs	-11.07
▁hobby	-11.07
▁innocent	-11.07
▁recital	-11.07
▁valuable	-11.07
▁roach	-11.0701
▁overwhelming	-11.0703
▁glasses	-11.0703
▁yearbook	-11.071
▁thoughtful	-11.0711
▁colors	-11.0713
▁struggled	-11.0714
▁talks	-11.0725
go	-11.0736
▁touched	-11.0783
▁mountain	-11.0806
▁camera	-11.0819
▁Am	-11.0831
▁directions	-11.0832
▁catching	-11.084
▁Though	-11.0841
▁supporting	-11.0843
▁stores	-11.0855
▁cope	-11.0858
▁con	-11.0868
▁respond	-11.087
▁adopt	-11.087
cu	-11.0882
ish	-11.0886
▁pe	-11.0896
▁budget	-11.0899
▁cherish	-11.0899
▁gather	-11.0899
un	-11.0906
▁hung	-11.092
▁Tuesday	-11.0927
▁changing	-11.0927
▁deposit	-11.0927
▁motivation	-11.0927
▁clothing	-11.0927
▁activities	-11.0927
▁paperwork	-11.0928
▁haircut	-11.0928
responsibilities	-11.0928
▁labor	-11.0928
▁torn	-11.0929
▁100%	-11.0929
▁Love	-11.0931
▁design	-11.0934
▁distracted	-11.0938
▁$200	-11.0948
▁scheduled	-11.0953
▁dads	-11.0968
▁deserves	-11.0974
▁force	-11.0981
▁hey	-11.0986
▁35	-11.0996
2	-11.1005
do	-11.1007
▁ghosted	-11.1011
▁burn	-11.1017
▁struggle	-11.1022
▁ankle	-11.1035
▁wind	-11.1044
M	-11.1049
▁cameras	-11.105
▁sh	-11.1068
▁smashed	-11.1071
▁hid	-11.1085
▁Bes	-11.111
▁shorts	-11.1118
by	-11.1135
▁tastes	-11.1142
▁exact	-11.1155
▁whil	-11.1156
▁Football	-11.116
▁Roller	-11.116
▁skunk	-11.116
▁storage	-11.116
▁cavs	-11.116
▁belongings	-11.116
▁wound	-11.1161
▁reaction	-11.1161
▁Rock	-11.1161
▁frequently	-11.1162
▁lack	-11.1164
▁Dad	-11.1166
▁American	-11.1166
▁served	-11.1169
▁lines	-11.1171
▁harm	-11.1174
▁compare	-11.1185
▁prove	-11.1187
let	-11.1193
▁scream	-11.1217
▁reasons	-11.1229
▁Co	-11.1241
▁lung	-11.1273
▁claim	-11.1274
▁slide	-11.1275
▁Seem	-11.1284
ned	-11.1292
▁acts	-11.1296
00	-11.1299
▁treats	-11.1322
▁develop	-11.1367
▁suffer	-11.137
▁anytime	-11.1376
we	-11.138
▁survive	-11.1384
▁participate	-11.1384
ps	-11.1388
house	-11.139
▁chick	-11.1397
▁Perhaps	-11.1398
▁Plus	-11.1398
▁curious	-11.1398
▁hesitant	-11.1398
▁horribly	-11.1398
▁influence	-11.1398
▁binge	-11.1398
▁professor	-11.1398
▁Irma	-11.1398
▁$500	-11.1398
▁clearance	-11.1398
▁Over	-11.1398
▁deadline	-11.1399
▁lab	-11.1399
▁lakers	-11.1399
▁kayaking	-11.1399
▁obviously	-11.14
▁view	-11.14
▁payday	-11.1402
▁juice	-11.1403
▁homeschool	-11.1407
▁lower	-11.1412
▁grabb	-11.1412
▁totaled	-11.1426
▁hell	-11.1433
▁texted	-11.1466
▁total	-11.1483
▁tear	-11.1492
rew	-11.1517
▁brown	-11.1517
▁clown	-11.1519
▁legs	-11.1533
▁generation	-11.154
▁handed	-11.1549
be	-11.1559
▁range	-11.1608
▁chew	-11.1614
▁arms	-11.1624
▁assume	-11.1627
▁corn	-11.1641
&	-11.1642
▁2018	-11.1642
▁December	-11.1642
▁England	-11.1642
▁Hurricane	-11.1642
▁encourage	-11.1642
▁english	-11.1642
▁evicted	-11.1642
▁families	-11.1642
▁ingredients	-11.1642
▁political	-11.1642
▁quiz	-11.1642
▁Guess	-11.1642
▁granted	-11.1642
▁available	-11.1642
▁south	-11.1642
▁grab	-11.1642
▁babysitter	-11.1642
▁extension	-11.1642
▁brownies	-11.1642
▁temper	-11.1643
▁tennis	-11.1643
▁deck	-11.1643
▁dedicated	-11.1644
▁determined	-11.1644
▁model	-11.1644
▁Also	-11.1644
▁overnight	-11.1644
▁roomate	-11.1647
▁informed	-11.165
▁cop	-11.1651
▁fe	-11.1652
▁sight	-11.1656
▁mug	-11.1661
▁sea	-11.1661
▁benefits	-11.168
ol	-11.1681
▁wave	-11.1689
ating	-11.169
▁Feeling	-11.1696
▁Mac	-11.172
▁200	-11.1721
▁excuse	-11.1767
▁assignment	-11.1768
my	-11.1769
▁afterward	-11.1778
▁cr	-11.1782
▁ghosts	-11.1784
!!!!	-11.1803
py	-11.1804
▁egg	-11.1815
▁add	-11.1839
▁ac	-11.1839
▁fl	-11.1856
▁demand	-11.1864
▁scold	-11.1864
ice	-11.1872
▁choices	-11.1872
▁companion	-11.1892
▁Army	-11.1892
▁Bahamas	-11.1892
▁eachother	-11.1892
▁goldfish	-11.1892
▁opportunities	-11.1892
▁possibly	-11.1892
▁preparation	-11.1892
▁routine	-11.1892
▁serving	-11.1892
▁tattoo	-11.1892
▁unfair	-11.1892
▁version	-11.1892
▁boost	-11.1892
▁internship	-11.1892
▁picnic	-11.1892
▁Totally	-11.1892
▁zipper	-11.1892
▁depression	-11.1892
▁attempt	-11.1892
▁tub	-11.1892
▁potential	-11.1892
ival	-11.1892
▁ballet	-11.1892
▁alternative	-11.1892
▁shaking	-11.1892
▁subway	-11.1892
▁hubby	-11.1892
▁huh	-11.1893
▁necessary	-11.1894
▁simp	-11.19
▁papers	-11.1903
▁shattered	-11.1904
▁installed	-11.1905
▁sorts	-11.1907
▁bout	-11.1916
ley	-11.1922
▁figur	-11.1928
▁blowing	-11.1931
▁twins	-11.194
▁focused	-11.1957
▁matters	-11.1975
▁hardest	-11.1977
▁patients	-11.1981
▁theme	-11.1981
▁youth	-11.1987
▁actions	-11.2006
▁V	-11.2009
▁boyfriends	-11.2011
tory	-11.2027
▁snu	-11.203
▁ki	-11.2055
▁tons	-11.206
chi	-11.2081
0	-11.2089
day	-11.2096
▁nor	-11.2115
▁addict	-11.2119
▁compar	-11.2126
▁hype	-11.2132
▁ble	-11.2136
front	-11.214
▁$10	-11.2148
▁rob	-11.2148
▁Apparently	-11.2148
▁Enjoy	-11.2148
▁access	-11.2148
▁accuse	-11.2148
▁burst	-11.2148
▁climate	-11.2148
▁competitive	-11.2148
▁embarrased	-11.2148
▁gorgeous	-11.2148
▁netflix	-11.2148
▁sharing	-11.2148
▁ramen	-11.2148
▁patience	-11.2148
▁sushi	-11.2148
▁reception	-11.2148
▁lord	-11.2149
▁page	-11.2149
▁impression	-11.2149
VERY	-11.2151
▁gum	-11.2152
▁July	-11.2152
▁function	-11.2153
▁trailer	-11.2154
▁Whoa	-11.2157
▁lotto	-11.2157
▁wise	-11.2161
▁makeup	-11.2175
▁troubles	-11.2181
▁uni	-11.2186
▁safely	-11.2186
."	-11.2189
▁employees	-11.2192
▁Let	-11.2211
▁wings	-11.2224
▁runs	-11.2239
▁customers	-11.224
▁classmates	-11.2246
▁sooner	-11.225
▁greatest	-11.225
▁attending	-11.2251
▁meds	-11.2251
▁tears	-11.2279
▁brave	-11.2287
▁product	-11.2288
▁gifted	-11.2288
▁episode	-11.2288
▁gear	-11.2289
▁cookie	-11.2292
▁returning	-11.2293
laws	-11.2294
N	-11.2298
▁Las	-11.2328
▁Th	-11.233
▁skip	-11.2334
▁addition	-11.2351
▁rollercoasters	-11.2352
▁Hahaha	-11.2358
▁teenagers	-11.2385
ster	-11.2404
ring	-11.2409
▁Start	-11.2409
hua	-11.2411
▁Switch	-11.2411
▁ceiling	-11.2411
▁eggplant	-11.2411
▁hospice	-11.2411
▁individual	-11.2411
▁keto	-11.2411
▁opposite	-11.2411
▁proposal	-11.2411
▁refrigerator	-11.2411
▁thunder	-11.2411
▁umbrella	-11.2411
▁loneliness	-11.2411
▁Famil	-11.2412
▁excellent	-11.2412
▁neither	-11.2412
▁cloud	-11.2412
▁fake	-11.2412
▁mailbox	-11.2412
▁chores	-11.2412
▁Omg	-11.2412
▁Canada	-11.2412
▁achievement	-11.2413
▁beforehand	-11.2413
▁arrested	-11.2413
▁crappy	-11.2414
▁hood	-11.2414
▁pink	-11.2415
▁bun	-11.2416
▁ship	-11.2416
▁nightlight	-11.2419
▁beaten	-11.242
▁motivated	-11.242
▁independent	-11.2424
▁screwed	-11.2428
▁folks	-11.2433
▁pitch	-11.2446
▁washing	-11.2446
▁bro	-11.2447
▁brea	-11.2454
▁mis	-11.2458
▁messy	-11.2463
▁whom	-11.2464
gee	-11.2465
▁Bett	-11.2467
▁breaks	-11.2475
▁expenses	-11.2479
▁siblings	-11.2479
▁slapp	-11.2479
▁meals	-11.2479
▁ages	-11.2482
▁dated	-11.2499
B	-11.25
▁kit	-11.2502
▁rolled	-11.251
▁anger	-11.2511
og	-11.2523
▁listened	-11.2551
▁tent	-11.2555
▁duck	-11.2561
iest	-11.2583
▁wh	-11.2621
body	-11.2624
▁notes	-11.2632
▁hug	-11.2655
▁pieces	-11.2673
▁junk	-11.2679
▁prior	-11.2681
▁$5	-11.2681
▁Cowboys	-11.2682
▁Navy	-11.2682
▁charity	-11.2682
▁environment	-11.2682
▁husky	-11.2682
▁industry	-11.2682
▁mutual	-11.2682
▁overcharge	-11.2682
▁rehab	-11.2682
▁walmart	-11.2682
▁Costco	-11.2682
▁Talk	-11.2682
▁rotten	-11.2682
▁turkey	-11.2682
▁session	-11.2682
▁awoke	-11.2682
▁assured	-11.2682
▁solo	-11.2682
▁tasty	-11.2682
▁damn	-11.2682
▁kitty	-11.2682
▁national	-11.2682
▁chihu	-11.2683
▁pup	-11.2683
▁Lately	-11.2683
▁smoothly	-11.2687
▁homemade	-11.2688
▁spoken	-11.2689
▁rarely	-11.2689
▁pa	-11.269
▁parties	-11.2691
▁busted	-11.2698
▁survived	-11.2698
▁areas	-11.2699
▁hunting	-11.2701
▁personally	-11.2702
▁shoot	-11.2715
▁action	-11.2723
▁vomiting	-11.2732
▁charger	-11.2745
▁plants	-11.2755
ft	-11.2763
▁mari	-11.2771
de	-11.2783
▁cam	-11.28
▁bo	-11.2804
▁fr	-11.2809
▁spa	-11.2812
▁Red	-11.2813
ches	-11.2821
▁candidate	-11.2837
▁treatment	-11.2838
▁cow	-11.2841
▁hundreds	-11.2853
ible	-11.2855
▁Y	-11.2883
▁mo	-11.2888
▁beside	-11.2899
door	-11.2912
ver	-11.2918
▁ol	-11.2938
▁apologize	-11.2945
▁ignore	-11.2945
you	-11.2946
▁St	-11.295
▁eager	-11.2954
▁Ever	-11.2955
▁Hard	-11.2955
▁main	-11.2958
co	-11.2959
▁flash	-11.2959
▁College	-11.296
▁Honestly	-11.296
▁Netflix	-11.296
▁compliment	-11.296
▁console	-11.296
▁government	-11.296
▁heaven	-11.296
▁hilarious	-11.296
▁impact	-11.296
▁opinion	-11.296
▁reminiscing	-11.296
▁suggest	-11.296
▁thrift	-11.296
▁twenty	-11.296
▁desire	-11.296
▁swallow	-11.296
▁midnight	-11.296
▁aisle	-11.296
▁Grandma	-11.296
▁hostel	-11.296
▁yoga	-11.296
▁Aunt	-11.296
▁stroke	-11.296
▁organization	-11.296
▁vegan	-11.296
▁jam	-11.296
▁battery	-11.296
▁staff	-11.2961
▁Korean	-11.2962
▁guide	-11.2962
▁exist	-11.2963
▁worries	-11.2965
▁reality	-11.2965
▁flipped	-11.2966
ial	-11.2969
▁suprised	-11.2971
▁fiancee	-11.2974
▁sweetest	-11.2976
x	-11.2976
▁bands	-11.2984
▁Tak	-11.3002
▁mixed	-11.3003
3	-11.3004
▁rate	-11.3013
▁forth	-11.3018
▁introduce	-11.3033
▁leading	-11.3038
▁active	-11.3048
▁weekends	-11.3054
▁experiences	-11.3062
▁si	-11.3063
ph	-11.3068
po	-11.3072
5	-11.3076
▁cakes	-11.3095
▁load	-11.3097
▁tan	-11.3103
▁craving	-11.312
▁neice	-11.312
▁outfit	-11.312
▁chef	-11.3121
nytime	-11.3161
▁shifts	-11.317
▁pant	-11.3196
▁happie	-11.3197
imm	-11.3199
▁70	-11.3224
ard	-11.3234
▁release	-11.3236
ul	-11.3241
▁Re	-11.3242
▁mold	-11.3243
j	-11.3244
▁contract	-11.3244
▁compete	-11.3245
▁Doctor	-11.3245
▁November	-11.3245
▁antique	-11.3245
▁ceremony	-11.3245
▁fireworks	-11.3245
▁flavor	-11.3245
▁malfunction	-11.3245
▁swerve	-11.3245
▁underneath	-11.3245
▁gossip	-11.3245
▁celebration	-11.3245
▁dislike	-11.3245
▁teh	-11.3246
▁sunny	-11.3246
▁rice	-11.3246
▁complicated	-11.3246
▁failure	-11.3246
▁understood	-11.3246
▁standard	-11.3247
▁salt	-11.3247
▁craft	-11.3247
▁dorm	-11.3248
▁City	-11.325
.....	-11.325
▁choose	-11.3251
▁behaved	-11.3253
▁mid	-11.3256
▁firm	-11.3261
▁behold	-11.3267
▁divorced	-11.3289
▁loudly	-11.3293
▁crowded	-11.3295
▁comics	-11.3303
▁Lot	-11.3307
▁fee	-11.3317
▁reminder	-11.3318
▁cleaner	-11.332
ier	-11.332
ru	-11.3348
▁chances	-11.3395
50	-11.3411
▁characters	-11.3413
▁slice	-11.3415
▁spirit	-11.3415
▁wheel	-11.3417
▁drawing	-11.3441
▁site	-11.3449
▁betray	-11.3495
▁boxing	-11.3496
▁gal	-11.3511
▁smooth	-11.3513
▁roommates	-11.353
▁Could	-11.3533
▁Despi	-11.3538
▁favor	-11.3538
▁popular	-11.3539
>	-11.3539
\	-11.3539
▁CPA	-11.3539
▁Summer	-11.3539
▁brain	-11.3539
▁evil	-11.3539
▁hectic	-11.3539
▁increasing	-11.3539
▁insecure	-11.3539
▁military	-11.3539
▁newborn	-11.3539
▁retail	-11.3539
▁spooked	-11.3539
▁turbulence	-11.3539
▁workplace	-11.3539
▁affair	-11.3539
▁tragic	-11.3539
▁goodbye	-11.3539
▁address	-11.3539
▁lease	-11.354
▁elated	-11.354
▁keyboard	-11.354
▁condo	-11.354
▁greet	-11.354
▁Okay	-11.354
▁adoption	-11.354
▁capable	-11.354
▁Mexican	-11.354
▁considerate	-11.354
▁belief	-11.354
▁trail	-11.3541
▁aggravated	-11.3542
▁classroom	-11.3542
▁Came	-11.3543
▁jogging	-11.3543
▁announced	-11.3544
▁64	-11.3544
▁bid	-11.3548
▁passes	-11.3557
▁addiction	-11.3559
▁brakes	-11.356
▁nope	-11.3565
ily	-11.3566
▁Pan	-11.3568
▁pour	-11.3571
book	-11.3571
▁vote	-11.3572
▁gathering	-11.3576
▁None	-11.3576
▁careless	-11.3576
▁Dogs	-11.3593
▁Ca	-11.3597
▁wipe	-11.36
▁realiz	-11.361
▁San	-11.3614
▁kicking	-11.363
▁Ohh	-11.3642
ake	-11.3645
▁yo	-11.3648
oon	-11.3663
▁complained	-11.3668
▁besides	-11.367
tic	-11.3675
patio	-11.3685
▁Spen	-11.3687
om	-11.3704
▁changes	-11.3711
▁creep	-11.3714
cy	-11.374
od	-11.3753
▁hero	-11.3784
bo	-11.3796
▁spoil	-11.3814
▁renew	-11.3814
▁bully	-11.3822
▁uses	-11.3831
▁45	-11.3832
▁becomes	-11.3837
▁surprising	-11.3837
oo	-11.3838
▁teenage	-11.384
▁clue	-11.3841
▁Australia	-11.3842
▁Lakers	-11.3842
▁President	-11.3842
▁Youtube	-11.3842
▁aggravating	-11.3842
▁cereal	-11.3842
▁chemistry	-11.3842
▁coyote	-11.3842
▁desperate	-11.3842
▁horrified	-11.3842
▁interstate	-11.3842
▁popcorn	-11.3842
▁possibility	-11.3842
▁uniform	-11.3842
▁upstairs	-11.3842
▁yep	-11.3842
▁Harvard	-11.3842
▁significant	-11.3842
▁pyr	-11.3842
▁awake	-11.3842
▁title	-11.3842
▁plumber	-11.3842
▁thick	-11.3843
▁drain	-11.3843
▁Game	-11.3843
▁maintain	-11.3843
▁countries	-11.3843
▁balance	-11.3843
▁slightly	-11.3845
▁Break	-11.3845
▁mailman	-11.3845
▁matches	-11.3847
▁May	-11.3851
▁sand	-11.3856
▁reviews	-11.3857
▁ne	-11.3865
▁metal	-11.3866
▁kiddos	-11.3867
▁li	-11.3875
▁fo	-11.3878
▁handl	-11.3917
9	-11.3929
mon	-11.3932
You	-11.3944
▁continues	-11.3953
▁tools	-11.397
▁loads	-11.3974
▁NO	-11.4003
▁Di	-11.4022
▁scarie	-11.4027
▁teams	-11.4038
▁din	-11.4048
washer	-11.4093
what	-11.4123
▁draw	-11.4124
▁flip	-11.4129
▁sadly	-11.413
K	-11.413
friend	-11.4131
▁payments	-11.4131
▁slack	-11.4145
*	-11.4146
like	-11.4147
▁coast	-11.4154
▁Chinese	-11.4155
▁James	-11.4155
▁OMG	-11.4155
▁Orlando	-11.4155
▁adventure	-11.4155
▁construction	-11.4155
▁horrifying	-11.4155
▁lawnmower	-11.4155
▁lonesome	-11.4155
▁mirror	-11.4155
▁miscarriage	-11.4155
▁paranoid	-11.4155
▁rink	-11.4155
▁swimsuit	-11.4155
▁repeatedly	-11.4155
▁downtown	-11.4155
▁unusual	-11.4155
▁begging	-11.4155
▁museum	-11.4155
▁Anything	-11.4155
▁biology	-11.4155
▁shave	-11.4155
▁collection	-11.4155
▁owl	-11.4155
▁hook	-11.4156
▁potatoes	-11.4156
▁sketchy	-11.4156
▁possum	-11.4156
▁improving	-11.4156
▁safety	-11.4157
▁moon	-11.4157
estate	-11.4158
▁Holy	-11.4158
▁Amazing	-11.4158
▁startled	-11.4159
▁image	-11.416
▁rules	-11.4165
▁dive	-11.4171
▁Yankees	-11.4172
▁Le	-11.4181
▁bosses	-11.4182
▁essentials	-11.4188
then	-11.4191
▁cutest	-11.4195
▁flags	-11.4196
▁cracked	-11.4197
▁bugg	-11.4206
▁amaze	-11.4217
▁sum	-11.4223
▁Up	-11.4236
ole	-11.4242
▁avoided	-11.4244
ow	-11.427
▁contacted	-11.4272
not	-11.4272
even	-11.4289
▁parks	-11.4319
▁sauce	-11.4354
▁muscle	-11.4354
▁shark	-11.4355
▁classmate	-11.4358
▁Poo	-11.4362
▁sooo	-11.4373
▁weights	-11.4374
▁willing	-11.4384
▁18.	-11.4384
itting	-11.4402
istic	-11.4404
▁Bo	-11.4417
▁names	-11.4425
▁mon	-11.4426
▁steam	-11.4448
▁thrill	-11.445
can	-11.4455
▁23	-11.4456
▁$300	-11.4461
▁settle	-11.4463
▁repairs	-11.447
▁fruit	-11.4477
▁artist	-11.4477
▁burrito	-11.4477
▁Almost	-11.4477
▁Birthday	-11.4477
▁GPA	-11.4477
▁Park	-11.4477
▁SUV	-11.4477
▁Spanish	-11.4477
▁WOW	-11.4477
▁appetite	-11.4477
▁bittersweet	-11.4477
▁conference	-11.4477
▁decorate	-11.4477
▁gallon	-11.4477
▁incident	-11.4477
▁maggots	-11.4477
▁perhaps	-11.4477
▁racist	-11.4477
▁transplant	-11.4477
▁freedom	-11.4477
▁frightening	-11.4477
▁racing	-11.4477
▁hamburger	-11.4477
▁Yay	-11.4478
▁Olive	-11.4478
▁wide	-11.4478
▁ego	-11.4478
▁acceptance	-11.4478
▁tuck	-11.4478
▁foreign	-11.4478
▁flown	-11.4479
▁fb	-11.4481
▁stable	-11.4481
▁rage	-11.4481
▁Kinda	-11.4482
▁otherwise	-11.4482
▁300	-11.4483
▁press	-11.4484
.5	-11.4484
▁defend	-11.4485
▁simpler	-11.4488
▁wi	-11.4495
▁lunches	-11.4495
▁shadow	-11.4497
▁prevent	-11.4503
▁mu	-11.4506
▁bu	-11.4512
if	-11.4516
▁mosquitos	-11.4524
▁waiter	-11.4535
▁atleast	-11.454
▁nails	-11.4542
U	-11.4554
▁shoulder	-11.456
▁Driv	-11.458
ain	-11.4593
▁sharks	-11.4601
▁smells	-11.4602
oke	-11.4607
nel	-11.4609
▁wheels	-11.4613
▁stressing	-11.4618
▁tips	-11.4619
▁rec	-11.4621
gh	-11.4629
▁pr	-11.463
een	-11.4655
▁TH	-11.4662
▁nightmares	-11.4666
▁tie	-11.4677
list	-11.4681
▁hat	-11.4696
▁teen	-11.4696
ah	-11.4717
▁bars	-11.4718
▁jo	-11.4722
▁doors	-11.4723
AA	-11.4728
▁plates	-11.4749
▁kinds	-11.4767
▁recommend	-11.4782
▁interrupt	-11.4782
▁mention	-11.4784
ational	-11.4788
ground	-11.4791
▁tool	-11.4792
▁humble	-11.4796
▁Ba	-11.4796
▁proper	-11.4805
▁discuss	-11.481
▁Starbucks	-11.4811
▁autopilot	-11.4811
▁bucket	-11.4811
▁confess	-11.4811
▁gluten	-11.4811
▁iguana	-11.4811
▁starving	-11.4811
▁trophy	-11.4811
▁ugly	-11.4811
▁wednesday	-11.4811
▁wolf	-11.4811
▁distant	-11.4811
▁patch	-11.4811
▁transferred	-11.4811
▁tutor	-11.4811
▁discount	-11.4811
▁overslept	-11.4811
▁seafood	-11.4811
▁fulfilling	-11.4811
▁sharp	-11.4811
▁Porsche	-11.4811
▁bullied	-11.4811
▁neck	-11.4811
They	-11.4811
▁preschool	-11.4811
▁;)	-11.4811
▁repay	-11.4811
▁Feb	-11.4811
▁practically	-11.4811
▁freezer	-11.4812
▁LA	-11.4812
▁cabin	-11.4812
▁investment	-11.4813
▁hallway	-11.4813
▁clock	-11.4813
▁Beach	-11.4813
▁sleepover	-11.4813
▁lice	-11.4813
▁freeway	-11.4815
▁officially	-11.4815
▁heartbreaking	-11.4815
ties	-11.4817
▁24	-11.4817
▁saddened	-11.4821
▁declined	-11.4825
▁inspiring	-11.4825
▁periods	-11.4827
▁paw	-11.4833
▁soooo	-11.4836
▁rewarded	-11.4837
ger	-11.4848
▁hiding	-11.4852
aught	-11.4856
ber	-11.4865
▁pi	-11.4885
▁earned	-11.489
▁decades	-11.4892
▁web	-11.4893
▁longest	-11.4894
▁accidents	-11.4913
▁aliens	-11.4915
our	-11.4944
▁hits	-11.4961
▁beers	-11.4987
▁Ju	-11.5013
over	-11.5029
▁blanket	-11.5032
▁option	-11.5037
ern	-11.5044
▁slip	-11.5045
▁presenting	-11.5056
▁tap	-11.512
ress	-11.5127
▁ben	-11.5129
▁propose	-11.5141
▁vi	-11.5142
▁solve	-11.5142
ign	-11.5144
wracking	-11.5148
▁guilt	-11.5151
▁regard	-11.5155
▁Wonder	-11.5155
ING	-11.5156
▁Jack	-11.5156
▁Kindergarten	-11.5156
▁barista	-11.5156
▁breeze	-11.5156
▁casserole	-11.5156
▁cruel	-11.5156
▁elevator	-11.5156
▁evidence	-11.5156
▁explode	-11.5156
▁gambling	-11.5156
▁mcdonalds	-11.5156
▁nostalgia	-11.5156
▁photographs	-11.5156
▁qualify	-11.5156
▁receiving	-11.5156
▁geez	-11.5156
▁Remind	-11.5156
▁celebrating	-11.5156
▁Spring	-11.5156
▁skateboard	-11.5156
▁foster	-11.5156
▁skinny	-11.5156
▁info	-11.5156
▁Mother	-11.5156
▁NOT	-11.5156
▁Six	-11.5156
▁healthier	-11.5157
▁diagnosis	-11.5157
▁connection	-11.5157
▁handful	-11.5158
▁kidding	-11.5158
▁example	-11.5158
▁recall	-11.5159
▁antsy	-11.5159
▁streets	-11.5159
▁thin	-11.516
▁drowned	-11.5161
▁shaken	-11.5162
▁trap	-11.5163
li	-11.5164
▁Call	-11.5166
▁pity	-11.5167
▁bragg	-11.5168
▁correctly	-11.5171
▁ham	-11.5172
▁sp	-11.5174
lor	-11.5175
▁deeply	-11.5179
▁hoped	-11.5187
▁betrayed	-11.5189
hi	-11.519
▁expans	-11.5193
▁suffering	-11.5197
▁smaller	-11.5197
▁pasta	-11.5211
▁mac	-11.5216
▁effects	-11.5223
7	-11.5223
▁tail	-11.5233
▁v	-11.5241
▁continu	-11.5262
uck	-11.5284
ious	-11.5284
▁Pet	-11.5296
▁fees	-11.5304
▁carrie	-11.5328
▁reward	-11.5332
zed	-11.5364
▁scratching	-11.5369
som	-11.5372
▁channel	-11.539
▁stink	-11.5392
▁Dr	-11.5394
ha	-11.5399
▁adults	-11.542
▁slap	-11.5422
▁Po	-11.5438
▁Bu	-11.545
▁hurricanes	-11.5465
struck	-11.547
▁ti	-11.5474
▁walls	-11.5482
▁disappear	-11.5484
▁pump	-11.5485
▁dip	-11.5494
ade	-11.55
:	-11.5504
section	-11.5505
off	-11.5507
▁dirt	-11.5508
ise	-11.5508
▁inch	-11.5509
▁magic	-11.5511
▁sur	-11.5512
▁trauma	-11.5513
▁DMV	-11.5513
▁MMA	-11.5513
▁basis	-11.5513
▁cafe	-11.5513
▁companies	-11.5513
▁december	-11.5513
▁inappropriate	-11.5513
▁infection	-11.5513
▁medication	-11.5513
▁salary	-11.5513
▁sweetheart	-11.5513
▁transmission	-11.5513
▁volleyball	-11.5513
▁worn	-11.5513
▁romantic	-11.5513
▁banana	-11.5513
▁Bros	-11.5513
▁lemon	-11.5513
▁Dallas	-11.5513
▁display	-11.5513
▁vegas	-11.5513
▁newspaper	-11.5513
▁uber	-11.5513
▁deny	-11.5513
▁flush	-11.5513
▁excitement	-11.5513
was	-11.5513
▁swarm	-11.5513
▁cranky	-11.5514
▁Both	-11.5515
▁tank	-11.5515
▁juggle	-11.5515
▁agent	-11.5516
▁fal	-11.5518
▁lump	-11.5518
▁Give	-11.5523
▁pin	-11.5524
▁stre	-11.5525
▁breakup	-11.5527
▁settled	-11.5529
▁mate	-11.5532
▁trainer	-11.5539
▁mentioned	-11.5543
▁holds	-11.5551
▁shortly	-11.5557
▁melted	-11.5567
▁bath	-11.5585
▁painted	-11.5587
▁happend	-11.5587
▁errands	-11.5591
▁conditioning	-11.5595
▁shared	-11.5596
ris	-11.5611
▁restaurants	-11.5616
▁biting	-11.5621
ette	-11.5621
▁scar	-11.5623
▁prom	-11.5644
antic	-11.5696
ack	-11.5696
ew	-11.5726
▁interviewer	-11.573
▁tra	-11.5761
▁musician	-11.5762
▁snack	-11.5763
▁Fi	-11.5766
ual	-11.5768
▁log	-11.5776
???	-11.5778
▁outdoor	-11.5814
▁simpl	-11.5819
▁def	-11.5824
▁favorites	-11.5829
▁seconds	-11.5834
rent	-11.5842
▁serve	-11.5846
board	-11.586
ttle	-11.5864
▁fi	-11.5869
familiar	-11.5875
▁shirts	-11.5878
▁extreme	-11.5878
ternity	-11.5883
▁print	-11.5883
▁skate	-11.5883
▁April	-11.5883
▁Please	-11.5883
▁Thrones	-11.5883
▁Usually	-11.5883
▁athlete	-11.5883
▁creative	-11.5883
▁midterm	-11.5883
▁pancreatitis	-11.5883
▁perfume	-11.5883
▁stubborn	-11.5883
▁surreal	-11.5883
▁target	-11.5883
▁zombie	-11.5883
▁bunnies	-11.5883
▁chainsaw	-11.5883
▁enroll	-11.5883
▁Three	-11.5883
▁Italian	-11.5883
▁butterflies	-11.5883
▁compassionate	-11.5883
▁Hello	-11.5883
▁transportation	-11.5883
▁stepmo	-11.5883
▁frame	-11.5883
▁generous	-11.5883
▁bushes	-11.5884
▁equipment	-11.5884
▁brutal	-11.5884
▁sang	-11.5884
▁rotting	-11.5884
▁route	-11.5884
▁hassle	-11.5884
▁heavily	-11.5884
▁personality	-11.5884
▁Nah	-11.5884
▁points	-11.5885
▁medal	-11.5885
▁darn	-11.5886
▁Anyway	-11.5886
▁extend	-11.5887
▁Fro	-11.5888
▁choked	-11.5888
▁babysitting	-11.5889
▁More	-11.5889
▁unlocked	-11.5891
▁bounc	-11.5891
▁beef	-11.5891
▁bumper	-11.5892
▁copy	-11.5894
▁based	-11.5895
▁slower	-11.5906
▁seek	-11.5908
▁zip	-11.5909
▁lean	-11.5912
▁pastor	-11.5917
▁handy	-11.5926
▁sweating	-11.5933
▁hip	-11.5937
ied	-11.5954
▁hasnt	-11.5959
▁thunderstorms	-11.596
▁repaired	-11.5969
▁Step	-11.5971
ED	-11.5972
▁owners	-11.5978
▁performing	-11.5983
▁understands	-11.6
▁answering	-11.6002
led	-11.6009
vy	-11.6011
ship	-11.6016
ke	-11.6032
%	-11.6053
pped	-11.606
line	-11.6078
ward	-11.6083
▁cooks	-11.6089
▁dressing	-11.6096
▁states	-11.6113
nce	-11.6144
▁mini	-11.6145
▁Day	-11.6147
▁promises	-11.6164
▁speaker	-11.6164
▁dieting	-11.6183
▁charg	-11.6209
▁pizzas	-11.6213
▁nieces	-11.6217
rrow	-11.622
▁sneak	-11.6224
▁slam	-11.6225
▁rais	-11.6237
▁punish	-11.6239
▁grind	-11.6239
▁includ	-11.6244
▁spe	-11.6248
▁interviewing	-11.6252
▁retire	-11.6253
▁recognize	-11.6253
▁drag	-11.6257
▁assist	-11.6258
field	-11.626
▁original	-11.6263
▁commit	-11.6267
▁scene	-11.6267
▁Caribbean	-11.6268
▁Christian	-11.6268
▁IKEA	-11.6268
▁LOVE	-11.6268
▁Strzok	-11.6268
▁advise	-11.6268
▁brief	-11.6268
▁commercials	-11.6268
▁crisis	-11.6268
▁dedication	-11.6268
▁economic	-11.6268
▁exchange	-11.6268
▁fuel	-11.6268
▁grumpy	-11.6268
▁inherited	-11.6268
▁jackpot	-11.6268
▁miracle	-11.6268
▁sensitive	-11.6268
▁thirty	-11.6268
▁thoroughly	-11.6268
▁unfaithful	-11.6268
▁Old	-11.6268
▁judgment	-11.6268
▁lasagna	-11.6268
▁froze	-11.6268
▁initial	-11.6268
▁passenger	-11.6268
▁destination	-11.6268
▁trunk	-11.6268
▁happily	-11.6268
▁irresponsible	-11.6268
▁Master	-11.6268
▁Winter	-11.6268
▁poker	-11.6268
▁gang	-11.6268
▁jiu	-11.6268
▁mansion	-11.6268
▁Stay	-11.6268
▁jet	-11.6268
▁75	-11.6269
▁east	-11.6269
MRI	-11.6269
▁phase	-11.6269
▁lightning	-11.627
tuna	-11.627
▁roaches	-11.627
▁hello	-11.627
▁cap	-11.6271
▁astonished	-11.6274
▁Long	-11.6274
▁passionate	-11.6274
▁moldy	-11.6275
▁eagerly	-11.6275
▁mainly	-11.6275
▁poe	-11.6275
▁instantly	-11.6276
▁generally	-11.628
▁checkout	-11.6282
▁cheaper	-11.6289
▁sticky	-11.629
room	-11.6295
ripping	-11.6296
▁notified	-11.6297
eddy	-11.6301
of	-11.6301
▁IN	-11.6301
▁hop	-11.6303
▁spoiled	-11.6304
▁blam	-11.6304
▁smelly	-11.6308
▁Awe	-11.631
▁poorly	-11.6311
▁respectful	-11.6311
▁Car	-11.6319
▁searching	-11.6324
6	-11.6325
▁washed	-11.6329
▁injury	-11.6356
▁chips	-11.6373
▁dealer	-11.6379
▁butter	-11.6385
▁conversations	-11.6399
▁THE	-11.6407
▁aged	-11.6427
▁ducks	-11.6446
owing	-11.6457
▁sta	-11.6485
▁ni	-11.6486
▁smelling	-11.6487
▁werent	-11.6491
▁colleagues	-11.65
izing	-11.6506
ized	-11.6513
ore	-11.6517
▁debts	-11.6526
tra	-11.6529
▁tradition	-11.6545
▁monster	-11.6547
▁SAT	-11.6548
▁scores	-11.6556
▁Sometime	-11.657
▁Lo	-11.6577
ept	-11.6577
▁com	-11.6587
ions	-11.6596
▁apartments	-11.6597
com	-11.6608
▁mi	-11.661
▁Hmm	-11.6618
they	-11.6618
▁recipes	-11.6629
ill	-11.6631
▁yearly	-11.6633
dy	-11.6634
▁strangers	-11.6657
scares	-11.666
down	-11.6662
▁robber	-11.6663
▁Actually	-11.6668
▁Boston	-11.6668
▁Clinton	-11.6668
▁appalled	-11.6668
▁catfish	-11.6668
▁doorstep	-11.6668
▁intruder	-11.6668
▁lizard	-11.6668
▁messaging	-11.6668
▁overwhelmed	-11.6668
▁parrot	-11.6668
▁pharmacy	-11.6668
▁policy	-11.6668
▁pumpkin	-11.6668
▁unnecessary	-11.6668
▁*	-11.6668
▁Jet	-11.6668
▁lame	-11.6668
▁buzz	-11.6668
▁spaghetti	-11.6668
▁sickened	-11.6668
▁traumatic	-11.6668
▁dried	-11.6668
▁trapped	-11.6668
▁slim	-11.6668
▁bicycle	-11.6668
▁punk	-11.6669
▁horn	-11.6669
▁rally	-11.6669
▁toppings	-11.6669
▁omg	-11.6669
▁improvement	-11.667
▁fortune	-11.667
▁loyalty	-11.667
▁bound	-11.6671
▁29	-11.6673
▁originally	-11.6673
▁ME	-11.6674
▁household	-11.6676
▁passion	-11.6677
▁sweaty	-11.6677
▁raw	-11.6678
▁forgetting	-11.6683
0$	-11.6698
▁toddlers	-11.6699
▁trees	-11.6705
▁stormed	-11.6709
ton	-11.6715
▁tr	-11.6726
▁planet	-11.6732
▁vegetables	-11.6741
▁king	-11.6749
▁cave	-11.6765
▁ge	-11.6768
▁piss	-11.678
ase	-11.6788
▁ca	-11.6811
dded	-11.6813
▁burnt	-11.682
▁dropp	-11.6823
▁Thought	-11.6823
AND	-11.6826
bs	-11.6828
AM	-11.6829
▁projects	-11.6831
▁tapp	-11.6832
ction	-11.6833
▁pac	-11.6848
▁ban	-11.6848
▁clowns	-11.6874
▁rep	-11.6878
▁cra	-11.688
▁Tom	-11.6896
▁stays	-11.6905
ho	-11.6908
car	-11.6915
▁thoughts	-11.6918
▁pooping	-11.6934
lar	-11.6951
▁frog	-11.6956
▁led	-11.6957
▁Garden	-11.6961
▁emotion	-11.6961
▁object	-11.6962
▁drawer	-11.6965
▁roomie	-11.6967
▁leftover	-11.6971
▁Kid	-11.6976
It	-11.6977
▁fathers	-11.6981
▁needing	-11.6981
jury	-11.6991
▁figures	-11.6991
ging	-11.6993
▁gut	-11.6995
school	-11.7021
▁comment	-11.7034
▁hunt	-11.704
▁stops	-11.7041
▁surely	-11.7047
▁poison	-11.7056
ood	-11.7063
0%	-11.7063
▁HA	-11.7067
▁treasure	-11.7069
water	-11.7076
life	-11.7077
order	-11.7078
▁Korea	-11.7081
▁payed	-11.7083
▁transfer	-11.7084
▁95%	-11.7084
▁CEO	-11.7084
▁Vacation	-11.7084
▁Wednesday	-11.7084
▁armadillo	-11.7084
▁arrival	-11.7084
▁backflip	-11.7084
▁buddies	-11.7084
▁curb	-11.7084
▁denied	-11.7084
▁instructions	-11.7084
▁lamp	-11.7084
▁monitor	-11.7084
▁pilot	-11.7084
▁resident	-11.7084
▁tackle	-11.7084
▁consistent	-11.7084
▁bracelet	-11.7084
▁monkey	-11.7084
▁Girlfriend	-11.7085
▁honey	-11.7085
▁jello	-11.7085
▁yuck	-11.7085
▁contain	-11.7085
▁timing	-11.7085
▁meaningful	-11.7085
▁productive	-11.7085
▁sake	-11.7085
▁unbelievable	-11.7086
▁scout	-11.7086
▁coverage	-11.7086
▁strawberry	-11.7086
▁confused	-11.7087
▁Sad	-11.7088
▁replacement	-11.7088
▁golden	-11.7089
▁panicked	-11.7092
▁stall	-11.7093
▁disturbing	-11.7093
▁Find	-11.7095
▁momma	-11.7096
▁funds	-11.7098
▁particularly	-11.7099
▁upgrade	-11.71
▁growth	-11.7102
▁Ei	-11.7105
▁wing	-11.7113
▁interests	-11.713
▁button	-11.7132
▁burning	-11.7136
▁healing	-11.7149
▁pajamas	-11.7161
▁recovered	-11.7178
▁texts	-11.7183
ga	-11.7185
▁humans	-11.7196
light	-11.7197
F	-11.7215
▁wrecking	-11.7244
▁guessing	-11.7253
head	-11.7268
ana	-11.7271
gi	-11.7282
▁$400	-11.729
▁Eat	-11.7307
▁relationships	-11.7312
ping	-11.732
▁headaches	-11.7332
av	-11.7337
▁le	-11.7348
OU	-11.7354
live	-11.7354
▁asks	-11.7362
So	-11.7389
▁fur	-11.7391
ple	-11.7394
▁boot	-11.7396
▁en	-11.74
cons	-11.7412
▁relive	-11.7438
▁rap	-11.7461
▁disgust	-11.7464
watch	-11.7468
▁joint	-11.7469
ified	-11.7487
G	-11.7488
ize	-11.749
▁talents	-11.7495
sch	-11.7499
▁walks	-11.7503
▁partying	-11.7504
▁cough	-11.7508
▁deli	-11.7517
▁cab	-11.7517
▁branch	-11.7518
▁confirm	-11.7519
▁Girl	-11.7519
▁Calculus	-11.7519
▁Eventually	-11.7519
▁Hillary	-11.7519
▁Interesting	-11.7519
▁Parent	-11.7519
▁abusive	-11.7519
▁appropriate	-11.7519
▁baffled	-11.7519
▁biopsy	-11.7519
▁bouquet	-11.7519
▁cinema	-11.7519
▁culture	-11.7519
▁inspection	-11.7519
▁leadership	-11.7519
▁overweight	-11.7519
▁protein	-11.7519
▁quilt	-11.7519
▁reluctant	-11.7519
▁reschedule	-11.7519
▁scenario	-11.7519
▁spooky	-11.7519
▁technology	-11.7519
▁testimony	-11.7519
▁texas	-11.7519
▁unzipped	-11.7519
▁arriving	-11.7519
▁recruit	-11.7519
▁spread	-11.7519
▁river	-11.7519
▁batteries	-11.7519
▁flashlight	-11.7519
▁bunny	-11.7519
▁appear	-11.7519
▁disrespectful	-11.7519
▁solid	-11.7519
▁soaked	-11.7519
▁fought	-11.7519
▁Tonight	-11.7519
▁academic	-11.752
▁dash	-11.752
▁aweful	-11.752
▁$1000	-11.752
▁Law	-11.7522
▁Lucky	-11.7522
▁bark	-11.7522
arvel	-11.7523
▁diner	-11.7524
▁perk	-11.7526
▁34	-11.7527
▁difficulties	-11.7527
▁password	-11.7529
▁attract	-11.753
retake	-11.7531
▁mommy	-11.7533
▁colon	-11.7534
▁cursed	-11.7534
▁supp	-11.7537
▁official	-11.7538
▁setting	-11.754
▁layer	-11.7541
▁successfully	-11.7544
▁ohh	-11.7546
▁mistaken	-11.7548
wn	-11.7551
▁groups	-11.7554
▁renewed	-11.756
ravel	-11.7568
▁ward	-11.7571
▁earrings	-11.7572
▁lik	-11.7576
▁entering	-11.7578
stood	-11.7582
▁flirting	-11.7593
▁reservations	-11.7594
▁puzzle	-11.7596
▁documents	-11.7599
▁peeing	-11.7605
▁investing	-11.7606
ural	-11.7624
▁goin	-11.7626
▁actors	-11.7638
▁options	-11.7677
▁touching	-11.7685
▁submitt	-11.7687
▁rushed	-11.7712
▁chip	-11.7737
▁snuggle	-11.7751
robe	-11.7772
vi	-11.7793
fic	-11.7797
▁newest	-11.7818
▁dumps	-11.7818
▁causes	-11.7823
+	-11.7827
▁dessert	-11.7848
▁neighbour	-11.7848
▁hint	-11.7849
▁guest	-11.7851
▁cartoon	-11.7851
▁actor	-11.7857
years	-11.7866
▁courses	-11.7872
▁War	-11.7878
ndy	-11.7902
▁Ma	-11.7906
▁refus	-11.7911
▁Mov	-11.7913
▁Hear	-11.7918
▁collect	-11.7919
uba	-11.7923
▁grandmothers	-11.7927
na	-11.7935
▁impress	-11.7944
▁sin	-11.7947
▁motivate	-11.7959
just	-11.7967
dated	-11.7968
No	-11.7969
▁bum	-11.7972
▁tomato	-11.7973
▁Bowl	-11.7974
▁Madden	-11.7974
▁Oops	-11.7974
▁Tennis	-11.7974
▁Universal	-11.7974
▁YouTube	-11.7974
▁alligator	-11.7974
▁arguing	-11.7974
▁blank	-11.7974
▁concrete	-11.7974
▁contribut	-11.7974
▁crazies	-11.7974
▁creek	-11.7974
▁democrats	-11.7974
▁devastating	-11.7974
▁devoted	-11.7974
▁diploma	-11.7974
▁entitled	-11.7974
▁error	-11.7974
▁gullible	-11.7974
▁infected	-11.7974
▁lanai	-11.7974
▁microwave	-11.7974
▁profit	-11.7974
▁recognition	-11.7974
▁roadkill	-11.7974
▁slot	-11.7974
▁valedictorian	-11.7974
▁videogame	-11.7974
▁dmv	-11.7974
▁insult	-11.7974
▁doggie	-11.7974
▁wellington	-11.7974
▁chunk	-11.7974
▁pillow	-11.7974
▁cornhole	-11.7974
▁harsh	-11.7974
▁greedy	-11.7974
▁Yuck	-11.7974
▁milestone	-11.7974
▁audition	-11.7974
rench	-11.7974
▁feedback	-11.7975
▁shameful	-11.7975
▁contractor	-11.7975
▁humanity	-11.7976
▁reflect	-11.7976
▁pole	-11.7976
▁jar	-11.7977
▁Sundays	-11.7978
▁sparring	-11.7981
▁CD	-11.7983
▁embarassing	-11.7984
▁daddy	-11.7984
▁singer	-11.7985
▁camper	-11.7989
▁heater	-11.7989
▁Fal	-11.7989
▁prep	-11.799
▁haters	-11.7994
per	-11.8
▁dragg	-11.8003
▁grinding	-11.8007
▁bathing	-11.8011
ama	-11.8016
lly	-11.8021
▁achieved	-11.8026
▁tearing	-11.8028
▁banging	-11.8037
▁Ga	-11.8043
sses	-11.8044
......	-11.8045
for	-11.8045
▁comp	-11.805
▁eyed	-11.8062
▁aware	-11.8064
ok	-11.8067
ker	-11.8069
▁cartoons	-11.8098
ox	-11.8118
▁answered	-11.8121
ball	-11.8144
▁sa	-11.8154
long	-11.8155
▁candidates	-11.818
▁gears	-11.8192
▁bl	-11.8204
▁generations	-11.8209
▁spin	-11.8209
▁al	-11.8236
▁apples	-11.8239
▁blessings	-11.8245
ny	-11.8254
▁lover	-11.8261
▁submit	-11.8269
▁anyways	-11.8282
io	-11.8284
▁concern	-11.8298
pa	-11.8302
▁bats	-11.8307
▁rope	-11.8324
▁master	-11.8327
▁expense	-11.8328
▁sibling	-11.8328
@	-11.8336
▁tires	-11.8336
ugh	-11.8336
▁wrap	-11.8345
▁floored	-11.8345
▁visits	-11.8354
▁snap	-11.8355
RE	-11.8371
round	-11.8374
▁gains	-11.8394
▁ideas	-11.8396
▁fits	-11.8396
▁Watch	-11.8422
▁abandon	-11.8422
▁screw	-11.8422
▁mission	-11.8424
ev	-11.8425
▁base	-11.8436
▁irritate	-11.8436
▁prison	-11.8441
▁messages	-11.8441
especially	-11.8442
gun	-11.8443
ability	-11.8443
▁remote	-11.8444
▁polite	-11.8444
▁incorrect	-11.8444
▁Real	-11.8448
▁instrument	-11.8448
heesecake	-11.8449
▁equip	-11.8449
▁$2	-11.845
▁China	-11.845
▁Earth	-11.845
▁Flags	-11.845
▁Google	-11.845
▁League	-11.845
▁Mcdonald	-11.845
▁Mercedes	-11.845
▁acknowledge	-11.845
▁allergy	-11.845
▁brilliant	-11.845
▁burden	-11.845
▁conflict	-11.845
▁cubicle	-11.845
▁devil	-11.845
▁glue	-11.845
▁impossible	-11.845
▁pancreati	-11.845
▁politics	-11.845
▁puddle	-11.845
▁reliable	-11.845
▁weapon	-11.845
▁wrist	-11.845
▁Damn	-11.845
▁curve	-11.845
▁incompetent	-11.845
▁ensure	-11.845
▁rejection	-11.845
▁unique	-11.845
▁199	-11.845
▁remodel	-11.845
▁minor	-11.845
▁Uber	-11.8451
▁cities	-11.8451
▁fade	-11.8451
▁French	-11.8451
▁Job	-11.8451
▁specifically	-11.8451
▁mama	-11.8452
▁fraud	-11.8452
▁approval	-11.8452
▁pigg	-11.8452
▁Mich	-11.8452
▁campus	-11.8453
que	-11.8453
▁cockroaches	-11.8453
▁brush	-11.8453
▁pepper	-11.8453
▁discipline	-11.8454
ony	-11.8454
▁mice	-11.8454
▁26	-11.8455
▁blo	-11.8456
▁Finger	-11.8457
▁Sea	-11.8457
▁resolved	-11.8458
▁chosen	-11.8459
▁created	-11.8461
▁creatures	-11.8465
▁statement	-11.8465
▁mode	-11.8466
▁bitter	-11.8466
pass	-11.8468
▁par	-11.847
▁solved	-11.847
▁jack	-11.8474
▁assumed	-11.8479
▁sadness	-11.8481
▁nachos	-11.8483
▁gunshots	-11.8483
▁recommended	-11.8491
▁drums	-11.8495
▁pickles	-11.8495
▁arcade	-11.852
▁regrett	-11.8545
▁Ki	-11.8546
▁licens	-11.8549
▁snapp	-11.8553
tle	-11.8562
▁400	-11.8576
▁Tr	-11.8577
eak	-11.8578
▁/	-11.8587
▁objects	-11.8593
▁comments	-11.8593
▁traditions	-11.8599
▁sn	-11.8599
deral	-11.8604
wi	-11.8612
▁landing	-11.8613
▁channels	-11.8617
▁chopp	-11.8623
▁fans	-11.8641
coon	-11.8645
▁returns	-11.8648
▁gardening	-11.8652
▁fin	-11.8665
ism	-11.8669
▁products	-11.8679
eba	-11.8679
▁opens	-11.8692
▁costs	-11.8698
▁cho	-11.871
▁terms	-11.8722
▁di	-11.8737
▁sw	-11.8756
ail	-11.8762
▁$8	-11.8784
fully	-11.8787
uz	-11.8791
tive	-11.8793
TE	-11.8797
▁closes	-11.88
▁crowds	-11.8823
▁detail	-11.8827
▁decade	-11.8828
▁pig	-11.8828
▁Italy	-11.8844
aving	-11.8845
▁ob	-11.8865
▁weigh	-11.8865
rry	-11.8868
▁scrap	-11.8905
▁complet	-11.8911
▁spell	-11.8933
▁scam	-11.8934
▁increase	-11.8935
V	-11.8937
▁remove	-11.8938
▁san	-11.8938
▁Com	-11.8943
▁frequent	-11.8945
▁Asia	-11.8949
▁Lab	-11.895
arcraft	-11.895
▁2017	-11.895
▁Honda	-11.895
▁Phew	-11.895
▁Suddenly	-11.895
▁Toyota	-11.895
▁antibiotic	-11.895
▁assuming	-11.895
▁crosswalk	-11.895
▁enraged	-11.895
▁fragile	-11.895
▁humiliating	-11.895
▁inspiration	-11.895
▁lifestyle	-11.895
▁lobster	-11.895
▁pineapple	-11.895
▁remeber	-11.895
▁solution	-11.895
▁strike	-11.895
▁suspect	-11.895
▁technician	-11.895
▁resist	-11.895
▁skirt	-11.895
▁cabinet	-11.895
▁stadium	-11.895
▁infant	-11.895
▁intuition	-11.895
▁nanny	-11.895
▁Chicago	-11.895
▁ipad	-11.895
▁olives	-11.895
▁Honor	-11.895
▁jog	-11.895
▁peak	-11.895
▁nah	-11.895
▁UK	-11.8951
▁tshirt	-11.8951
▁unfold	-11.8951
▁pure	-11.8951
▁Food	-11.8951
iams	-11.8951
▁EP	-11.8951
▁crab	-11.8952
▁further	-11.8952
▁Math	-11.8952
▁cocky	-11.8952
▁esteem	-11.8952
▁hahah	-11.8953
▁winner	-11.8953
▁director	-11.8953
▁knowledge	-11.8954
▁earns	-11.8955
▁lion	-11.8955
▁Way	-11.8955
▁Seriously	-11.8956
▁NES	-11.8956
izer	-11.8957
▁sandwiches	-11.8958
▁dryer	-11.8961
▁India	-11.8962
ifying	-11.8971
▁adjusting	-11.8973
▁$40	-11.8974
boy	-11.8982
▁Fun	-11.8986
▁ph	-11.8988
▁participated	-11.8989
▁among	-11.9002
▁sincere	-11.9011
▁swor	-11.9011
▁tied	-11.9013
▁legos	-11.9017
pm	-11.9025
▁repeating	-11.9027
▁costumes	-11.903
▁bare	-11.9033
cha	-11.9034
EVER	-11.9047
▁flooding	-11.9052
▁ri	-11.9052
▁cosign	-11.9056
▁sober	-11.9066
▁jerks	-11.9073
▁details	-11.9075
play	-11.9118
▁Yum	-11.9119
ays	-11.917
SP	-11.9176
▁barn	-11.9176
▁outdoors	-11.9181
lic	-11.9185
set	-11.9195
rowing	-11.9214
unker	-11.9225
ission	-11.9252
arlier	-11.9254
ble	-11.9257
▁nicest	-11.9274
▁dies	-11.9283
ittle	-11.9284
ug	-11.9284
▁Ro	-11.9291
▁deals	-11.932
▁procrastinat	-11.9325
▁350	-11.933
▁bi	-11.9336
▁inter	-11.9339
▁offering	-11.9343
▁cockroach	-11.9351
▁testing	-11.9351
▁raccoon	-11.9351
▁admitted	-11.9353
▁Brother	-11.9355
▁Year	-11.939
▁tense	-11.9395
▁em	-11.9418
udge	-11.943
▁Che	-11.9434
▁rack	-11.9444
▁honk	-11.9448
▁install	-11.9459
▁suprise	-11.9463
▁puke	-11.9468
jitsu	-11.9468
loved	-11.9468
think	-11.9468
home	-11.9469
final	-11.9469
▁disagree	-11.9475
▁rum	-11.9476
▁HUGE	-11.9476
▁January	-11.9476
▁Paris	-11.9476
▁beauty	-11.9476
▁chubby	-11.9476
▁communicate	-11.9476
▁competitor	-11.9476
▁cowboys	-11.9476
▁criminal	-11.9476
▁draft	-11.9476
▁eagles	-11.9476
▁elephant	-11.9476
▁helicopter	-11.9476
▁ketchup	-11.9476
▁plot	-11.9476
▁quot	-11.9476
▁reboot	-11.9476
▁sunshine	-11.9476
▁waterpark	-11.9476
▁wisdo	-11.9476
▁wrestle	-11.9476
▁defense	-11.9476
▁docile	-11.9476
▁inspected	-11.9476
▁permission	-11.9476
▁status	-11.9476
▁ghetto	-11.9476
▁shrimp	-11.9476
▁pepperoni	-11.9476
▁operation	-11.9476
▁Funny	-11.9476
▁Jordan	-11.9476
▁lawyer	-11.9476
▁diary	-11.9476
▁facil	-11.9476
▁diabetes	-11.9476
▁Range	-11.9477
▁famous	-11.9477
▁adrenaline	-11.9477
▁hiring	-11.9477
▁praise	-11.9477
▁yummy	-11.9477
▁Grand	-11.9477
▁unaware	-11.9477
▁candies	-11.9477
▁massage	-11.9477
▁yum	-11.9477
▁airline	-11.9477
▁salesman	-11.9477
▁ACT	-11.9477
▁nine	-11.9477
▁$2000	-11.9477
▁zone	-11.9477
▁autonomy	-11.9477
▁FB	-11.9478
▁teammate	-11.9479
▁fearful	-11.9479
▁sentence	-11.948
▁unemployed	-11.9481
cent	-11.9481
▁sneezed	-11.9481
▁pc	-11.9482
▁towel	-11.9484
▁reply	-11.9484
ney	-11.9484
▁surprisingly	-11.9485
ls	-11.9488
▁recieve	-11.9488
▁Couldn	-11.9489
▁roam	-11.9491
▁shelf	-11.9493
▁quitting	-11.9494
▁sickness	-11.9496
its	-11.9499
▁stronger	-11.9501
▁dim	-11.9503
▁collecting	-11.951
▁dust	-11.9512
▁balloons	-11.9513
▁supplements	-11.9513
vice	-11.9517
▁asap	-11.9519
▁vibes	-11.952
▁greatly	-11.952
▁Saturdays	-11.9521
▁undermin	-11.9521
▁demanding	-11.9537
▁toes	-11.9538
▁Mar	-11.9538
▁nuggets	-11.954
uble	-11.9559
▁rainy	-11.9562
▁weak	-11.9566
▁warn	-11.9577
▁beep	-11.9594
▁chocolates	-11.9597
▁rea	-11.9631
▁thou	-11.9637
▁kissing	-11.9638
▁stun	-11.9647
▁Joe	-11.9656
▁bust	-11.9657
15	-11.967
ina	-11.9677
▁Un	-11.9681
aid	-11.9709
▁rank	-11.9724
▁mum	-11.9727
▁episodes	-11.9731
did	-11.9738
▁Gu	-11.9741
▁Sh	-11.9752
▁services	-11.9765
▁struggles	-11.9766
ax	-11.9775
umbled	-11.9786
▁jokes	-11.9786
▁stars	-11.9803
▁efforts	-11.981
▁signs	-11.9817
▁pace	-11.9823
▁Fe	-11.9836
▁covers	-11.9858
▁steaks	-11.9879
▁Ho	-11.9887
▁candle	-11.9909
▁errand	-11.9909
▁BA	-11.9992
▁releas	-11.9994
▁shatter	-12.0004
▁brag	-12.0012
▁excite	-12.0017
shirt	-12.0023
J	-12.0024
cake	-12.0025
lol	-12.0026
▁juggl	-12.0028
▁taxi	-12.0029
▁confide	-12.003
▁potato	-12.0031
▁include	-12.0031
▁loaf	-12.0031
▁resent	-12.0032
▁motor	-12.0032
▁Atlanta	-12.0032
▁Cleveland	-12.0032
▁Craigslist	-12.0032
▁Obama	-12.0032
▁Terrible	-12.0032
▁Thursday	-12.0032
▁allergies	-12.0032
▁ambulance	-12.0032
▁beggar	-12.0032
▁bodybuild	-12.0032
▁bridesmaid	-12.0032
▁carefree	-12.0032
▁challenging	-12.0032
▁circumstances	-12.0032
▁consequences	-12.0032
▁cryptocurrency	-12.0032
▁decorating	-12.0032
▁entrance	-12.0032
▁favourite	-12.0032
▁fierce	-12.0032
▁generator	-12.0032
▁genius	-12.0032
▁illegal	-12.0032
▁intelligent	-12.0032
▁lipstick	-12.0032
▁mercedes	-12.0032
▁mobile	-12.0032
▁naughty	-12.0032
▁pencil	-12.0032
▁permanent	-12.0032
▁perspective	-12.0032
▁refreshing	-12.0032
▁sophomore	-12.0032
▁streak	-12.0032
▁tuesday	-12.0032
▁virtual	-12.0032
▁windshield	-12.0032
▁2019	-12.0032
▁oppos	-12.0032
▁mustang	-12.0032
▁barefoot	-12.0032
▁cliff	-12.0032
▁international	-12.0032
▁Strange	-12.0032
▁Spain	-12.0032
▁grapes	-12.0032
▁olympic	-12.0032
▁religious	-12.0032
▁exited	-12.0032
▁scrapbook	-12.0032
▁mask	-12.0032
▁uncertainty	-12.0032
▁tech	-12.0032
dispute	-12.0032
▁genetic	-12.0032
▁bleach	-12.0032
▁shotgun	-12.0032
▁mount	-12.0032
▁silent	-12.0032
▁stretch	-12.0032
▁lick	-12.0032
▁mosquitoes	-12.0033
▁North	-12.0033
▁string	-12.0033
▁syndrome	-12.0033
▁popped	-12.0033
▁max	-12.0033
▁moral	-12.0033
▁80%	-12.0033
LD	-12.0034
▁behave	-12.0034
▁WH	-12.0034
▁steady	-12.0034
▁development	-12.0034
▁fam	-12.0034
▁author	-12.0034
▁stepda	-12.0035
▁debate	-12.0035
▁fist	-12.0036
▁PA	-12.0036
▁sew	-12.0038
▁stranded	-12.0039
▁topic	-12.004
▁administration	-12.004
stian	-12.004
▁mustard	-12.0041
▁rela	-12.0043
▁RE	-12.0043
ended	-12.0043
▁sue	-12.0047
▁fortunately	-12.0049
▁Ew	-12.005
ending	-12.005
▁army	-12.0054
▁reconnected	-12.0057
▁removed	-12.0058
▁leaked	-12.0059
▁carton	-12.006
▁peel	-12.0073
▁punished	-12.0073
▁newer	-12.0074
▁van	-12.0074
▁carefully	-12.0078
▁Needles	-12.0078
▁herbs	-12.0081
▁scrape	-12.0083
▁therapist	-12.0083
▁Matt	-12.0084
▁twenties	-12.0085
▁odds	-12.0087
ib	-12.0088
▁PS	-12.0095
▁dy	-12.0096
ner	-12.0097
▁rag	-12.0108
▁spaced	-12.0108
▁cents	-12.0114
▁stares	-12.0116
▁sheets	-12.0121
▁cycle	-12.0122
▁wrapp	-12.0127
▁wishes	-12.0137
▁roses	-12.015
OL	-12.016
▁prayer	-12.0161
▁carts	-12.0162
▁entirely	-12.0168
▁lit	-12.0171
cial	-12.0173
▁masters	-12.0179
▁guests	-12.0186
▁crashing	-12.0224
▁mates	-12.0227
▁sm	-12.0248
▁sauces	-12.0251
tray	-12.0275
▁scan	-12.0285
▁bri	-12.0289
▁taco	-12.0308
eat	-12.0328
▁kittens	-12.033
omy	-12.0335
top	-12.0341
▁Friends	-12.0364
▁ants	-12.0369
▁Isn	-12.0374
▁rocks	-12.0379
hold	-12.0393
▁elections	-12.0411
▁grounded	-12.0418
bon	-12.044
zz	-12.0454
▁thunderstorm	-12.0468
▁rains	-12.0476
▁crimes	-12.0478
▁65	-12.0483
ching	-12.0489
▁bullet	-12.0494
▁rose	-12.0499
▁explore	-12.0515
ear	-12.0532
▁coin	-12.0538
▁melt	-12.0543
▁ow	-12.0545
sue	-12.0545
air	-12.0553
▁thi	-12.0573
IT	-12.0585
▁distract	-12.0587
▁organiz	-12.0588
▁connect	-12.0588
▁leak	-12.0588
▁unpack	-12.0592
▁delay	-12.0592
▁trains	-12.0601
low	-12.0606
▁curse	-12.0608
▁mature	-12.061
because	-12.0612
girlfriend	-12.0612
▁buildings	-12.0617
▁misunderst	-12.0617
raffic	-12.0619
▁uncertain	-12.062
dium	-12.062
▁Apple	-12.062
▁Sweet	-12.062
▁cellphone	-12.062
▁certified	-12.062
▁convenience	-12.062
▁doughnuts	-12.062
▁filthy	-12.062
▁footsteps	-12.062
▁heirloom	-12.062
▁library	-12.062
▁organic	-12.062
▁ornament	-12.062
▁plastic	-12.062
▁policies	-12.062
▁ravioli	-12.062
▁reunited	-12.062
▁salon	-12.062
▁secure	-12.062
▁september	-12.062
▁stereo	-12.062
▁tailgate	-12.062
▁trepidatio	-12.062
▁unacceptable	-12.062
▁variety	-12.062
▁encounter	-12.062
▁unhealthy	-12.062
▁valid	-12.062
▁presence	-12.062
▁disneyworld	-12.062
▁robot	-12.062
▁bridge	-12.062
▁$600	-12.062
▁WHAT	-12.062
▁smiling	-12.062
▁Grudge	-12.062
▁maintenance	-12.062
▁Greece	-12.062
▁portion	-12.062
▁boom	-12.062
▁shipping	-12.062
▁washroom	-12.062
▁joking	-12.062
▁shade	-12.062
▁backwards	-12.062
▁unemployment	-12.062
▁temptation	-12.062
▁compell	-12.062
▁magician	-12.062
inste	-12.062
assic	-12.062
▁undies	-12.062
▁stalk	-12.0621
▁$10,000	-12.0621
▁KFC	-12.0621
▁bail	-12.0621
▁roast	-12.0621
▁Rover	-12.0621
well	-12.0621
▁mma	-12.0622
▁enemy	-12.0622
▁ultimately	-12.0622
▁Montreal	-12.0622
▁Walk	-12.0622
ssurance	-12.0623
▁hammer	-12.0623
▁wooden	-12.0624
▁Put	-12.0624
:-)	-12.0624
▁gay	-12.0625
▁Deal	-12.0625
▁fever	-12.0625
▁obsess	-12.0625
▁hyper	-12.0625
▁booger	-12.0626
▁parade	-12.0626
▁boil	-12.0626
▁legal	-12.0627
▁Ahh	-12.0628
▁published	-12.063
▁drowning	-12.063
▁Tv	-12.063
▁28	-12.0632
▁mor	-12.0634
▁trade	-12.0637
roud	-12.0637
▁flow	-12.0637
▁brighter	-12.0638
▁dodge	-12.0638
▁menu	-12.0642
▁recognized	-12.0643
▁bf	-12.0643
▁permit	-12.0644
▁provider	-12.0644
▁former	-12.0645
▁north	-12.0646
▁jumps	-12.0646
▁murdered	-12.0647
▁litl	-12.0649
▁Top	-12.0652
▁honking	-12.0652
▁collected	-12.0657
▁dresser	-12.0658
▁shout	-12.066
▁commands	-12.0661
▁worms	-12.0662
▁updated	-12.0673
▁Air	-12.0674
▁island	-12.0686
going	-12.0687
▁chewing	-12.069
▁manners	-12.0692
▁defin	-12.0698
20	-12.0699
acking	-12.0702
▁Sp	-12.0707
▁YES	-12.0708
ong	-12.0711
▁comic	-12.0728
▁included	-12.0731
▁strippe	-12.0752
▁candles	-12.0753
dditional	-12.0759
▁mowed	-12.076
bro	-12.0768
▁boots	-12.0791
▁fears	-12.0796
▁Gardens	-12.0799
▁cooler	-12.0801
ustomer	-12.0807
▁behaviors	-12.0808
▁programme	-12.0808
▁WI	-12.0811
make	-12.0815
▁speakers	-12.0819
▁boarding	-12.0821
▁soft	-12.0826
▁sca	-12.0838
▁bru	-12.0863
ky	-12.0866
▁creeps	-12.0868
▁rings	-12.0885
▁Wo	-12.0903
▁shoulders	-12.0914
iff	-12.0916
taking	-12.0941
gg	-12.0973
bil	-12.0992
▁js	-12.0993
▁challenges	-12.1
ities	-12.1009
▁reall	-12.102
▁shakes	-12.1024
▁uh	-12.1056
land	-12.1074
▁anonymous	-12.1082
ives	-12.1105
▁effect	-12.1122
▁twin	-12.1124
▁Head	-12.1139
▁clients	-12.1142
▁las	-12.1158
▁ches	-12.1182
▁donut	-12.1185
▁cla	-12.1198
snt	-12.1213
▁adjust	-12.1216
▁murder	-12.1217
▁reconnect	-12.1218
▁upgrad	-12.1222
▁dar	-12.1224
▁cor	-12.1227
▁shove	-12.1229
▁create	-12.123
▁decline	-12.1232
▁tempt	-12.1236
mping	-12.1237
having	-12.1238
half	-12.1238
with	-12.124
▁obvious	-12.124
▁Read	-12.1241
ranged	-12.1241
▁tag	-12.1242
▁Part	-12.1242
xican	-12.1244
when	-12.1244
aunting	-12.1244
▁remorse	-12.1245
▁basket	-12.1245
▁Bennet	-12.1245
▁Brazil	-12.1245
▁Chipotle	-12.1245
▁Dragons	-12.1245
▁Hershey	-12.1245
▁House	-12.1245
▁Remember	-12.1245
▁Studios	-12.1245
▁Swift	-12.1245
▁Zealand	-12.1245
▁advocate	-12.1245
▁cheerleading	-12.1245
▁coconut	-12.1245
▁competing	-12.1245
▁convenient	-12.1245
▁determination	-12.1245
▁digestive	-12.1245
▁eligible	-12.1245
▁escargot	-12.1245
▁familly	-12.1245
▁gouvernment	-12.1245
▁gymnastics	-12.1245
▁hairstyle	-12.1245
▁ignoring	-12.1245
▁insect	-12.1245
▁irrational	-12.1245
▁ladder	-12.1245
▁luggage	-12.1245
▁occupied	-12.1245
▁pitbull	-12.1245
▁popsicles	-12.1245
▁predict	-12.1245
▁promising	-12.1245
▁qualification	-12.1245
▁sacrifice	-12.1245
▁shaky	-12.1245
▁smartphone	-12.1245
▁tongue	-12.1245
▁traumatizing	-12.1245
▁turmoil	-12.1245
▁unsafe	-12.1245
▁wifi	-12.1245
▁corrupt	-12.1245
▁dissect	-12.1245
▁trials	-12.1245
▁Iraq	-12.1245
▁xbox	-12.1245
▁ricky	-12.1245
▁brat	-12.1245
▁enthusiastic	-12.1245
▁politicians	-12.1245
▁neighbourhood	-12.1245
▁irate	-12.1245
▁sandwhich	-12.1245
▁IRS	-12.1245
▁audience	-12.1245
▁description	-12.1245
▁artwork	-12.1245
▁imagination	-12.1245
▁properties	-12.1245
▁soulmate	-12.1245
▁4.0	-12.1245
▁announcement	-12.1246
▁recommendation	-12.1246
▁replacing	-12.1246
▁Ex	-12.1246
▁karate	-12.1246
▁preference	-12.1246
▁swell	-12.1246
▁daunting	-12.1246
▁intentions	-12.1246
▁Trust	-12.1246
▁production	-12.1246
▁rumor	-12.1246
▁commitment	-12.1246
▁concentrate	-12.1247
▁shine	-12.1247
▁hairball	-12.1247
▁Four	-12.1247
▁pho	-12.1247
▁CV	-12.1247
▁rot	-12.1248
▁OF	-12.1248
▁dug	-12.1248
▁flute	-12.1248
▁definit	-12.1248
▁fellow	-12.125
▁End	-12.125
▁funding	-12.125
▁bubble	-12.1252
▁code	-12.1253
▁ven	-12.1255
▁Sri	-12.1256
▁hosting	-12.1257
▁workforce	-12.1258
▁Bri	-12.1259
▁section	-12.126
▁doomed	-12.1261
▁fold	-12.1262
▁pointless	-12.1264
▁redo	-12.1268
▁rental	-12.1271
▁reasonable	-12.1272
▁professionally	-12.1273
▁Hop	-12.1275
▁larger	-12.1276
▁carbs	-12.1276
▁background	-12.1279
▁whipp	-12.1283
ways	-12.1284
▁racking	-12.1285
▁killer	-12.1289
mart	-12.1292
▁ideal	-12.1297
▁peeve	-12.1299
▁interrupting	-12.13
▁needle	-12.13
mate	-12.1303
▁bullying	-12.1305
▁noodles	-12.1317
▁Heck	-12.1318
▁justice	-12.1342
▁healed	-12.1344
sty	-12.1353
▁$	-12.1359
▁cigarettes	-12.1362
own	-12.1372
▁tacos	-12.1378
sity	-12.1385
idden	-12.1387
▁anticipated	-12.1388
▁Years	-12.1401
▁reliv	-12.1436
▁drawers	-12.1437
▁Al	-12.1438
▁Sma	-12.144
lated	-12.1442
anyon	-12.1444
▁SATs	-12.1444
▁boxer	-12.1448
▁peer	-12.1451
▁breathe	-12.1461
▁musicians	-12.1461
▁sleepy	-12.1466
▁blankets	-12.1477
▁accounting	-12.1478
▁Woo	-12.1478
▁Du	-12.1482
bie	-12.1487
▁sticks	-12.1505
castle	-12.1514
▁swa	-12.1518
▁bean	-12.1524
his	-12.1526
▁chefs	-12.1526
▁por	-12.1536
took	-12.1536
aur	-12.1542
iac	-12.1542
400	-12.155
▁Neighbor	-12.1587
fill	-12.1587
▁accounts	-12.1595
▁fails	-12.1607
▁thousands	-12.1618
▁mic	-12.1622
▁honors	-12.163
▁Meg	-12.1663
▁knees	-12.1701
▁Dog	-12.1712
▁dripp	-12.1713
▁dented	-12.1746
port	-12.1763
▁diamond	-12.1786
▁Gr	-12.1786
▁cigarette	-12.1788
▁document	-12.1789
▁pajama	-12.1789
▁vegetable	-12.1789
▁crapp	-12.1798
▁believ	-12.1801
ummy	-12.1804
tish	-12.1813
▁horses	-12.1836
▁31	-12.184
▁bowls	-12.1852
▁approach	-12.1855
prised	-12.1863
▁civil	-12.1865
▁exp	-12.1873
▁purchas	-12.1877
though	-12.1881
▁threaten	-12.1884
▁stream	-12.1884
▁tick	-12.1884
ify	-12.1892
▁smack	-12.1892
▁approve	-12.1897
(	-12.1903
NES	-12.1904
When	-12.1904
grown	-12.1905
▁kara	-12.1911
iculous	-12.1911
xcept	-12.1912
▁Adult	-12.1912
▁Africa	-12.1912
▁Agreed	-12.1912
▁Broadway	-12.1912
▁Carolina	-12.1912
▁Chocolate	-12.1912
▁Civic	-12.1912
▁HIV	-12.1912
▁NFL	-12.1912
▁Twitch	-12.1912
▁Venom	-12.1912
▁YUCK	-12.1912
▁appliances	-12.1912
▁article	-12.1912
▁bathtub	-12.1912
▁communication	-12.1912
▁counseling	-12.1912
▁delighted	-12.1912
▁dirtbike	-12.1912
▁energetic	-12.1912
▁experiment	-12.1912
▁hobbies	-12.1912
▁journal	-12.1912
▁liquor	-12.1912
▁malnourished	-12.1912
▁midwest	-12.1912
▁obedience	-12.1912
▁october	-12.1912
▁orange	-12.1912
▁privacy	-12.1912
▁queen	-12.1912
▁receipt	-12.1912
▁scienti	-12.1912
▁square	-12.1912
▁stoop	-12.1912
▁triathlon	-12.1912
▁trolley	-12.1912
▁twelve	-12.1912
▁dozen	-12.1912
▁feces	-12.1912
▁neutral	-12.1912
▁urinat	-12.1912
▁deductible	-12.1912
▁float	-12.1912
▁stove	-12.1912
▁vision	-12.1912
▁equal	-12.1912
▁exhort	-12.1912
▁kart	-12.1912
▁Gross	-12.1912
▁subscription	-12.1912
▁FIN	-12.1912
▁knit	-12.1912
▁sweep	-12.1912
▁digging	-12.1912
▁Grandpa	-12.1912
▁Woah	-12.1912
▁grandkids	-12.1912
▁Pitt	-12.1912
▁British	-12.1912
▁buff	-12.1912
▁Home	-12.1912
▁memorable	-12.1912
▁doggy	-12.1912
▁spaceship	-12.1912
▁sofa	-12.1912
▁dairy	-12.1913
▁epic	-12.1913
▁beaming	-12.1913
▁sack	-12.1913
▁awww	-12.1913
▁recite	-12.1913
▁Out	-12.1913
▁mule	-12.1913
placing	-12.1913
▁leap	-12.1913
▁tomatoes	-12.1914
▁employment	-12.1914
▁interaction	-12.1914
▁headlight	-12.1914
▁unfor	-12.1914
▁millionaire	-12.1914
▁typically	-12.1914
▁magical	-12.1915
▁DO	-12.1915
misunderstanding	-12.1915
▁Pro	-12.1915
▁haul	-12.1916
▁PE	-12.1916
▁50%	-12.1917
▁conce	-12.1918
ronic	-12.1919
▁X	-12.1919
▁rodeo	-12.1919
▁Other	-12.192
▁scale	-12.192
▁petty	-12.192
▁comedy	-12.1922
▁pickup	-12.1923
▁housework	-12.1923
▁useful	-12.1924
▁gar	-12.1924
▁thesis	-12.1926
▁teary	-12.1928
▁fitting	-12.1928
▁veg	-12.1932
▁noble	-12.1932
▁negatively	-12.1932
▁excel	-12.1935
▁infuriating	-12.1936
cation	-12.1937
ollen	-12.1938
▁violent	-12.1939
▁smacked	-12.194
▁mayo	-12.1942
▁employed	-12.1943
▁leaking	-12.1945
▁Night	-12.1945
▁underdogs	-12.1951
▁Wouldn	-12.1953
▁Liv	-12.1955
▁ver	-12.1955
▁cuddle	-12.1955
▁Leav	-12.1957
▁alwas	-12.1958
▁poisoning	-12.1958
▁Doesn	-12.1963
eep	-12.1967
▁coupons	-12.1968
▁smarter	-12.1972
▁rise	-12.1973
▁advanced	-12.1976
▁hating	-12.1993
▁grosses	-12.1994
▁pill	-12.2
▁loser	-12.2004
▁repli	-12.201
▁deadly	-12.2012
▁happ	-12.2016
▁girlfi	-12.2017
▁Ask	-12.2021
yo	-12.2042
▁recovering	-12.2066
▁cockroachs	-12.2073
▁cleared	-12.2074
tri	-12.2075
▁sprayed	-12.2076
▁marketing	-12.208
▁differently	-12.2087
▁Ed	-12.209
▁aside	-12.2108
▁warming	-12.2138
▁kicks	-12.214
ide	-12.2149
▁Ke	-12.2149
▁charges	-12.2151
▁muscles	-12.2178
▁treating	-12.219
▁fil	-12.2191
▁procrastinate	-12.2193
▁treatments	-12.2222
▁cater	-12.2231
Come	-12.224
▁WE	-12.2256
▁assignments	-12.2258
times	-12.2265
▁cou	-12.2283
▁ref	-12.2324
▁fif	-12.2324
hole	-12.2327
ought	-12.2329
▁sour	-12.2344
▁attacks	-12.2396
key	-12.2421
▁introduc	-12.2426
▁multi	-12.2434
TH	-12.2454
ngers	-12.2456
▁bow	-12.2498
▁reservation	-12.2503
▁alien	-12.2504
▁ot	-12.2541
rid	-12.2542
work	-12.2546
da	-12.2552
ount	-12.2559
▁yearn	-12.256
magine	-12.2574
tention	-12.2577
▁Ste	-12.2581
GA	-12.2587
▁applications	-12.2592
AT	-12.2596
nia	-12.2597
uperbowl	-12.2599
ential	-12.2604
▁involve	-12.2612
Seriously	-12.2618
daddy	-12.2618
mark	-12.2618
ju	-12.2619
▁necessar	-12.2621
▁slight	-12.2622
▁Rain	-12.2622
▁gene	-12.2623
ontreal	-12.2624
▁Pepper	-12.2625
▁John	-12.2626
▁custo	-12.2626
▁Bummer	-12.2626
▁exhibit	-12.2626
▁straw	-12.2626
▁24/7	-12.2626
▁Argentina	-12.2626
▁Avatar	-12.2626
▁Batman	-12.2626
▁Cadillac	-12.2626
▁Club	-12.2626
▁Excellent	-12.2626
▁Festival	-12.2626
▁Masterchef	-12.2626
▁Nigeria	-12.2626
▁Ooh	-12.2626
▁Pizza	-12.2626
▁University	-12.2626
▁alfredo	-12.2626
▁bargain	-12.2626
▁bodies	-12.2626
▁deceased	-12.2626
▁deserving	-12.2626
▁devasted	-12.2626
▁efficient	-12.2626
▁exhausted	-12.2626
▁exotic	-12.2626
▁gender	-12.2626
▁genuine	-12.2626
▁giraffe	-12.2626
▁impromptu	-12.2626
▁inevitable	-12.2626
▁injuries	-12.2626
▁jitter	-12.2626
▁link	-12.2626
▁meatloaf	-12.2626
▁phobia	-12.2626
▁preordered	-12.2626
▁prestigious	-12.2626
▁prettiest	-12.2626
▁region	-12.2626
▁represent	-12.2626
▁restaraunt	-12.2626
▁resume	-12.2626
▁satisfying	-12.2626
▁snoop	-12.2626
▁sprain	-12.2626
▁squeeze	-12.2626
▁structure	-12.2626
▁suspended	-12.2626
▁swerving	-12.2626
▁temperature	-12.2626
▁tobacco	-12.2626
▁uncommon	-12.2626
▁victim	-12.2626
▁cinna	-12.2626
▁proceed	-12.2626
▁whisper	-12.2626
▁Otherwise	-12.2626
▁curl	-12.2626
▁Hulk	-12.2626
▁agitat	-12.2626
▁google	-12.2626
▁iphone	-12.2626
▁observ	-12.2626
▁reveal	-12.2626
▁cougar	-12.2626
▁investors	-12.2626
▁horizon	-12.2626
▁trading	-12.2626
▁cautio	-12.2626
▁playoffs	-12.2626
▁Arriv	-12.2626
▁proposing	-12.2626
▁lightening	-12.2626
▁strap	-12.2626
▁superior	-12.2626
▁pleasure	-12.2626
▁destructive	-12.2626
▁percent	-12.2626
▁documentary	-12.2626
▁brows	-12.2626
▁fulfil	-12.2626
▁Kong	-12.2626
▁iPad	-12.2626
▁#1	-12.2626
▁motorist	-12.2626
▁disown	-12.2626
▁strapped	-12.2626
▁remorseful	-12.2626
▁penny	-12.2626
▁sheep	-12.2626
▁membership	-12.2626
▁Congress	-12.2626
▁transition	-12.2626
▁flashback	-12.2627
▁france	-12.2627
▁leather	-12.2627
▁Know	-12.2627
▁LOT	-12.2627
▁Dead	-12.2627
▁99	-12.2627
▁programming	-12.2627
▁mileage	-12.2627
▁unprepared	-12.2627
▁93	-12.2627
▁HR	-12.2627
▁collector	-12.2628
▁Music	-12.2628
▁rash	-12.2628
▁mutt	-12.2628
▁electricity	-12.2628
exus	-12.2628
▁luch	-12.2629
▁mole	-12.263
▁realistic	-12.263
▁fitness	-12.263
▁Party	-12.2632
▁PC	-12.2632
▁loop	-12.2632
▁patt	-12.2633
▁coop	-12.2634
▁danger	-12.2634
▁roadside	-12.2635
▁Sadly	-12.2635
▁sneaky	-12.2636
▁Asian	-12.2636
▁childish	-12.2636
▁veggies	-12.264
▁bugger	-12.264
hump	-12.264
▁taller	-12.2641
▁scratches	-12.2646
▁increased	-12.2647
▁rubb	-12.2648
▁Sat	-12.2651
▁recovery	-12.2656
felt	-12.2657
lf	-12.2662
▁kindness	-12.2667
▁Olympics	-12.2668
▁seagulls	-12.2668
▁gui	-12.2669
▁Mu	-12.2669
every	-12.2669
▁enjoyable	-12.2669
za	-12.267
iki	-12.2672
cut	-12.2684
▁seller	-12.2694
▁lu	-12.2697
▁smoked	-12.2701
made	-12.2702
▁su	-12.2703
▁Chat	-12.2705
▁yr	-12.2705
▁circles	-12.2715
▁responded	-12.2719
▁;	-12.2723
▁7-	-12.2733
▁performer	-12.2746
▁sized	-12.2748
▁positively	-12.2752
▁danced	-12.2753
little	-12.2754
ffed	-12.2755
▁eve	-12.2756
▁sus	-12.2757
▁breathing	-12.2765
▁beans	-12.2772
dest	-12.2779
▁fro	-12.2798
▁Horr	-12.2802
ries	-12.2826
▁guts	-12.2847
▁gamer	-12.2851
ST	-12.2857
▁west	-12.2859
▁joys	-12.2862
▁sting	-12.2874
▁Da	-12.2876
put	-12.2881
▁shoo	-12.2895
sitting	-12.29
▁calming	-12.2914
▁canal	-12.2918
▁spirits	-12.2942
▁drawings	-12.2942
▁chow	-12.2945
Friend	-12.2948
▁cows	-12.296
self	-12.2965
fty	-12.2966
▁Ri	-12.2967
▁buns	-12.2969
▁rates	-12.2976
▁amazingly	-12.2999
▁screams	-12.302
OP	-12.3059
▁stru	-12.3061
▁occasions	-12.3064
25	-12.3085
▁op	-12.3095
tha	-12.3102
lted	-12.3108
▁va	-12.3118
▁maker	-12.312
shes	-12.313
bble	-12.3144
▁27	-12.3146
ank	-12.3153
taly	-12.3156
▁cal	-12.317
▁habits	-12.3183
pping	-12.3186
▁holes	-12.3193
nger	-12.322
▁3-	-12.3221
▁ears	-12.3233
▁clubs	-12.3253
▁costume	-12.3272
▁damages	-12.3273
▁benefit	-12.3274
▁sens	-12.3283
▁sheet	-12.3291
▁mechanics	-12.3301
IL	-12.3303
▁disc	-12.3303
ups	-12.331
▁Moms	-12.3314
▁West	-12.3317
cer	-12.3318
▁Su	-12.3323
▁nab	-12.3328
▁freakin	-12.333
▁bud	-12.3331
▁cuddl	-12.3345
q	-12.3345
▁invit	-12.3348
▁surround	-12.3366
▁Ton	-12.3367
▁rub	-12.3372
rou	-12.3372
▁nai	-12.3377
▁hur	-12.3378
▁bounce	-12.3378
▁trim	-12.338
gar	-12.3384
X	-12.3384
That	-12.3387
however	-12.3388
airy	-12.3389
She	-12.339
▁technical	-12.339
▁constant	-12.339
▁Luck	-12.3391
rais	-12.3392
▁gramma	-12.3393
tupid	-12.3395
lypse	-12.3395
▁$25	-12.3395
▁2016	-12.3395
▁Amsterdam	-12.3395
▁Burger	-12.3395
▁Children	-12.3395
▁DPS	-12.3395
▁DVD	-12.3395
▁Diego	-12.3395
▁ENT	-12.3395
▁Filipino	-12.3395
▁GROSS	-12.3395
▁Power	-12.3395
▁Queen	-12.3395
▁Statistic	-12.3395
▁apologizing	-12.3395
▁asheville	-12.3395
▁assemble	-12.3395
▁bartender	-12.3395
▁campaign	-12.3395
▁caregiver	-12.3395
▁clutter	-12.3395
▁cricket	-12.3395
▁deadbeat	-12.3395
▁decorations	-12.3395
▁digital	-12.3395
▁distress	-12.3395
▁earthquake	-12.3395
▁exterminator	-12.3395
▁fantasy	-12.3395
▁ferrari	-12.3395
▁formula	-12.3395
▁gamble	-12.3395
▁impatient	-12.3395
▁intimidating	-12.3395
▁karma	-12.3395
▁lathe	-12.3395
▁nauseous	-12.3395
▁obstacle	-12.3395
▁peanut	-12.3395
▁precaution	-12.3395
▁procedure	-12.3395
▁produce	-12.3395
▁reassuring	-12.3395
▁recluse	-12.3395
▁reserve	-12.3395
▁rifle	-12.3395
▁satellite	-12.3395
▁sunglasses	-12.3395
▁symptoms	-12.3395
▁tumor	-12.3395
▁ukelele	-12.3395
▁unnerving	-12.3395
▁utilit	-12.3395
▁vegetarian	-12.3395
▁yikes	-12.3395
▁Easter	-12.3395
▁dishearten	-12.3395
▁dispose	-12.3395
▁overreact	-12.3395
▁harass	-12.3395
▁sedan	-12.3395
▁splash	-12.3395
▁software	-12.3395
▁spayed	-12.3395
▁Thailand	-12.3395
▁anime	-12.3395
▁recliner	-12.3395
▁neuro	-12.3395
dmission	-12.3395
▁cloths	-12.3395
▁spank	-12.3395
▁temporary	-12.3395
▁GOOD	-12.3395
▁Georgia	-12.3395
▁swimmer	-12.3395
▁activity	-12.3395
▁appreciation	-12.3395
▁diligent	-12.3395
▁Spiderman	-12.3395
▁pancake	-12.3395
▁2006	-12.3396
▁wagon	-12.3396
▁Thai	-12.3396
▁bacon	-12.3396
▁shoplift	-12.3396
▁packet	-12.3396
▁temporarily	-12.3396
▁march	-12.3396
▁welcoming	-12.3396
▁moist	-12.3396
▁racial	-12.3396
▁Washington	-12.3396
▁Wonderful	-12.3396
▁bride	-12.3396
▁waterslide	-12.3396
▁novel	-12.3396
▁mugged	-12.3396
▁spur	-12.3396
▁groom	-12.3396
▁eternity	-12.3396
▁shipped	-12.3396
▁genero	-12.3396
▁Q	-12.3396
▁$5000	-12.3396
▁occasionally	-12.3396
▁Blue	-12.3396
▁calc	-12.3396
▁snot	-12.3397
▁rattle	-12.3397
▁notebook	-12.3397
▁angrily	-12.3397
▁Ops	-12.3397
▁teasing	-12.3397
raunt	-12.3397
▁caramel	-12.3398
▁Manager	-12.3398
▁eight	-12.3398
▁Somehow	-12.3398
▁Cats	-12.3398
▁Wentz	-12.3398
▁oops	-12.3398
▁crew	-12.3398
▁wold	-12.3398
▁tur	-12.3399
roke	-12.3399
▁anyhow	-12.3399
▁heels	-12.3399
0-50	-12.3399
which	-12.34
▁Save	-12.34
▁conscious	-12.3401
▁network	-12.3401
nite	-12.3401
right	-12.3401
▁dig	-12.3401
NN	-12.3401
▁Ready	-12.3402
▁Dun	-12.3402
▁#	-12.3402
▁swings	-12.3403
▁kidney	-12.3403
▁neglected	-12.3403
▁trait	-12.3403
▁nominated	-12.3404
▁finalist	-12.3405
▁Buy	-12.3407
ternal	-12.3408
▁fighters	-12.3408
▁firend	-12.3408
▁intended	-12.3409
▁hoarder	-12.3409
▁Hardy	-12.341
▁disconnected	-12.3413
hame	-12.3413
▁burglar	-12.3414
▁gf	-12.3416
▁fondly	-12.3418
rystal	-12.3423
▁:))	-12.3425
▁affordable	-12.3425
▁outlook	-12.3427
▁palm	-12.3428
▁threatened	-12.3429
ung	-12.3436
MO	-12.344
▁useless	-12.3442
▁swam	-12.3452
▁smoothie	-12.3453
▁tran	-12.3453
▁emotionally	-12.3454
par	-12.3468
▁bless	-12.3469
▁critters	-12.3471
▁Throw	-12.3472
vo	-12.3476
cher	-12.3483
▁scolded	-12.3486
▁spaces	-12.3492
▁prized	-12.3492
▁beca	-12.3495
▁adopting	-12.3496
▁Use	-12.3498
▁stones	-12.3501
▁attitudes	-12.351
▁helpless	-12.3514
▁affected	-12.3514
ately	-12.3526
▁worthy	-12.3539
ude	-12.3549
▁remaining	-12.3559
pper	-12.3561
▁ruining	-12.3564
▁)	-12.3569
▁raccoons	-12.3583
ntly	-12.3586
▁corrected	-12.3594
got	-12.3595
▁freely	-12.3606
▁hints	-12.3614
▁net	-12.3618
▁Wh	-12.363
inister	-12.3633
ably	-12.3634
We	-12.364
OR	-12.3654
▁Days	-12.3656
ilia	-12.3659
nic	-12.3681
luffy	-12.3683
▁zoom	-12.3686
ady	-12.3692
▁teens	-12.3696
▁keeper	-12.3706
lding	-12.3707
▁Caus	-12.3731
▁closely	-12.3732
▁slices	-12.3738
▁soap	-12.3738
uld	-12.374
▁outfits	-12.3748
▁notori	-12.3758
ai	-12.3765
▁sites	-12.3765
▁Mo	-12.3777
iling	-12.3779
▁wasps	-12.378
die	-12.3781
▁excuses	-12.38
▁parenting	-12.3807
▁browns	-12.3809
▁para	-12.3815
▁slides	-12.3822
▁growl	-12.3826
▁goo	-12.3828
▁ankles	-12.3831
▁Boo	-12.3833
inos	-12.3833
▁hut	-12.3858
▁te	-12.3864
▁Cha	-12.3884
eye	-12.3918
▁Tri	-12.3923
trap	-12.3924
aver	-12.3928
▁Bill	-12.3972
▁rider	-12.3983
fraid	-12.3983
▁monthly	-12.3991
▁vo	-12.4004
iz	-12.4017
▁dominate	-12.4026
▁Young	-12.4074
30	-12.4088
star	-12.4094
▁instinct	-12.4103
eflecting	-12.4104
▁mosquito	-12.4105
▁Congratulation	-12.4108
▁cent	-12.4116
ran	-12.4144
$	-12.4149
▁Win	-12.4158
▁Need	-12.4159
load	-12.4164
elieve	-12.4167
▁har	-12.4175
where	-12.4177
DS	-12.4182
▁spil	-12.4194
▁fir	-12.4196
▁charm	-12.4199
▁inform	-12.4201
▁irk	-12.4201
▁engage	-12.4213
▁resolve	-12.4214
▁update	-12.4214
▁frien	-12.4215
print	-12.4219
view	-12.422
=	-12.422
guard	-12.4221
64	-12.4221
wife	-12.4222
era	-12.4223
▁intentional	-12.4223
▁German	-12.4223
hour	-12.4224
▁absolute	-12.4225
▁Circ	-12.4228
script	-12.4228
▁transport	-12.4228
bviously	-12.4228
▁disrespect	-12.4228
▁psycho	-12.4229
HHHH	-12.4229
lerate	-12.4229
TION	-12.4229
▁Algebra	-12.4229
▁Animal	-12.4229
▁DAY	-12.4229
▁Dolphin	-12.4229
▁FIFA	-12.4229
▁HAHA	-12.4229
▁HELLP	-12.4229
▁Impossible	-12.4229
▁KNO	-12.4229
▁Literally	-12.4229
▁London	-12.4229
▁Memories	-12.4229
▁Millenial	-12.4229
▁Problem	-12.4229
▁Quite	-12.4229
▁Tahiti	-12.4229
▁Talent	-12.4229
▁UPS	-12.4229
▁Visit	-12.4229
▁afloat	-12.4229
▁aspect	-12.4229
▁bitcoin	-12.4229
▁buried	-12.4229
▁cactus	-12.4229
▁chili	-12.4229
▁concept	-12.4229
▁condolences	-12.4229
▁converse	-12.4229
▁craigslist	-12.4229
▁creating	-12.4229
▁doozy	-12.4229
▁eBay	-12.4229
▁earbuds	-12.4229
▁eclipse	-12.4229
▁established	-12.4229
▁evacuate	-12.4229
▁guacamole	-12.4229
▁identity	-12.4229
▁independence	-12.4229
▁indicators	-12.4229
▁infomercial	-12.4229
▁instagram	-12.4229
▁investigate	-12.4229
▁mistreat	-12.4229
▁mushy	-12.4229
▁narrow	-12.4229
▁native	-12.4229
▁nonstop	-12.4229
▁november	-12.4229
▁obnoxious	-12.4229
▁ordeal	-12.4229
▁oreos	-12.4229
▁petrified	-12.4229
▁preseason	-12.4229
▁privilege	-12.4229
▁quad	-12.4229
▁rehearse	-12.4229
▁relocat	-12.4229
▁revenge	-12.4229
▁roadtrip	-12.4229
▁scheme	-12.4229
▁scrambl	-12.4229
▁siren	-12.4229
▁surgeries	-12.4229
▁sync	-12.4229
▁unbearable	-12.4229
▁unlikely	-12.4229
▁entry	-12.4229
▁scoring	-12.4229
ivng	-12.4229
▁Scot	-12.4229
▁clinic	-12.4229
▁gauge	-12.4229
▁recession	-12.4229
▁nagging	-12.4229
▁trivia	-12.4229
▁Partner	-12.4229
Orange	-12.4229
▁335	-12.4229
▁Redemption	-12.4229
▁flick	-12.4229
▁cigar	-12.4229
plex	-12.4229
▁tabby	-12.4229
▁humidity	-12.4229
▁Jeep	-12.4229
▁Goldie	-12.4229
▁thinner	-12.4229
▁bogus	-12.4229
▁rotted	-12.4229
▁LSAT	-12.4229
▁Neither	-12.4229
▁Shake	-12.4229
▁reverse	-12.4229
▁hungover	-12.4229
▁stash	-12.4229
▁yellow	-12.4229
▁chatroom	-12.4229
▁radiation	-12.4229
▁grid	-12.4229
▁retriever	-12.4229
▁bones	-12.4229
▁source	-12.4229
▁Becky	-12.4229
▁Chase	-12.4229
▁25%	-12.4229
▁device	-12.4229
▁engagement	-12.4229
▁fluid	-12.4229
▁nerd	-12.4229
▁ANY	-12.423
▁dunk	-12.423
▁State	-12.423
▁sufficient	-12.423
▁Kra	-12.423
▁layoff	-12.423
▁priority	-12.423
▁reset	-12.423
▁weave	-12.423
▁Ohhh	-12.423
▁Crea	-12.423
▁crackers	-12.4231
▁360	-12.4231
▁parachute	-12.4231
▁entertain	-12.4231
▁branches	-12.4231
▁shipment	-12.4231
▁Tax	-12.4232
▁vaca	-12.4232
▁Gold	-12.4232
▁housing	-12.4233
▁pigeon	-12.4233
▁Later	-12.4233
▁600	-12.4234
▁priceless	-12.4234
▁policeman	-12.4235
▁arch	-12.4236
▁humor	-12.4236
▁audi	-12.4237
▁acceptable	-12.4238
▁shrieked	-12.424
loaded	-12.424
▁anticipate	-12.424
▁DC	-12.4241
▁letdown	-12.4241
▁Bear	-12.4242
▁ramm	-12.4242
▁overflowed	-12.4242
▁Beat	-12.4243
▁fry	-12.4245
ruly	-12.4245
▁pier	-12.4246
▁snowboarding	-12.4247
mental	-12.4249
▁flak	-12.425
▁naturally	-12.425
▁locker	-12.4251
▁overwatch	-12.4255
▁makeover	-12.4256
▁spite	-12.4257
▁slacker	-12.4265
▁streaming	-12.4265
vied	-12.4266
▁chor	-12.4267
▁brace	-12.4269
▁fullest	-12.427
▁cure	-12.4275
ou	-12.4276
▁trimm	-12.4289
▁napkins	-12.4289
▁upper	-12.4291
▁gran	-12.4298
▁eras	-12.4303
▁cringe	-12.4306
▁quieter	-12.4309
▁filters	-12.4311
▁sme	-12.4323
▁addicted	-12.4325
ntil	-12.4329
▁coping	-12.4334
▁budgeted	-12.4338
▁responding	-12.4339
▁Mon	-12.4346
some	-12.4348
▁Awwww	-12.4348
▁alter	-12.4351
▁fac	-12.4369
▁!!!	-12.4392
▁seam	-12.4407
risk	-12.441
nding	-12.4421
ntar	-12.4424
▁picky	-12.4431
▁freeze	-12.4432
haha	-12.4442
▁Vic	-12.4453
▁concerns	-12.4454
▁flea	-12.4455
▁neighbours	-12.4467
▁outage	-12.4472
▁Jon	-12.4478
lk	-12.4479
▁alarming	-12.4481
▁pointer	-12.4501
▁roomies	-12.4526
illion	-12.4531
ege	-12.4531
▁rewards	-12.4536
▁honored	-12.4557
aned	-12.4557
▁stare	-12.457
mingly	-12.4582
▁covering	-12.4582
▁muster	-12.4608
avid	-12.461
▁cravings	-12.4614
▁neices	-12.4614
lb	-12.4615
ka	-12.4623
lico	-12.4629
▁jud	-12.4634
▁landscape	-12.464
▁merge	-12.4667
▁snuggl	-12.4671
grease	-12.4683
▁claims	-12.4694
▁lungs	-12.4694
▁ba	-12.4705
▁wondered	-12.4713
▁Stu	-12.4761
▁el	-12.4781
▁fate	-12.4809
▁bre	-12.4827
▁ka	-12.4851
▁tha	-12.4898
▁achiev	-12.4905
tial	-12.491
▁fre	-12.4922
▁strip	-12.493
▁flag	-12.4941
▁sympath	-12.4959
mming	-12.497
AS	-12.498
▁Stan	-12.4996
▁possession	-12.5011
▁hotdog	-12.5012
▁pic	-12.5017
▁grandparent	-12.5017
rmally	-12.5024
▁glove	-12.5027
▁lego	-12.5031
▁lb	-12.5033
▁El	-12.5036
▁stone	-12.5045
tional	-12.5054
▁nerv	-12.507
▁embarrass	-12.5082
▁gla	-12.5098
▁Ben	-12.5108
▁sadden	-12.511
▁commut	-12.5115
▁hail	-12.5117
▁choos	-12.512
▁guarantee	-12.5123
▁inspire	-12.5123
box	-12.5129
moved	-12.5129
#	-12.5129
Super	-12.513
street	-12.513
Yeah	-12.513
vious	-12.513
▁lecture	-12.513
loud	-12.5132
button	-12.5132
▁Hah	-12.5132
▁financ	-12.5132
▁whiske	-12.5132
talk	-12.5133
▁announce	-12.5133
▁Russia	-12.5134
lead	-12.5136
▁radiat	-12.5137
quid	-12.5137
▁Spider	-12.5137
▁Georg	-12.5137
nior	-12.5138
▁plum	-12.5138
▁dilig	-12.5138
▁$3	-12.5138
▁chapter	-12.5138
▁patterns	-12.5138
Surprise	-12.5138
ctica	-12.5138
eometry	-12.5138
eopardy	-12.5138
▁Alaska	-12.5138
▁Audi	-12.5138
▁Browns	-12.5138
▁Chemistry	-12.5138
▁Decid	-12.5138
▁Economics	-12.5138
▁Education	-12.5138
▁Fortunately	-12.5138
▁GPS	-12.5138
▁Halo	-12.5138
▁Hospital	-12.5138
▁Jesus	-12.5138
▁Legends	-12.5138
▁Listen	-12.5138
▁Louisiana	-12.5138
▁Luther	-12.5138
▁Miami	-12.5138
▁Peace	-12.5138
▁Philadelphia	-12.5138
▁Ruine	-12.5138
▁Target	-12.5138
▁Yale	-12.5138
▁aquarium	-12.5138
▁automatically	-12.5138
▁blinker	-12.5138
▁breweries	-12.5138
▁calories	-12.5138
▁clumsy	-12.5138
▁crisp	-12.5138
▁deployment	-12.5138
▁describe	-12.5138
▁despair	-12.5138
▁discouraging	-12.5138
▁dissapear	-12.5138
▁earthworm	-12.5138
▁elaborate	-12.5138
▁eliminat	-12.5138
▁emergencies	-12.5138
▁ethic	-12.5138
▁excitied	-12.5138
▁excursion	-12.5138
▁fabulous	-12.5138
▁fascinat	-12.5138
▁flare	-12.5138
▁forecast	-12.5138
▁grandchildren	-12.5138
▁hawaii	-12.5138
▁heartwarming	-12.5138
▁hooligan	-12.5138
▁iPhone	-12.5138
▁inconvenient	-12.5138
▁investigation	-12.5138
▁keychain	-12.5138
▁knives	-12.5138
▁leisure	-12.5138
▁lobby	-12.5138
▁massacre	-12.5138
▁neutered	-12.5138
▁obedient	-12.5138
▁overdraw	-12.5138
▁polish	-12.5138
▁poptart	-12.5138
▁powerpoint	-12.5138
▁presidency	-12.5138
▁relieving	-12.5138
▁revolting	-12.5138
▁satisfaction	-12.5138
▁seizure	-12.5138
▁shreds	-12.5138
▁silverfish	-12.5138
▁splurge	-12.5138
▁terrific	-12.5138
▁toothache	-12.5138
▁torture	-12.5138
▁tragedy	-12.5138
▁trophies	-12.5138
▁unpleasant	-12.5138
▁vaccine	-12.5138
▁vitamins	-12.5138
▁volcan	-12.5138
▁vulnerable	-12.5138
▁willpower	-12.5138
▁york	-12.5138
iology	-12.5138
▁Camry	-12.5138
▁DIY	-12.5138
▁Grandmother	-12.5138
▁eww	-12.5138
▁fungus	-12.5138
▁july	-12.5138
▁psychology	-12.5138
▁renovated	-12.5138
▁snoring	-12.5138
▁bliss	-12.5138
▁ferre	-12.5138
▁gentle	-12.5138
▁venture	-12.5138
▁Xbox	-12.5138
▁memoriz	-12.5138
▁ramp	-12.5138
▁saint	-12.5138
▁Often	-12.5138
▁Study	-12.5138
▁swollen	-12.5138
▁THAT	-12.5138
GG	-12.5138
▁flunk	-12.5138
▁mentor	-12.5138
▁meteor	-12.5138
▁fiber	-12.5138
▁$250	-12.5138
▁$2500	-12.5138
oooh	-12.5138
▁Baby	-12.5138
▁ridden	-12.5138
▁borther	-12.5138
▁studies	-12.5138
▁deadlift	-12.5138
▁figurine	-12.5138
▁aww	-12.5138
▁selection	-12.5138
▁bothersome	-12.5138
▁feast	-12.5138
▁bookcase	-12.5138
▁handsome	-12.5139
▁blur	-12.5139
▁horri	-12.5139
▁dramatic	-12.5139
▁Robin	-12.5139
▁curf	-12.5139
▁MBA	-12.5139
▁props	-12.5139
▁breakins	-12.5139
▁remake	-12.5139
▁substan	-12.5139
▁believable	-12.5139
▁Eww	-12.5139
▁disagreement	-12.5139
▁vari	-12.5139
nfinity	-12.5139
nome	-12.514
▁bday	-12.514
▁wax	-12.514
▁Month	-12.514
▁fender	-12.514
▁OW	-12.514
▁blat	-12.514
▁loner	-12.514
▁proof	-12.514
▁plugg	-12.514
▁attendance	-12.514
▁nursery	-12.514
▁lip	-12.5141
▁rome	-12.5141
▁cardio	-12.5142
▁lash	-12.5143
▁merit	-12.5143
▁tournem	-12.5143
fall	-12.5143
▁Germany	-12.5143
▁sel	-12.5144
▁specialist	-12.5144
▁uninterest	-12.5144
▁47	-12.5145
▁questionable	-12.5145
▁psyched	-12.5145
fidelity	-12.5146
▁Canad	-12.5146
▁10%	-12.5146
▁Meet	-12.5146
▁neglecting	-12.5147
▁flyers	-12.5148
▁chin	-12.5148
▁NC	-12.5149
▁mainten	-12.515
ride	-12.515
▁33	-12.515
▁Somewhat	-12.5151
▁separated	-12.5151
▁jitsu	-12.5152
▁Eh	-12.5153
▁drone	-12.5153
▁hah	-12.5156
▁resources	-12.5156
▁lone	-12.5156
iming	-12.5158
▁disconnecting	-12.5158
▁clicking	-12.5158
▁fulltime	-12.5159
▁Mary	-12.5159
▁matt	-12.5159
▁coat	-12.516
▁Land	-12.516
▁commute	-12.516
nb	-12.5161
▁risky	-12.5162
▁crep	-12.5162
▁union	-12.5162
▁Wood	-12.5162
everal	-12.5164
▁severely	-12.5164
▁Than	-12.5166
▁meantime	-12.5166
▁Less	-12.5167
▁hailing	-12.5168
▁chemicals	-12.5168
▁asset	-12.5169
▁glob	-12.5172
▁pricey	-12.5173
▁flaked	-12.5177
▁Mark	-12.5178
▁vir	-12.5182
▁unpacking	-12.5183
▁dancer	-12.5186
▁raf	-12.5189
▁wrapping	-12.5189
▁elements	-12.5192
▁Bull	-12.5194
god	-12.5194
cared	-12.52
▁tape	-12.5206
ared	-12.5207
▁shorter	-12.521
▁champions	-12.5216
cue	-12.5221
▁pipes	-12.5227
▁Mountains	-12.5229
▁13-	-12.5233
uff	-12.5235
▁socialize	-12.5238
▁features	-12.5241
meter	-12.5246
being	-12.525
ada	-12.5256
▁cherished	-12.5258
▁factor	-12.5261
▁hotdogs	-12.5265
▁gloves	-12.5265
▁lifetime	-12.5265
▁primar	-12.5275
▁instincts	-12.5277
▁finishe	-12.5279
▁beautifully	-12.5279
▁fishe	-12.5287
▁holder	-12.5294
▁snowed	-12.5305
▁overtime	-12.5307
vity	-12.531
▁passer	-12.5311
▁scamme	-12.5313
▁diamonds	-12.5314
ghter	-12.5321
▁bullets	-12.5339
▁gaining	-12.5339
▁endure	-12.534
▁jealousy	-12.5343
iger	-12.536
mashed	-12.5361
!@	-12.5364
▁ache	-12.5383
▁ropes	-12.5388
hard	-12.5396
▁desserts	-12.54
▁glo	-12.5406
▁bin	-12.5406
urse	-12.5417
▁frogs	-12.5425
▁dil	-12.5426
au	-12.5428
und	-12.5459
eled	-12.5478
ured	-12.5494
▁ties	-12.5536
aching	-12.5539
▁Ring	-12.5565
▁pest	-12.5583
ulf	-12.5591
▁$4	-12.5599
tarting	-12.561
come	-12.5617
▁pleas	-12.5624
tiring	-12.5627
aul	-12.5629
hood	-12.5635
ager	-12.5642
▁Dare	-12.5671
8%	-12.5692
▁$80	-12.5724
▁import	-12.5726
▁Plan	-12.5771
▁pursu	-12.5773
▁Lat	-12.5778
limited	-12.5781
▁Uni	-12.5811
▁Brea	-12.5817
ope	-12.5818
▁scuff	-12.5856
entic	-12.5869
finished	-12.5871
▁controll	-12.5871
▁BE	-12.5877
maze	-12.5884
ailor	-12.5888
▁liv	-12.5891
nea	-12.5895
sque	-12.5898
dge	-12.59
▁gap	-12.5919
LY	-12.5946
umb	-12.5958
osis	-12.5969
▁america	-12.5972
▁Bar	-12.5975
▁sip	-12.5987
oes	-12.6006
▁circle	-12.6013
▁nugget	-12.6014
▁earring	-12.6016
▁Ve	-12.6019
▁manner	-12.6022
liner	-12.6035
racking	-12.6053
▁pun	-12.6054
still	-12.6062
ailing	-12.6069
look	-12.6093
mos	-12.6098
agon	-12.6101
▁lous	-12.6106
▁pla	-12.6115
pack	-12.6115
▁tee	-12.6116
usting	-12.6116
▁relie	-12.6117
▁hoard	-12.612
▁separate	-12.6123
▁choke	-12.6124
▁q	-12.6124
ggling	-12.6125
▁audit	-12.6126
market	-12.6126
prepared	-12.6128
discipline	-12.6129
mature	-12.613
What	-12.613
service	-12.613
ER	-12.6131
▁stud	-12.6132
▁positiv	-12.6132
▁Brad	-12.6132
geons	-12.6132
gran	-12.6134
DC	-12.6134
▁interact	-12.6134
oreigner	-12.6135
▁rom	-12.6135
roatia	-12.6136
▁champ	-12.6137
▁feat	-12.6137
hocked	-12.6137
eceived	-12.6137
▁trump	-12.6138
▁accura	-12.6138
▁devolv	-12.6138
▁embar	-12.6138
▁lyrics	-12.6138
▁strain	-12.6138
UCH	-12.6138
]	-12.6138
▁ABCs	-12.6138
▁ASPCA	-12.6138
▁BBQ	-12.6138
▁Bachelor	-12.6138
▁Blood	-12.6138
▁Braves	-12.6138
▁Crazy	-12.6138
▁Excit	-12.6138
▁Express	-12.6138
▁Factory	-12.6138
▁Ferrari	-12.6138
▁Franklin	-12.6138
▁HARD	-12.6138
▁Jerry	-12.6138
▁MLB	-12.6138
▁Nashville	-12.6138
▁Royal	-12.6138
▁Society	-12.6138
▁Universe	-12.6138
▁Wimbledon	-12.6138
▁accumulat	-12.6138
▁affectionate	-12.6138
▁artificial	-12.6138
▁assault	-12.6138
▁california	-12.6138
▁cheesy	-12.6138
▁collapsing	-12.6138
▁compressor	-12.6138
▁conclusion	-12.6138
▁consolation	-12.6138
▁consolidat	-12.6138
▁counselor	-12.6138
▁crucial	-12.6138
▁curtains	-12.6138
▁diabeti	-12.6138
▁dumbfounded	-12.6138
▁educated	-12.6138
▁energency	-12.6138
▁eruption	-12.6138
▁euthanize	-12.6138
▁exposed	-12.6138
▁foreclosed	-12.6138
▁foreclosure	-12.6138
▁gadget	-12.6138
▁gamecube	-12.6138
▁giggling	-12.6138
▁grandchild	-12.6138
▁graphic	-12.6138
▁gunpoint	-12.6138
▁hammock	-12.6138
▁intricate	-12.6138
▁jeez	-12.6138
▁lantern	-12.6138
▁literature	-12.6138
▁lollipop	-12.6138
▁magazine	-12.6138
▁mammogram	-12.6138
▁meningitis	-12.6138
▁mexico	-12.6138
▁misplace	-12.6138
▁nightgown	-12.6138
▁notification	-12.6138
▁optometrist	-12.6138
▁ostrich	-12.6138
▁overdraft	-12.6138
▁pimple	-12.6138
▁potluck	-12.6138
▁powder	-12.6138
▁queue	-12.6138
▁renovation	-12.6138
▁reparations	-12.6138
▁resturant	-12.6138
▁roosters	-12.6138
▁sausage	-12.6138
▁severance	-12.6138
▁sociopath	-12.6138
▁spicy	-12.6138
▁splint	-12.6138
▁statue	-12.6138
▁sundae	-12.6138
▁technique	-12.6138
▁territorial	-12.6138
▁thermostat	-12.6138
▁thirsty	-12.6138
▁tommorow	-12.6138
▁trigger	-12.6138
▁troop	-12.6138
▁verbiage	-12.6138
▁watermelon	-12.6138
▁wrangler	-12.6138
▁wrestling	-12.6138
▁1980	-12.6138
▁mild	-12.6138
▁slick	-12.6138
▁tarp	-12.6138
diatri	-12.6138
▁Figure	-12.6138
▁Psychology	-12.6138
▁Short	-12.6138
▁adapt	-12.6138
▁optom	-12.6138
▁raptor	-12.6138
▁demons	-12.6138
amsung	-12.6138
▁limb	-12.6138
▁prompt	-12.6138
EAR	-12.6138
▁toenail	-12.6138
▁wander	-12.6138
▁disgraceful	-12.6138
▁alert	-12.6138
▁favour	-12.6138
▁Fuzz	-12.6138
▁Unfortunatl	-12.6138
▁shallow	-12.6138
▁Smell	-12.6138
▁angel	-12.6138
▁FORT	-12.6138
▁intersection	-12.6138
▁Mind	-12.6138
▁blade	-12.6138
▁Human	-12.6138
▁defeat	-12.6138
▁versa	-12.6138
▁Greyhound	-12.6138
▁Outback	-12.6138
▁YOU	-12.6138
▁outstanding	-12.6138
demption	-12.6138
▁Dirt	-12.6138
▁foul	-12.6138
▁pierced	-12.6138
struct	-12.6138
▁alteration	-12.6138
WAY	-12.6138
▁attachment	-12.6138
▁gutted	-12.6138
▁Rome	-12.6138
▁Callie	-12.6138
▁shall	-12.6138
▁$5,000	-12.6138
▁terror	-12.6138
▁foolish	-12.6138
▁Jackson	-12.6139
▁stability	-12.6139
▁Tough	-12.6139
▁kickball	-12.6139
▁palp	-12.6139
▁Rite	-12.6139
▁Dude	-12.6139
▁youthful	-12.6139
▁$50,000	-12.6139
▁spun	-12.6139
▁THat	-12.6139
▁nick	-12.6139
▁lonli	-12.6139
▁bass	-12.614
▁gro	-12.614
▁90%	-12.614
▁blonde	-12.614
▁planner	-12.614
▁pitchers	-12.614
▁punishment	-12.614
▁repairman	-12.614
herish	-12.614
▁waist	-12.614
▁copies	-12.614
▁cupboard	-12.614
▁settlement	-12.614
▁elsewhere	-12.6141
▁Manage	-12.6141
▁cancelling	-12.6141
▁panicky	-12.6141
▁feb	-12.6142
▁obtain	-12.6142
▁FL	-12.6142
▁fashioned	-12.6142
▁Somebod	-12.6142
▁stopping	-12.6143
▁Alone	-12.6143
▁selfish	-12.6143
▁tune	-12.6143
▁tres	-12.6143
▁Bring	-12.6143
▁pathetic	-12.6144
▁relaxation	-12.6145
▁supper	-12.6145
▁Pay	-12.6146
▁ahh	-12.6146
▁peru	-12.6147
lab	-12.6147
▁36	-12.6148
▁Smok	-12.6148
▁Moon	-12.6148
▁stupidity	-12.6148
▁shredded	-12.6148
derer	-12.6149
▁overheard	-12.6149
▁nois	-12.6149
▁funky	-12.615
about	-12.615
▁darkness	-12.615
▁milli	-12.6152
▁tripping	-12.6153
▁greener	-12.6154
▁guaranteed	-12.6154
▁swoo	-12.6155
▁32	-12.6155
▁Nobody	-12.6156
▁intro	-12.6158
were	-12.6158
llige	-12.6159
▁getaway	-12.616
▁refinanc	-12.616
▁Playing	-12.6161
▁restore	-12.6161
▁realise	-12.6162
▁backups	-12.6164
roga	-12.6164
▁gash	-12.6167
▁x	-12.6168
gave	-12.6168
orting	-12.6168
▁quicker	-12.6169
▁bonuses	-12.6169
▁hitch	-12.617
▁hunger	-12.6174
▁tomor	-12.6175
▁treasured	-12.6175
▁overboard	-12.6176
▁discovery	-12.6183
▁humbled	-12.6185
▁tempting	-12.6186
▁connected	-12.6188
▁restart	-12.619
▁Bad	-12.6191
pleasur	-12.6191
naly	-12.6194
▁instances	-12.6198
▁warriors	-12.6198
watching	-12.6199
▁madness	-12.62
AVE	-12.6201
▁yay	-12.6204
▁beaches	-12.6206
ything	-12.6206
▁movement	-12.621
hosen	-12.6211
▁representatives	-12.6212
▁14-	-12.6214
▁writer	-12.6215
▁redone	-12.6221
▁expel	-12.6223
▁Russians	-12.6225
▁conventions	-12.6225
▁umb	-12.6228
▁jumpy	-12.6231
▁steaming	-12.6232
▁honesty	-12.6232
uted	-12.6232
▁everyon	-12.6234
▁provided	-12.6237
▁improved	-12.6238
▁rapids	-12.6239
▁mins	-12.6239
▁Say	-12.6246
▁surroundings	-12.6252
▁Gree	-12.6254
▁Class	-12.6262
▁Hmmm	-12.6269
▁triple	-12.6269
▁tin	-12.627
▁sticker	-12.6271
▁possessions	-12.6279
there	-12.628
▁othe	-12.6311
▁rad	-12.6324
working	-12.6333
▁marker	-12.6338
▁skilled	-12.6342
▁coins	-12.6361
uc	-12.6366
▁wonderfully	-12.6389
SL	-12.6391
▁iP	-12.6403
PR	-12.6411
ILL	-12.6426
rought	-12.6431
ughter	-12.6433
arch	-12.6486
inds	-12.6492
▁pursue	-12.6516
read	-12.6518
owed	-12.6521
vin	-12.6525
unk	-12.6527
signed	-12.6541
▁Hate	-12.6552
nning	-12.657
▁sl	-12.6596
▁Hu	-12.6615
too	-12.662
▁postpon	-12.6623
swag	-12.6627
ously	-12.6663
race	-12.6664
ustling	-12.6666
ife	-12.669
▁learner	-12.6696
stful	-12.6732
▁Mik	-12.6735
12	-12.6758
▁ga	-12.6785
unch	-12.6797
▁dep	-12.6834
▁eater	-12.6852
▁tri	-12.6857
cluded	-12.6876
ctively	-12.6887
▁bumb	-12.6897
▁imagin	-12.6905
ix	-12.6908
ement	-12.6922
lain	-12.6966
▁fie	-12.6979
▁edg	-12.6987
TS	-12.6993
▁pil	-12.7002
VER	-12.702
▁Pe	-12.7025
bell	-12.7026
▁gu	-12.703
▁rev	-12.7039
▁wage	-12.7046
▁commen	-12.7078
▁doo	-12.7092
▁wire	-12.712
▁holdi	-12.7122
▁noodle	-12.7125
▁feature	-12.7127
▁essential	-12.7127
▁gener	-12.7151
oxi	-12.7151
sci	-12.716
etic	-12.716
▁surrounding	-12.7165
▁brac	-12.7181
roach	-12.7182
bbed	-12.7184
▁stil	-12.7188
▁loos	-12.719
holders	-12.7192
llish	-12.7199
▁cl	-12.72
**	-12.7219
▁insist	-12.7226
▁via	-12.7228
called	-12.7231
wise	-12.7232
▁terrifie	-12.7235
▁promote	-12.7235
whelming	-12.7236
tension	-12.7238
foot	-12.724
conscious	-12.724
partner	-12.7241
class	-12.7241
husband	-12.7241
boyfriend	-12.7241
PP	-12.7241
sorry	-12.7242
▁elder	-12.7244
▁numb	-12.7246
forth	-12.7246
burg	-12.7246
▁slee	-12.7246
food	-12.7248
▁evaluat	-12.7248
ontrary	-12.7248
wood	-12.7248
itations	-12.7248
▁alternat	-12.7248
▁epi	-12.7248
harp	-12.7249
▁congratulat	-12.7249
▁combine	-12.7249
▁Scary	-12.7249
▁Valentine	-12.7249
▁behaviour	-12.7249
▁rebuild	-12.7249
Z	-12.7249
gency	-12.7249
scissors	-12.7249
uccin	-12.7249
▁Barcelona	-12.7249
▁Beautiful	-12.7249
▁DID	-12.7249
▁Death	-12.7249
▁Disgusting	-12.7249
▁Enter	-12.7249
▁Eric	-12.7249
▁Gamecube	-12.7249
▁KIDS	-12.7249
▁Lupus	-12.7249
▁Memphis	-12.7249
▁NHL	-12.7249
▁Nike	-12.7249
▁Patriots	-12.7249
▁Philippines	-12.7249
▁UberEats	-12.7249
▁algebra	-12.7249
▁apologise	-12.7249
▁associate	-12.7249
▁booze	-12.7249
▁chaos	-12.7249
▁chemo	-12.7249
▁churning	-12.7249
▁comfy	-12.7249
▁consult	-12.7249
▁coordinated	-12.7249
▁culprit	-12.7249
▁deployed	-12.7249
▁dolphins	-12.7249
▁doritos	-12.7249
▁entrepreneur	-12.7249
▁envelope	-12.7249
▁exhilarating	-12.7249
▁germs	-12.7249
▁hazard	-12.7249
▁hinder	-12.7249
▁hulu	-12.7249
▁introverted	-12.7249
▁launch	-12.7249
▁modern	-12.7249
▁offensive	-12.7249
▁opponent	-12.7249
▁overdue	-12.7249
▁perturb	-12.7249
▁piercing	-12.7249
▁plagiari	-12.7249
▁profusely	-12.7249
▁providing	-12.7249
▁rainstorm	-12.7249
▁ravage	-12.7249
▁reassure	-12.7249
▁rekindle	-12.7249
▁scribble	-12.7249
▁sequel	-12.7249
▁solitude	-12.7249
▁squat	-12.7249
▁stylish	-12.7249
▁suburbs	-12.7249
▁surviving	-12.7249
▁suspicious	-12.7249
▁tommorrow	-12.7249
▁twirling	-12.7249
▁unknowingly	-12.7249
▁unscathed	-12.7249
▁unsettl	-12.7249
▁victory	-12.7249
▁volu	-12.7249
▁widow	-12.7249
▁worrisome	-12.7249
▁Again	-12.7249
▁Pick	-12.7249
▁Wii	-12.7249
▁escalat	-12.7249
▁occurred	-12.7249
▁sailed	-12.7249
▁spree	-12.7249
▁stutter	-12.7249
▁$65	-12.7249
▁Fortnite	-12.7249
▁Scratch	-12.7249
▁cheerios	-12.7249
▁genre	-12.7249
▁offense	-12.7249
▁schol	-12.7249
▁stomp	-12.7249
▁twist	-12.7249
digestion	-12.7249
▁92!	-12.7249
▁scarred	-12.7249
▁bawl	-12.7249
▁neigh	-12.7249
▁Passions	-12.7249
▁irma	-12.7249
Oh	-12.7249
▁Besides	-12.7249
▁exceed	-12.7249
▁studio	-12.7249
▁referring	-12.7249
▁retro	-12.7249
▁Ramsey	-12.7249
▁comparison	-12.7249
▁judging	-12.7249
▁Freak	-12.7249
▁extent	-12.7249
▁ONE	-12.7249
▁yoyo	-12.7249
halant	-12.7249
▁cheeseburger	-12.7249
SH	-12.7249
▁oblig	-12.7249
▁repulsive	-12.7249
▁EVe	-12.7249
▁safari	-12.7249
▁combo	-12.7249
▁Duty	-12.7249
▁liber	-12.7249
▁chug	-12.7249
▁clea	-12.7249
▁fav	-12.7249
▁meanwhile	-12.7249
▁mystery	-12.7249
▁stunned	-12.7249
▁Maharlika	-12.7249
▁brick	-12.7249
▁yank	-12.7249
▁Lord	-12.7249
▁196	-12.7249
▁momentos	-12.7249
▁2014	-12.7249
▁disorder	-12.7249
▁weakness	-12.725
▁2004	-12.725
▁Ireland	-12.725
▁erect	-12.725
▁abduction	-12.725
▁competent	-12.725
▁Ohhhh	-12.725
trum	-12.725
▁textbook	-12.725
▁execut	-12.725
▁electricty	-12.725
▁Truth	-12.725
▁peck	-12.725
▁blog	-12.725
oscop	-12.725
▁HOA	-12.725
▁fright	-12.725
▁Help	-12.725
acle	-12.7251
▁trace	-12.7251
orried	-12.7251
▁Neat	-12.7251
uddy	-12.7251
▁~	-12.7251
▁artistic	-12.7251
▁Ewww	-12.7251
shingle	-12.7251
▁yup	-12.7252
▁TX	-12.7252
▁cries	-12.7252
empt	-12.7253
▁grieve	-12.7253
amic	-12.7253
▁Hang	-12.7253
▁fryer	-12.7253
▁stripper	-12.7253
▁alcoholic	-12.7253
▁chief	-12.7254
▁DR	-12.7255
ordan	-12.7256
▁STO	-12.7256
▁crawlies	-12.7256
▁technically	-12.7257
▁scarf	-12.7257
▁arrang	-12.7257
▁Gosh	-12.7257
etroi	-12.7257
▁tension	-12.7258
▁distraction	-12.7258
▁diver	-12.7258
▁blush	-12.7259
▁relieve	-12.7259
hand	-12.726
▁strive	-12.7261
cessa	-12.7261
▁chirp	-12.7261
▁completly	-12.7261
▁brighten	-12.7262
▁dumbest	-12.7263
▁wreckless	-12.7263
will	-12.7265
edged	-12.7266
▁legit	-12.7266
My	-12.7267
fold	-12.7269
▁CS	-12.727
▁sucker	-12.727
▁tab	-12.727
▁graders	-12.727
fay	-12.7271
▁Aug	-12.7271
hopping	-12.7272
▁Sooo	-12.7272
▁Goodness	-12.7273
▁flee	-12.7275
▁mull	-12.7276
▁dearly	-12.7278
▁bush	-12.7278
ssistant	-12.7278
▁themself	-12.7278
▁unus	-12.7279
▁cling	-12.728
liness	-12.7282
▁nonc	-12.7285
▁teri	-12.7286
▁signal	-12.729
▁humo	-12.7297
pay	-12.7301
nished	-12.7303
▁thunderstorming	-12.7306
UG	-12.7308
▁Test	-12.7314
▁shutters	-12.7317
▁scratcher	-12.7331
▁squirrels	-12.7332
▁disappeared	-12.7344
▁deci	-12.7344
▁juic	-12.7357
▁Whoop	-12.7358
▁vend	-12.7364
▁gag	-12.7378
▁loaded	-12.7381
ola	-12.7381
▁Ye	-12.7386
▁doom	-12.7389
▁developing	-12.7393
olice	-12.7395
▁col	-12.74
▁reacted	-12.741
erous	-12.7421
▁cooker	-12.7435
▁difficulty	-12.7464
▁Count	-12.7468
▁saver	-12.7555
rrent	-12.7567
uffle	-12.7575
▁lea	-12.7586
pol	-12.7599
umbling	-12.7618
new	-12.7634
lace	-12.765
firend	-12.7666
▁Late	-12.7669
oss	-12.7693
94	-12.7698
▁Ja	-12.7721
lso	-12.7726
omo	-12.7728
▁Char	-12.7729
VA	-12.7746
▁pal	-12.7762
Fi	-12.7807
iness	-12.7883
truck	-12.7904
▁Si	-12.7908
last	-12.792
▁Bon	-12.794
▁Pol	-12.7943
▁Ooo	-12.8026
cto	-12.8108
SE	-12.8128
eth	-12.8146
antly	-12.8212
▁Chan	-12.8219
▁Men	-12.8236
ecurity	-12.8249
tleast	-12.8252
▁electr	-12.8267
▁appli	-12.8302
▁terr	-12.8347
SAT	-12.8362
▁min	-12.8367
▁rapid	-12.8373
▁Mountain	-12.8373
▁critter	-12.8374
▁filter	-12.8374
ison	-12.8374
▁twentie	-12.8375
▁drum	-12.8378
▁finance	-12.8384
▁flower	-12.8385
erial	-12.8398
▁bough	-12.8414
hog	-12.8418
ickey	-12.8419
ccer	-12.842
ires	-12.842
▁Jo	-12.8422
▁pickle	-12.8426
racker	-12.8431
▁180	-12.8432
how	-12.8434
▁disconnect	-12.8441
▁embarass	-12.8443
▁puk	-12.8457
rach	-12.8459
force	-12.8465
▁Play	-12.847
▁disturb	-12.8471
▁click	-12.8471
▁snowboard	-12.8471
▁haunt	-12.8471
▁kidnap	-12.8471
▁unlock	-12.8472
heard	-12.8479
▁150	-12.8481
hearted	-12.8485
check	-12.8486
delity	-12.8488
▁expire	-12.8488
first	-12.8491
wanted	-12.8491
baby	-12.8491
How	-12.8492
includ	-12.8492
person	-12.8492
kind	-12.8492
hope	-12.8493
▁verbal	-12.8493
▁vivid	-12.8493
▁mak	-12.8493
▁typical	-12.8493
▁Final	-12.8494
▁stead	-12.8494
bbing	-12.8494
▁schoo	-12.8494
thank	-12.8494
▁woo	-12.8494
▁griev	-12.8495
big	-12.8497
uction	-12.8497
case	-12.8497
yet	-12.8498
▁calculat	-12.8498
lloween	-12.8498
▁threat	-12.8498
▁memorab	-12.8498
bjects	-12.8498
▁emot	-12.8498
appens	-12.8498
ollercoasters	-12.8498
▁persist	-12.8499
▁Employe	-12.8499
▁Space	-12.8499
▁excess	-12.8499
▁prospect	-12.8499
▁slob	-12.8499
NSTANT	-12.8499
OND	-12.8499
ological	-12.8499
quitos	-12.8499
stitute	-12.8499
▁AGAIN	-12.8499
▁Alzheimer	-12.8499
▁Bryant	-12.8499
▁Chick	-12.8499
▁Cozumel	-12.8499
▁Elvis	-12.8499
▁Evil	-12.8499
▁Fantastic	-12.8499
▁Focus	-12.8499
▁Hillbillies	-12.8499
▁Internet	-12.8499
▁Karate	-12.8499
▁Labrador	-12.8499
▁Lawyer	-12.8499
▁Lyft	-12.8499
▁MAybe	-12.8499
▁NICU	-12.8499
▁Perfect	-12.8499
▁Republicans	-12.8499
▁Safe	-12.8499
▁Senior	-12.8499
▁Slowly	-12.8499
▁Supercopa	-12.8499
▁Surprisingly	-12.8499
▁UGH	-12.8499
▁Vinci	-12.8499
▁Weekend	-12.8499
▁Weeknd	-12.8499
▁Women	-12.8499
▁^_^	-12.8499
▁accommodat	-12.8499
▁autograph	-12.8499
▁baptis	-12.8499
▁bobcat	-12.8499
▁brisket	-12.8499
▁century	-12.8499
▁cologne	-12.8499
▁compensation	-12.8499
▁cruising	-12.8499
▁deathnote	-12.8499
▁desert	-12.8499
▁easiest	-12.8499
▁elected	-12.8499
▁enabler	-12.8499
▁exposure	-12.8499
▁flustered	-12.8499
▁frankly	-12.8499
▁inconvenience	-12.8499
▁intolerant	-12.8499
▁intrigued	-12.8499
▁janitor	-12.8499
▁lucrative	-12.8499
▁miserably	-12.8499
▁mistaske	-12.8499
▁orchestra	-12.8499
▁overjoyed	-12.8499
▁profile	-12.8499
▁resolution	-12.8499
▁royal	-12.8499
▁sharted	-12.8499
▁shrink	-12.8499
▁skeptical	-12.8499
▁skydive	-12.8499
▁snapchat	-12.8499
▁stellar	-12.8499
▁strict	-12.8499
▁sunscreen	-12.8499
▁survival	-12.8499
▁tailgating	-12.8499
▁thief	-12.8499
▁thieves	-12.8499
▁thirteen	-12.8499
▁thrive	-12.8499
▁tortoise	-12.8499
▁tunnel	-12.8499
▁unbreakable	-12.8499
▁unicorn	-12.8499
▁urgent	-12.8499
▁venue	-12.8499
▁werewolf	-12.8499
savvy	-12.8499
▁Physics	-12.8499
▁Potter	-12.8499
▁accents	-12.8499
▁creation	-12.8499
▁druggie	-12.8499
▁ferri	-12.8499
▁inclin	-12.8499
▁jazz	-12.8499
▁length	-12.8499
▁plummet	-12.8499
▁unloading	-12.8499
giht	-12.8499
ordinary	-12.8499
▁Learn	-12.8499
▁Mistake	-12.8499
▁Series	-12.8499
▁brewing	-12.8499
▁convert	-12.8499
▁fume	-12.8499
▁isolating	-12.8499
▁ketosis	-12.8499
▁upbeat	-12.8499
▁hustle	-12.8499
tainable	-12.8499
▁wiht	-12.8499
akota	-12.8499
▁steer	-12.8499
onsistency	-12.8499
▁Basic	-12.8499
▁Forget	-12.8499
▁identif	-12.8499
▁Alright	-12.8499
▁suprem	-12.8499
?!?!?	-12.8499
▁blogging	-12.8499
▁necessities	-12.8499
▁sappy	-12.8499
▁hesitate	-12.8499
▁Sucks	-12.8499
▁compassion	-12.8499
▁Peru	-12.8499
▁crunch	-12.8499
▁pirate	-12.8499
equil	-12.8499
▁capture	-12.8499
▁intervene	-12.8499
▁Typical	-12.8499
▁principal	-12.8499
▁purple	-12.8499
▁bash	-12.8499
▁crib	-12.8499
▁induce	-12.8499
▁Beyon	-12.8499
clerk	-12.8499
▁disneyland	-12.8499
▁spoon	-12.8499
▁frown	-12.8499
▁Dinner	-12.8499
▁slur	-12.8499
▁comfortably	-12.8499
▁Metallica	-12.8499
▁Money	-12.8499
UM	-12.8499
▁resentful	-12.8499
lumber	-12.8499
▁sailor	-12.8499
▁assistance	-12.8499
▁Check	-12.85
▁bask	-12.85
▁clever	-12.85
▁exclusi	-12.85
▁Neurofeedback	-12.85
▁scoo	-12.85
▁rising	-12.85
▁poisonous	-12.85
▁Ahhh	-12.85
▁bloodwork	-12.85
▁ahhh	-12.85
▁wick	-12.85
▁rowdy	-12.85
▁jew	-12.85
▁oof	-12.85
▁Husk	-12.85
▁auth	-12.85
▁Veni	-12.85
▁moron	-12.85
▁inclusive	-12.85
▁bait	-12.8501
rona	-12.8501
▁beamed	-12.8501
▁discussion	-12.8501
▁intimate	-12.8501
▁ON	-12.8501
▁liar	-12.8501
▁76	-12.8501
homa	-12.8501
▁fend	-12.8501
▁ohhh	-12.8501
ignon	-12.8502
▁developers	-12.8502
▁plain	-12.8502
▁seperated	-12.8502
▁bald	-12.8502
▁2015	-12.8502
▁potter	-12.8502
timid	-12.8503
▁copper	-12.8503
▁March	-12.8503
▁Generally	-12.8503
▁vile	-12.8503
▁headset	-12.8503
▁91	-12.8503
bow	-12.8504
▁vividly	-12.8504
▁lining	-12.8505
▁clingy	-12.8505
▁Chef	-12.8505
▁wheat	-12.8505
▁laser	-12.8506
▁throwback	-12.8506
itary	-12.8506
▁nag	-12.8506
▁bold	-12.8506
▁Midw	-12.8506
odka	-12.8507
▁intentionally	-12.8507
▁Sonic	-12.8507
▁lil	-12.8508
▁Rainy	-12.8508
▁iron	-12.8509
▁collapsed	-12.851
▁scammer	-12.851
ffice	-12.8511
▁reel	-12.8512
▁=	-12.8512
▁Bil	-12.8512
▁downloaded	-12.8512
cery	-12.8513
▁PP	-12.8515
▁junker	-12.8515
▁Wor	-12.8516
▁robbery	-12.8516
▁greta	-12.8518
ES	-12.8518
▁250	-12.8519
ware	-12.8519
▁Typ	-12.8519
hero	-12.852
▁emu	-12.852
▁bind	-12.852
▁fatal	-12.8525
▁Dub	-12.8528
racket	-12.8528
▁Lovely	-12.853
▁Sox	-12.8531
▁Ski	-12.8531
▁shovel	-12.8531
▁matured	-12.8532
▁insisted	-12.8532
▁dresses	-12.8532
▁ple	-12.8534
▁sexual	-12.8534
bowl	-12.8536
▁smartest	-12.8536
▁pipe	-12.8537
visor	-12.8538
▁bestfriend	-12.854
mores	-12.8542
▁workload	-12.8542
▁charming	-12.8544
▁rabi	-12.8545
▁hateful	-12.8548
▁Rest	-12.855
▁sweater	-12.855
▁billion	-12.8553
▁tricky	-12.8554
▁Roman	-12.8556
▁tile	-12.856
▁Cast	-12.8565
INK	-12.8565
tchy	-12.857
jing	-12.8572
▁bab	-12.8574
▁afterall	-12.8575
▁patiently	-12.858
agl	-12.8583
▁coughing	-12.8587
▁gotcha	-12.8591
▁ened	-12.8591
▁pod	-12.8597
▁retain	-12.8605
▁sly	-12.8605
▁endless	-12.8613
▁Lan	-12.8618
▁exceptional	-12.8619
▁flipp	-12.8629
▁Whe	-12.8635
ura	-12.8642
▁Insur	-12.865
ummies	-12.8653
talin	-12.8655
▁grace	-12.8658
owels	-12.867
ovies	-12.8679
nducing	-12.8688
▁wir	-12.8695
smith	-12.8707
▁farmer	-12.871
▁apoc	-12.8713
▁explor	-12.8735
ssion	-12.8753
▁insecurit	-12.8754
▁navigati	-12.8759
▁hon	-12.8765
▁Harr	-12.8775
FA	-12.8784
01	-12.8797
minated	-12.8809
CA	-12.8836
▁refinish	-12.8837
hahah	-12.8842
eff	-12.8875
cho	-12.8882
rium	-12.8884
▁Degre	-12.8905
agged	-12.8981
▁Clo	-12.9031
▁z	-12.9057
zzy	-12.9074
▁dime	-12.9125
ooooo	-12.9126
▁batch	-12.9137
evoke	-12.9158
▁girlfir	-12.9178
rby	-12.9209
▁HER	-12.922
EEP	-12.9225
ister	-12.9248
▁postpone	-12.9259
night	-12.9267
UN	-12.9337
chipped	-12.9355
EC	-12.937
▁crum	-12.9379
nab	-12.9503
upp	-12.9521
hanger	-12.9526
▁rece	-12.9536
EW	-12.9545
▁4000	-12.9579
umped	-12.9581
▁Doub	-12.9618
▁CO	-12.9644
dating	-12.965
arine	-12.9664
▁puzzl	-12.9668
▁suc	-12.9669
partment	-12.9681
▁Tro	-12.9683
▁refer	-12.9689
▁spar	-12.9699
▁HE	-12.9716
▁elev	-12.9722
lassic	-12.975
▁Chil	-12.9763
▁Ahhhh	-12.979
▁exception	-12.9797
▁convention	-12.9801
▁champion	-12.9802
▁coupon	-12.9803
▁vibe	-12.9805
▁folk	-12.9806
▁Russian	-12.9807
nag	-12.9818
▁era	-12.9819
nto	-12.9824
▁squea	-12.9831
hal	-12.9835
▁kiddo	-12.9842
▁Crimin	-12.9856
nfuriating	-12.9874
AN	-12.9879
▁celebr	-12.9884
▁140	-12.9885
hts	-12.989
▁declin	-12.9895
acts	-12.9909
▁42	-12.9914
▁host	-12.9915
pathetic	-12.9919
club	-12.9919
together	-12.9919
grass	-12.9919
lost	-12.9919
Ski	-12.992
▁sneeze	-12.992
lery	-12.992
handle	-12.992
TV	-12.9921
fresh	-12.9921
▁strawberr	-12.9922
▁sketch	-12.9922
▁slid	-12.9922
tooth	-12.9922
▁parachut	-12.9923
▁unbelievabl	-12.9923
burger	-12.9923
:)	-12.9923
▁organize	-12.9924
▁lad	-12.9926
▁abduct	-12.9926
▁transit	-12.9926
▁appoin	-12.9926
ritis	-12.9926
eanwhile	-12.9927
econd	-12.9927
▁humid	-12.9927
ublic	-12.9927
▁occur	-12.9927
▁$60	-12.9927
▁Paramedic	-12.9927
▁Psycho	-12.9927
▁interpret	-12.9927
Advance	-12.9927
ICK	-12.9927
LEGO	-12.9927
yyyy	-12.9927
{	-12.9927
▁2013	-12.9927
▁;-)	-12.9927
▁ASAP	-12.9927
▁Angeles	-12.9927
▁Arizona	-12.9927
▁Barbados	-12.9927
▁Bleh	-12.9927
▁Buckeyes	-12.9927
▁Chargers	-12.9927
▁Conjuring	-12.9927
▁DUI	-12.9927
▁Democrats	-12.9927
▁Discover	-12.9927
▁Elementary	-12.9927
▁Financial	-12.9927
▁Frozen	-12.9927
▁Juliet	-12.9927
▁Krystals	-12.9927
▁Louis	-12.9927
▁MVP	-12.9927
▁Manhattan	-12.9927
▁Maxima	-12.9927
▁Nissan	-12.9927
▁POWER	-12.9927
▁Playstation	-12.9927
▁Prime	-12.9927
▁READ	-12.9927
▁Regist	-12.9927
▁Science	-12.9927
▁Shepherd	-12.9927
▁Subway	-12.9927
▁Tokyo	-12.9927
▁Uncle	-12.9927
▁Village	-12.9927
▁Virginia	-12.9927
▁abnormal	-12.9927
▁adventurous	-12.9927
▁advertise	-12.9927
▁alpha	-12.9927
▁baggage	-12.9927
▁bahamas	-12.9927
▁breezy	-12.9927
▁caffeine	-12.9927
▁cancellation	-12.9927
▁cardiologist	-12.9927
▁carpool	-12.9927
▁categories	-12.9927
▁charitable	-12.9927
▁charities	-12.9927
▁cheetos	-12.9927
▁collision	-12.9927
▁communicating	-12.9927
▁complications	-12.9927
▁conquer	-12.9927
▁conscience	-12.9927
▁courteous	-12.9927
▁criticize	-12.9927
▁currency	-12.9927
▁division	-12.9927
▁editing	-12.9927
▁embarrasing	-12.9927
▁encouraging	-12.9927
▁endeavor	-12.9927
▁estimate	-12.9927
▁exhausting	-12.9927
▁experiencing	-12.9927
▁extinguisher	-12.9927
▁feud	-12.9927
▁fossils	-12.9927
▁franchise	-12.9927
▁frustration	-12.9927
▁fuzzy	-12.9927
▁gratitude	-12.9927
▁graveyard	-12.9927
▁hacker	-12.9927
▁handicapped	-12.9927
▁improper	-12.9927
▁irritable	-12.9927
▁khakis	-12.9927
▁luxury	-12.9927
▁maximum	-12.9927
▁mediocre	-12.9927
▁moisturizer	-12.9927
▁nikes	-12.9927
▁nurturing	-12.9927
▁nutrient	-12.9927
▁parakeet	-12.9927
▁parasailing	-12.9927
▁powerlifter	-12.9927
▁predicament	-12.9927
▁reckless	-12.9927
▁repetitive	-12.9927
▁republican	-12.9927
▁retaliate	-12.9927
▁russell	-12.9927
▁rusty	-12.9927
▁seduc	-12.9927
▁separation	-12.9927
▁shorthanded	-12.9927
▁sobriety	-12.9927
▁spike	-12.9927
▁spontaneous	-12.9927
▁squad	-12.9927
▁squash	-12.9927
▁stroller	-12.9927
▁superstitious	-12.9927
▁surveys	-12.9927
▁suspension	-12.9927
▁tariff	-12.9927
▁toothpaste	-12.9927
▁traumatized	-12.9927
▁troubling	-12.9927
▁universal	-12.9927
▁unreliable	-12.9927
▁untrustworthy	-12.9927
▁urges	-12.9927
▁valentine	-12.9927
▁waterbug	-12.9927
▁wraking	-12.9927
▁xmas	-12.9927
ONG	-12.9927
buster	-12.9927
▁ADA	-12.9927
▁Hotel	-12.9927
▁Kingdom	-12.9927
▁Tyson	-12.9927
▁Water	-12.9927
▁accordingly	-12.9927
▁bundle	-12.9927
▁burp	-12.9927
▁demise	-12.9927
▁devour	-12.9927
▁district	-12.9927
▁harvest	-12.9927
▁healthcare	-12.9927
▁ingrate	-12.9927
▁resort	-12.9927
▁whatsoever	-12.9927
[	-12.9927
▁Glob	-12.9927
▁Team	-12.9927
▁appeal	-12.9927
▁continent	-12.9927
▁crippl	-12.9927
▁deaf	-12.9927
▁deteriorat	-12.9927
▁empower	-12.9927
▁fertil	-12.9927
▁ptsd	-12.9927
▁reptile	-12.9927
▁statuette	-12.9927
tactic	-12.9927
▁Drink	-12.9927
▁homeowner	-12.9927
▁Speech	-12.9927
▁waddl	-12.9927
▁AirBnB	-12.9927
▁amateur	-12.9927
▁immens	-12.9927
▁paralyz	-12.9927
▁retrace	-12.9927
▁stairwell	-12.9927
▁vows	-12.9927
▁Musk	-12.9927
▁croc	-12.9927
uerto	-12.9927
▁Pik	-12.9927
▁ultrasound	-12.9927
▁ICU	-12.9927
▁Sein	-12.9927
▁analyst	-12.9927
▁scooper	-12.9927
ccup	-12.9927
gruel	-12.9927
▁Clown	-12.9927
▁empathetic	-12.9927
▁muti	-12.9927
▁nauseated	-12.9927
▁fixture	-12.9927
▁salvage	-12.9927
▁Shot	-12.9927
▁fuss	-12.9927
▁scot	-12.9927
▁silver	-12.9927
▁verify	-12.9927
▁activist	-12.9927
▁expert	-12.9927
▁granny	-12.9927
▁shudder	-12.9927
▁ignorance	-12.9927
▁terrier	-12.9927
▁Turkey	-12.9928
▁discourse	-12.9928
▁orientation	-12.9928
▁adamant	-12.9928
▁discard	-12.9928
▁bender	-12.9928
▁Through	-12.9928
▁romance	-12.9928
▁rubbish	-12.9928
▁slash	-12.9928
▁prescription	-12.9928
▁fiction	-12.9928
▁destruct	-12.9928
▁surface	-12.9928
▁pupper	-12.9928
▁wildfire	-12.9928
Belgi	-12.9928
▁stabbed	-12.9928
▁heavi	-12.9928
▁customize	-12.9928
grudge	-12.9928
▁mattress	-12.9928
▁papa	-12.9928
etto	-12.9928
▁Highschool	-12.9928
▁appearance	-12.9928
▁rinse	-12.9928
▁invitation	-12.9928
rbor	-12.9928
eterans	-12.9928
▁NBA	-12.9928
NSA	-12.9928
▁sprint	-12.9928
▁Steam	-12.9928
egg	-12.9928
▁favorit	-12.9928
▁Kick	-12.9928
▁gagged	-12.9928
▁revisit	-12.9928
▁VP	-12.9928
▁handyman	-12.9928
▁suction	-12.9928
▁blueprint	-12.9928
▁gutter	-12.9928
▁Oooh	-12.9928
▁cooperati	-12.9928
▁spice	-12.9928
▁tailbon	-12.9929
yaki	-12.9929
▁EX	-12.9929
▁contrary	-12.9929
▁retiring	-12.9929
▁gpa	-12.9929
▁vendor	-12.9929
▁confirmation	-12.9929
▁NEW	-12.9929
▁scenery	-12.9929
▁entertainment	-12.9929
▁hoop	-12.9929
▁Circle	-12.9929
apolog	-12.9929
ightning	-12.9929
▁kha	-12.9929
▁boyfirend	-12.9929
▁acne	-12.9929
WO	-12.9929
▁touchdown	-12.9929
▁spark	-12.9929
▁vine	-12.9929
▁freelancer	-12.9929
▁insured	-12.9929
▁noticing	-12.9929
▁sunlight	-12.993
▁certificate	-12.993
▁visibl	-12.993
▁cupcake	-12.993
agna	-12.993
▁tide	-12.993
▁dwell	-12.993
▁Crystal	-12.993
▁MAN	-12.993
yard	-12.993
▁socializing	-12.993
▁June	-12.993
enetic	-12.9931
▁pond	-12.9931
▁scent	-12.9931
larinet	-12.9931
tuation	-12.9931
ritual	-12.9931
▁Darn	-12.9931
ntage	-12.9931
▁delet	-12.9931
ecko	-12.9931
▁bong	-12.9931
▁lul	-12.9931
▁Tank	-12.9931
▁repain	-12.9931
▁regardless	-12.9931
▁RU	-12.9931
▁passport	-12.9931
alaxy	-12.9932
▁warranty	-12.9932
▁Rugrats	-12.9932
▁Amus	-12.9932
▁lapse	-12.9933
▁mill	-12.9933
▁violin	-12.9933
▁Bug	-12.9933
▁mars	-12.9934
▁verbally	-12.9934
▁aff	-12.9934
▁sank	-12.9934
▁twinkie	-12.9934
▁requirement	-12.9935
▁Brady	-12.9935
▁Saving	-12.9936
▁secondary	-12.9936
▁whiskey	-12.9936
▁88	-12.9936
▁powerful	-12.9937
ruth	-12.9937
▁attraction	-12.9937
▁rebelli	-12.9938
▁beleive	-12.9938
▁crank	-12.9939
▁tenant	-12.9939
pical	-12.9939
▁festiv	-12.994
▁coca	-12.9941
▁sane	-12.9941
▁arth	-12.9942
▁satur	-12.9942
▁WHy	-12.9942
have	-12.9942
▁dropout	-12.9943
▁MN	-12.9943
▁dissapointed	-12.9943
▁incorrectly	-12.9945
▁Word	-12.9946
▁cock	-12.9946
▁39	-12.9946
▁nite	-12.9947
▁nic	-12.9948
▁cola	-12.9948
▁drooling	-12.9948
▁recycling	-12.9948
▁kisses	-12.9948
▁tilting	-12.9949
▁TO	-12.995
▁hurtful	-12.9953
▁doctorate	-12.9954
▁WS	-12.9954
▁101	-12.9954
▁moly	-12.9956
▁prisoner	-12.9956
camp	-12.9959
▁bost	-12.9963
wow	-12.9963
▁Fill	-12.9963
▁slav	-12.9964
▁overeat	-12.9965
▁holy	-12.9966
▁striv	-12.9972
▁receiver	-12.9973
▁playful	-12.9974
vitro	-12.9975
▁Lowe	-12.9976
LED	-12.9977
your	-12.9978
▁Won	-12.9979
▁graceful	-12.9987
inity	-12.999
▁hottie	-12.9995
▁98	-12.9998
▁luc	-12.9999
erday	-13.0001
▁poun	-13.0002
apping	-13.0003
▁$30	-13.0004
Are	-13.0012
90	-13.0013
▁server	-13.0022
▁bedtime	-13.0031
▁panick	-13.0038
▁tender	-13.0055
hhhhh	-13.0068
oic	-13.0068
▁Holl	-13.0071
abbed	-13.0071
▁attach	-13.0076
▁suite	-13.0094
▁197	-13.0103
▁cott	-13.0103
NCOU	-13.0114
▁betrayer	-13.0129
▁enti	-13.0135
▁Cost	-13.0157
HB	-13.0162
UU	-13.0186
tanding	-13.0196
odor	-13.0198
tract	-13.0203
▁lender	-13.0205
▁Pai	-13.0207
▁lac	-13.021
chool	-13.0248
60	-13.0257
vac	-13.027
cky	-13.0286
▁examine	-13.0286
cute	-13.0293
hund	-13.0323
▁rail	-13.0328
CNA	-13.034
ause	-13.0345
▁Medi	-13.0433
pour	-13.0464
▁vita	-13.0485
oggy	-13.0491
▁bog	-13.0529
uise	-13.0532
▁fri	-13.0534
peare	-13.0536
▁ji	-13.0543
▁barbe	-13.0555
▁SE	-13.0557
Mommy	-13.0576
▁Canno	-13.0603
▁moo	-13.0642
Fight	-13.0669
▁shit	-13.0688
▁Dar	-13.0724
itz	-13.0732
pg	-13.0753
▁hav	-13.0789
words	-13.0792
rushing	-13.0859
▁cast	-13.0895
lock	-13.09
fel	-13.0915
▁Self	-13.0935
zel	-13.0948
eresa	-13.0975
▁sil	-13.1033
▁porta	-13.1072
▁budg	-13.1096
▁relaxe	-13.1152
▁Cop	-13.1159
▁AN	-13.1184
▁gradu	-13.1208
pine	-13.1233
known	-13.1258
cian	-13.1268
ountry	-13.1268
wilder	-13.1271
▁memo	-13.1272
gical	-13.1276
▁battl	-13.1277
▁sparr	-13.1284
▁SHO	-13.1298
▁resc	-13.13
NA	-13.1308
ider	-13.1324
▁hardwork	-13.1334
rcade	-13.1339
▁bor	-13.134
Greg	-13.1341
liens	-13.1345
▁Macb	-13.1346
urance	-13.1387
▁Hahahaha	-13.1427
▁UN	-13.1439
hool	-13.1456
▁55	-13.1464
▁squirrel	-13.1467
▁representative	-13.1468
▁napkin	-13.1469
▁worm	-13.147
▁supplement	-13.1471
▁gunshot	-13.1471
▁nacho	-13.1471
▁command	-13.1471
▁brake	-13.1472
▁balloon	-13.1474
▁stair	-13.1476
pac	-13.148
▁odo	-13.1481
▁whip	-13.1492
ficial	-13.1497
▁sigh	-13.1498
skis	-13.1509
▁tonigh	-13.1509
▁righ	-13.151
bearing	-13.1525
▁roa	-13.153
tropic	-13.1533
▁restar	-13.1536
▁drown	-13.1538
nclud	-13.154
▁syste	-13.1545
lter	-13.1548
ushing	-13.1549
uality	-13.155
▁Samo	-13.1555
▁participat	-13.1559
houl	-13.156
▁publish	-13.1562
And	-13.1565
▁overflow	-13.1565
▁astonish	-13.1566
▁unplug	-13.1567
somedays	-13.1569
▁poisi	-13.157
▁Giv	-13.1573
▁intend	-13.1575
▁sentiment	-13.1575
lati	-13.1576
▁littl	-13.1576
away	-13.1577
▁collapse	-13.1579
▁chir	-13.1579
▁psyche	-13.1579
▁remov	-13.1579
▁aggravate	-13.158
▁determine	-13.158
nounce	-13.158
▁consume	-13.1581
▁pepp	-13.1582
spit	-13.1584
lift	-13.1585
model	-13.1585
sneeze	-13.1585
father	-13.1586
housing	-13.1586
hammer	-13.1586
flirting	-13.1586
esteem	-13.1586
dryer	-13.1586
claim	-13.1586
steaks	-13.1586
theater	-13.1586
smoking	-13.1586
September	-13.1586
complete	-13.1586
picking	-13.1586
successful	-13.1586
control	-13.1586
haunted	-13.1586
number	-13.1586
family	-13.1586
quite	-13.1586
yeah	-13.1586
buy	-13.1586
again	-13.1586
mouth	-13.1586
from	-13.1586
▁strang	-13.1586
vacation	-13.1586
course	-13.1587
checkout	-13.1587
45	-13.1587
name	-13.1587
Some	-13.1588
But	-13.1588
▁General	-13.1589
▁warrant	-13.1589
▁ultimate	-13.1589
▁immediate	-13.1589
▁enem	-13.1589
▁pregnanc	-13.1589
▁instant	-13.1589
▁chillin	-13.1589
pression	-13.159
▁concentrat	-13.159
▁balanc	-13.159
ounce	-13.1591
Did	-13.1591
hter	-13.1591
▁eeri	-13.1591
▁batter	-13.1592
▁freelance	-13.1592
▁profession	-13.1592
CAR	-13.1592
mpany	-13.1592
▁academ	-13.1593
pron	-13.1593
▁surpri	-13.1593
eurofeedback	-13.1593
▁condens	-13.1593
▁footbal	-13.1593
▁avail	-13.1593
▁schedu	-13.1593
▁inventi	-13.1593
▁appreci	-13.1593
hampionship	-13.1593
▁bac	-13.1593
urface	-13.1593
▁narcissist	-13.1594
paghetti	-13.1594
▁Greyhou	-13.1594
mergency	-13.1594
armin	-13.1594
inded	-13.1594
rincipal	-13.1594
perating	-13.1594
▁Turk	-13.1594
rizon	-13.1594
▁enthusias	-13.1594
jamas	-13.1594
fortable	-13.1594
ghbors	-13.1594
ndonesia	-13.1594
▁Physi	-13.1594
▁accord	-13.1594
▁pragmat	-13.1594
▁worship	-13.1594
9/10	-13.1594
<	-13.1594
amborghini	-13.1594
dderall	-13.1594
lizzard	-13.1594
mboli	-13.1594
orcist	-13.1594
primand	-13.1594
racie	-13.1594
readmill	-13.1594
unpredictability	-13.1594
ydroplan	-13.1594
▁$7,000!!!	-13.1594
▁2011	-13.1594
▁AWFUL	-13.1594
▁Alabama	-13.1594
▁Arkansa	-13.1594
▁Branson	-13.1594
▁Chip	-13.1594
▁Congradulations	-13.1594
▁Counsel	-13.1594
▁Crash	-13.1594
▁Creepy	-13.1594
▁Cuban	-13.1594
▁Currently	-13.1594
▁Dementia	-13.1594
▁Denver	-13.1594
▁EDM	-13.1594
▁Emerald	-13.1594
▁FaceBook	-13.1594
▁Fool	-13.1594
▁GDP	-13.1594
▁Headstart	-13.1594
▁Hearthstone	-13.1594
▁Husband	-13.1594
▁Irwin	-13.1594
▁Jamaica	-13.1594
▁Jeez	-13.1594
▁MAKE	-13.1594
▁Military	-13.1594
▁Mturking	-13.1594
▁NASCAR	-13.1594
▁Nevada	-13.1594
▁Orleans	-13.1594
▁PTO	-13.1594
▁PhD	-13.1594
▁Ponyo	-13.1594
▁Practic	-13.1594
▁Ronald	-13.1594
▁Ruxpin	-13.1594
▁SIG	-13.1594
▁SURE	-13.1594
▁Sandstorm	-13.1594
▁Screaming	-13.1594
▁Shipt	-13.1594
▁Street	-13.1594
▁Sturgis	-13.1594
▁Supreme	-13.1594
▁TIME	-13.1594
▁Taurus	-13.1594
▁Teacher	-13.1594
▁VCR	-13.1594
▁Vader	-13.1594
▁Venus	-13.1594
▁Welcome	-13.1594
▁aardvark	-13.1594
▁abrupt	-13.1594
▁accessory	-13.1594
▁accompany	-13.1594
▁ancestors	-13.1594
▁armidillo	-13.1594
▁avocado	-13.1594
▁bankruptcy	-13.1594
▁baptized	-13.1594
▁bbq	-13.1594
▁beneficial	-13.1594
▁billionaire	-13.1594
▁broadcast	-13.1594
▁bronchitis	-13.1594
▁cadillac	-13.1594
▁capacit	-13.1594
▁cartwheel	-13.1594
▁censor	-13.1594
▁cheerleader	-13.1594
▁childbirth	-13.1594
▁cirr	-13.1594
▁combination	-13.1594
▁commendable	-13.1594
▁comprehend	-13.1594
▁confidant	-13.1594
▁confusing	-13.1594
▁contagious	-13.1594
▁convict	-13.1594
▁convincing	-13.1594
▁corpse	-13.1594
▁cosmetic	-13.1594
▁cowoker	-13.1594
▁cremation	-13.1594
▁cuisine	-13.1594
▁cushions	-13.1594
▁daugther	-13.1594
▁dazzled	-13.1594
▁defenitly	-13.1594
▁defensive	-13.1594
▁deficit	-13.1594
▁destress	-13.1594
▁devastation	-13.1594
▁devistated	-13.1594
▁disappointment	-13.1594
▁discontinued	-13.1594
▁editor	-13.1594
▁enlighten	-13.1594
▁essay	-13.1594
▁exaggerate	-13.1594
▁excruciating	-13.1594
▁faeces	-13.1594
▁fainted	-13.1594
▁fatigue	-13.1594
▁fickle	-13.1594
▁fingernail	-13.1594
▁fiscal	-13.1594
▁fluently	-13.1594
▁glitch	-13.1594
▁godmother	-13.1594
▁goosebumps	-13.1594
▁gordita	-13.1594
▁groundbreaking	-13.1594
▁invasion	-13.1594
▁invisible	-13.1594
▁jewelry	-13.1594
▁kangaroo	-13.1594
▁kernels	-13.1594
▁latter	-13.1594
▁lightweight	-13.1594
▁lonley	-13.1594
▁luxuries	-13.1594
▁magnitude	-13.1594
▁magnum	-13.1594
▁malpractice	-13.1594
▁manufactur	-13.1594
▁margarita	-13.1594
▁marshmallows	-13.1594
▁milkshake	-13.1594
▁minimalist	-13.1594
▁misfortune	-13.1594
▁morbid	-13.1594
▁mouthwash	-13.1594
▁negotiate	-13.1594
▁obituary	-13.1594
▁occassion	-13.1594
▁orlando	-13.1594
▁overbred	-13.1594
▁pedestrian	-13.1594
▁pedophile	-13.1594
▁perishable	-13.1594
▁pharmacist	-13.1594
▁phrase	-13.1594
▁physique	-13.1594
▁pianist	-13.1594
▁podcast	-13.1594
▁powerlifting	-13.1594
▁psychopath	-13.1594
▁reallllyy	-13.1594
▁refrain	-13.1594
▁remarried	-13.1594
▁resemble	-13.1594
▁respectively	-13.1594
▁responsibly	-13.1594
▁restuarant	-13.1594
▁reversing	-13.1594
▁revolted	-13.1594
▁rickety	-13.1594
▁roster	-13.1594
▁rsvp	-13.1594
▁russia	-13.1594
▁sample	-13.1594
▁sassy	-13.1594
▁satisfactory	-13.1594
▁shampoo	-13.1594
▁shellfish	-13.1594
▁snazzy	-13.1594
▁sophmore	-13.1594
▁sprout	-13.1594
▁squish	-13.1594
▁starfish	-13.1594
▁statewide	-13.1594
▁stigma	-13.1594
▁strategy	-13.1594
▁subordinate	-13.1594
▁sunrise	-13.1594
▁surgeon	-13.1594
▁sylvest	-13.1594
▁tamagatchi	-13.1594
▁tundra	-13.1594
▁tuxedo	-13.1594
▁twig	-13.1594
▁uhhh	-13.1594
▁unannounced	-13.1594
▁underestimat	-13.1594
▁uneventful	-13.1594
▁unfortunatley	-13.1594
▁unlucky	-13.1594
▁unnerved	-13.1594
▁uproot	-13.1594
▁vaccuum	-13.1594
▁vindic	-13.1594
▁vocal	-13.1594
▁wobbly	-13.1594
▁£2	-13.1594
_	-13.1594
udder	-13.1594
wolves	-13.1594
▁Physical	-13.1594
▁Vietnam	-13.1594
▁accelerat	-13.1594
▁buckle	-13.1594
▁chowder	-13.1594
▁practis	-13.1594
▁premier	-13.1594
▁casual	-13.1594
▁embrac	-13.1594
▁examination	-13.1594
▁jocks	-13.1594
▁knots	-13.1594
▁otters	-13.1594
▁razor	-13.1594
▁thigns	-13.1594
▁Corey	-13.1594
▁context	-13.1594
▁responsabil	-13.1594
dinate	-13.1594
▁Giant	-13.1594
▁greatgrand	-13.1594
▁syr	-13.1594
▁Tele	-13.1594
▁Welp	-13.1594
▁trumpet	-13.1594
ropolis	-13.1594
▁Grandfather	-13.1594
▁android	-13.1594
▁whistl	-13.1594
▁Omar	-13.1594
▁crust	-13.1594
dermat	-13.1594
▁Afterwards	-13.1594
punctu	-13.1594
▁barbeque	-13.1594
▁awsome	-13.1594
▁unreal	-13.1594
▁locate	-13.1594
▁Order	-13.1594
▁Scotland	-13.1594
▁resonate	-13.1594
amilton	-13.1594
▁wuss	-13.1594
wizard	-13.1594
▁Channel	-13.1594
▁edible	-13.1594
▁forehead	-13.1594
▁handstand	-13.1594
▁occurring	-13.1594
▁Pass	-13.1594
▁yakk	-13.1594
tefan	-13.1594
▁$50.00	-13.1594
▁detective	-13.1594
▁Disneyworld	-13.1594
PLE	-13.1594
▁fashionable	-13.1594
riggin	-13.1594
▁Weird	-13.1594
▁wealth	-13.1594
▁Prince	-13.1594
▁XB	-13.1594
▁HOT	-13.1594
▁jones	-13.1594
▁convo	-13.1594
▁undone	-13.1594
▁memento	-13.1594
▁odour	-13.1594
FAC	-13.1594
▁PBS	-13.1594
obey	-13.1594
▁Kmart	-13.1594
UTE	-13.1595
▁Bigfoot	-13.1595
▁Stress	-13.1595
▁encl	-13.1595
▁celebrity	-13.1595
mphi	-13.1595
▁Galaxy	-13.1595
▁interim	-13.1595
iently	-13.1595
▁silence	-13.1595
▁Maine	-13.1595
▁grrrrr	-13.1595
▁selfishness	-13.1595
▁Trade	-13.1595
▁grasp	-13.1595
iative	-13.1595
▁COD	-13.1595
▁corvette	-13.1595
▁Penn	-13.1595
▁bux	-13.1595
▁backseat	-13.1595
▁Johnson	-13.1595
▁realtor	-13.1595
▁DOA	-13.1595
▁kitties	-13.1595
▁suv	-13.1595
▁nickel	-13.1595
▁2009	-13.1595
▁muddy	-13.1595
▁Kris	-13.1595
▁2005	-13.1595
▁Bugatti	-13.1595
▁effective	-13.1595
▁condensor	-13.1595
▁stitches	-13.1595
▁plead	-13.1595
▁woohooo	-13.1595
▁Petey	-13.1595
▁looooo	-13.1595
▁infest	-13.1595
▁Understandable	-13.1595
▁pug	-13.1595
▁Rob	-13.1595
▁citations	-13.1595
▁Williams	-13.1595
▁choir	-13.1595
▁Reno	-13.1595
AMA	-13.1595
▁reread	-13.1595
urple	-13.1595
▁reduce	-13.1595
▁collid	-13.1595
▁wireless	-13.1595
▁Harv	-13.1595
▁organs	-13.1596
▁flop	-13.1596
▁phil	-13.1596
▁Lead	-13.1596
xie	-13.1596
▁GRE	-13.1596
▁knw	-13.1596
chute	-13.1596
▁compose	-13.1596
▁paris	-13.1596
▁tele	-13.1596
▁tiger	-13.1596
▁bitten	-13.1596
▁corporate	-13.1596
▁triplets	-13.1596
▁dummy	-13.1596
▁bravery	-13.1597
▁Stressful	-13.1597
▁unconditionally	-13.1597
▁approachable	-13.1597
▁Rica	-13.1597
▁lug	-13.1597
▁stung	-13.1597
▁SCAR	-13.1597
▁batman	-13.1597
▁popularity	-13.1597
▁snout	-13.1597
▁audio	-13.1597
▁Whew	-13.1597
▁tofu	-13.1597
▁sunroom	-13.1597
▁Airb	-13.1597
▁vomitted	-13.1597
▁furthe	-13.1597
▁lunchbox	-13.1597
▁publisher	-13.1597
▁pouch	-13.1597
▁EU	-13.1598
few	-13.1598
▁2001	-13.1598
omat	-13.1598
▁dna	-13.1598
▁Show	-13.1598
▁eerie	-13.1598
▁navy	-13.1598
▁tremendously	-13.1599
utation	-13.1599
▁unwar	-13.1599
▁thro	-13.1599
inkle	-13.1599
▁grammar	-13.1599
▁clueless	-13.16
▁hangover	-13.16
▁jell	-13.16
bound	-13.16
▁instrumental	-13.16
▁Trimm	-13.16
idated	-13.1601
▁PB	-13.1601
▁wholesome	-13.1601
afari	-13.1601
▁HD	-13.1601
▁runner	-13.1601
▁moen	-13.1602
▁Rally	-13.1602
▁Pha	-13.1602
▁Anarchy	-13.1602
▁data	-13.1603
▁everywere	-13.1603
▁sap	-13.1603
▁witch	-13.1603
▁cartil	-13.1603
▁certi	-13.1603
cesful	-13.1603
▁obey	-13.1604
enewed	-13.1604
▁stro	-13.1604
▁adam	-13.1605
▁fess	-13.1606
▁Amen	-13.1606
▁dau	-13.1607
uant	-13.1607
▁50$	-13.1607
inshed	-13.1608
▁Hold	-13.1608
quen	-13.1608
▁cig	-13.1608
▁5%	-13.1609
fast	-13.161
onous	-13.1612
▁undi	-13.1613
▁grain	-13.1614
▁politely	-13.1615
▁remotely	-13.1615
stol	-13.1615
ntroduction	-13.1616
▁Naw	-13.1617
▁legally	-13.1618
▁coma	-13.1618
▁Force	-13.1619
open	-13.1621
▁wheeler	-13.1622
▁mace	-13.1625
▁stump	-13.1625
gery	-13.1627
▁Taste	-13.1628
tiful	-13.1628
onella	-13.1634
COM	-13.1634
▁shiver	-13.1649
▁revis	-13.1656
▁envi	-13.1657
▁trop	-13.1659
sessed	-13.1659
urda	-13.1664
▁hunter	-13.1673
▁glanc	-13.1676
▁siz	-13.168
nester	-13.1694
▁bio	-13.17
vir	-13.1703
▁hopful	-13.1704
enagers	-13.1711
▁Relie	-13.172
▁automat	-13.1723
▁squeak	-13.1735
▁sledg	-13.1744
nuous	-13.1752
tribu	-13.1755
▁intern	-13.1756
ecut	-13.1767
ville	-13.1767
aware	-13.177
▁flake	-13.1771
▁sneaker	-13.1773
erra	-13.1776
▁clubbin	-13.1791
▁slammin	-13.1796
▁sweetene	-13.1797
▁Woohooo	-13.1817
parti	-13.1834
▁admin	-13.1836
▁alwa	-13.1844
▁wel	-13.1847
▁grate	-13.1849
reflect	-13.1851
hahaha	-13.1873
TA	-13.1881
bee	-13.1894
▁succ	-13.1905
▁porc	-13.1923
fil	-13.1926
▁burr	-13.195
▁Ken	-13.1951
▁repu	-13.1958
Act	-13.1974
olic	-13.2014
▁Thor	-13.2018
▁hahahaha	-13.2058
ystic	-13.208
▁expectant	-13.2088
rnight	-13.2118
▁Cheat	-13.2133
▁furb	-13.2136
▁mischie	-13.2138
200+	-13.2187
▁Cirq	-13.2199
AP	-13.2204
anny	-13.2229
ANT	-13.2239
uge	-13.2289
KE	-13.2299
HOU	-13.2327
frost	-13.2374
▁Miss	-13.2387
rough	-13.2388
▁fumble	-13.2427
indulging	-13.2445
▁Ric	-13.2501
oommate	-13.2573
kype	-13.2583
▁merg	-13.2587
▁anniversa	-13.2601
eason	-13.2602
sword	-13.2643
Bro	-13.2686
oca	-13.2744
peron	-13.2749
▁CAN	-13.2753
▁refine	-13.2791
sef	-13.2799
▁hospitalize	-13.2858
horr	-13.2886
chief	-13.2959
heating	-13.3015
oaches	-13.3019
full	-13.3035
229	-13.3039
ntries	-13.3053
▁tourist	-13.3107
▁Wai	-13.3115
ko	-13.3129
▁expan	-13.3148
onz	-13.3156
napping	-13.3165
lept	-13.3168
▁HO	-13.3183
hign	-13.3185
inning	-13.319
▁fli	-13.3204
ESS	-13.3281
▁prim	-13.3284
gara	-13.33
▁sham	-13.3302
150	-13.3318
zar	-13.3342
living	-13.3349
pplied	-13.3349
▁jui	-13.3351
ppreciate	-13.3353
0.00	-13.3354
ipping	-13.3359
ERE	-13.3402
▁shou	-13.3414
entative	-13.3426
▁nev	-13.3432
▁Gee	-13.3433
inner	-13.3437
shadows	-13.3463
AV	-13.3465
▁Hawai	-13.3467
▁warrior	-13.3468
▁instance	-13.3468
▁element	-13.3468
▁seagull	-13.347
▁Olympic	-13.347
▁underdog	-13.347
70	-13.347
▁59	-13.3471
▁Yankee	-13.3472
▁shutter	-13.3473
▁headphone	-13.3473
▁throne	-13.3473
istan	-13.3477
uire	-13.348
ology	-13.3491
spiring	-13.35
▁Nigh	-13.3506
▁violen	-13.3507
▁conten	-13.3521
covered	-13.3528
▁supris	-13.3534
rtation	-13.354
gnored	-13.3542
solated	-13.3543
▁divorc	-13.3557
hased	-13.3559
▁drool	-13.3564
▁recycl	-13.3564
▁select	-13.3565
▁shriek	-13.3565
▁reject	-13.3566
▁strand	-13.3566
▁heartbreak	-13.3566
vided	-13.3574
▁confuse	-13.358
▁dedicate	-13.358
▁frightene	-13.358
▁worl	-13.358
▁afrai	-13.358
▁injure	-13.358
good	-13.3581
ughes	-13.3582
winkies	-13.3584
slide	-13.3584
BA	-13.3584
paper	-13.3585
narchy	-13.3585
blam	-13.3585
turned	-13.3585
wheeler	-13.3585
violin	-13.3585
respect	-13.3586
diving	-13.3586
▁smel	-13.3586
author	-13.3586
millionaire	-13.3586
approval	-13.3586
cockroaches	-13.3586
fraud	-13.3586
kids	-13.3586
muscle	-13.3586
painted	-13.3586
Walk	-13.3586
belief	-13.3586
hunting	-13.3586
screwed	-13.3586
tennis	-13.3586
possum	-13.3586
Everyone	-13.3586
Thank	-13.3586
World	-13.3586
adult	-13.3586
bomb	-13.3586
distance	-13.3586
unexpected	-13.3586
grandmother	-13.3586
health	-13.3586
listening	-13.3586
after	-13.3586
feel	-13.3586
drop	-13.3586
why	-13.3586
shift	-13.3586
sometimes	-13.3586
High	-13.3586
feet	-13.3586
pants	-13.3586
election	-13.3586
cough	-13.3586
judge	-13.3587
loyalty	-13.3587
code	-13.3587
lining	-13.3587
hiking	-13.3587
roker	-13.3587
14	-13.3587
maging	-13.3587
clock	-13.3588
▁plug	-13.3588
today	-13.3588
▁huma	-13.3588
▁tremendous	-13.3588
finiti	-13.3589
bank	-13.3589
▁grocer	-13.3589
attached	-13.3589
▁autonom	-13.3589
▁hubb	-13.3589
▁laundr	-13.3589
▁especiall	-13.3589
▁frida	-13.3589
▁reconnecti	-13.3589
▁activ	-13.3589
▁coffe	-13.359
jar	-13.359
existent	-13.359
▁syndrom	-13.359
One	-13.359
spend	-13.359
▁nav	-13.359
tenant	-13.359
▁Toda	-13.359
tressful	-13.3591
tire	-13.3591
Man	-13.3591
▁abl	-13.3591
▁disgu	-13.3592
▁Conn	-13.3592
▁blond	-13.3592
▁woohoo	-13.3593
▁stitch	-13.3593
ugatti	-13.3593
▁accomplis	-13.3593
iabetes	-13.3593
ifferent	-13.3593
OOOO	-13.3593
▁writt	-13.3593
orvette	-13.3593
ollecting	-13.3593
onfidence	-13.3593
▁compassi	-13.3593
icycle	-13.3593
▁hikin	-13.3593
▁takin	-13.3593
moothie	-13.3594
impler	-13.3594
▁millio	-13.3594
ildfire	-13.3594
xpectations	-13.3594
▁organis	-13.3594
eneration	-13.3594
▁Prin	-13.3594
▁girlfrie	-13.3594
atience	-13.3594
useum	-13.3594
fries	-13.3594
omputer	-13.3594
▁datin	-13.3594
icles	-13.3594
▁repuls	-13.3594
▁compla	-13.3594
▁incompet	-13.3594
hooting	-13.3594
▁possess	-13.3594
moted	-13.3594
Exce	-13.3594
▁pub	-13.3594
egetable	-13.3594
culus	-13.3594
▁Rams	-13.3594
brellas	-13.3594
pitals	-13.3594
renovat	-13.3594
▁hyperthyroid	-13.3594
ija	-13.3594
▁Bitter	-13.3594
▁Chris	-13.3594
athematics	-13.3594
bilites	-13.3594
cryptocurrencies	-13.3594
denuclearization	-13.3594
descri	-13.3594
hevrolet	-13.3594
ologist	-13.3594
popula	-13.3594
tstep	-13.3594
▁Arnold	-13.3594
▁Bipolar	-13.3594
▁Chlorella	-13.3594
▁Colts	-13.3594
▁Commodore	-13.3594
▁Depends	-13.3594
▁Hooray	-13.3594
▁Kansas	-13.3594
▁LLWS	-13.3594
▁Lamb	-13.3594
▁Landlord	-13.3594
▁Lucas	-13.3594
▁Mcg	-13.3594
▁Menace	-13.3594
▁Nickelodeon	-13.3594
▁Phil	-13.3594
▁Raptor	-13.3594
▁Sargent	-13.3594
▁Sibling	-13.3594
▁Steelers	-13.3594
▁TWICE	-13.3594
▁Technology	-13.3594
▁Tornado	-13.3594
▁WIFE	-13.3594
▁admirable	-13.3594
▁allotment	-13.3594
▁alseep	-13.3594
▁alumni	-13.3594
▁assembly	-13.3594
▁atheletes	-13.3594
▁atmosphere	-13.3594
▁bambi	-13.3594
▁bizarre	-13.3594
▁blouse	-13.3594
▁bombshell	-13.3594
▁caretaker	-13.3594
▁catastrophe	-13.3594
▁chipotle	-13.3594
▁compensate	-13.3594
▁condescending	-13.3594
▁consequen	-13.3594
▁critical	-13.3594
▁curiosity	-13.3594
▁detached	-13.3594
▁disfigured	-13.3594
▁displeased	-13.3594
▁disrupt	-13.3594
▁drills	-13.3594
▁edition	-13.3594
▁electronics	-13.3594
▁embassy	-13.3594
▁enhancement	-13.3594
▁euphori	-13.3594
▁faze	-13.3594
▁flabbergasted	-13.3594
▁frusterated	-13.3594
▁german	-13.3594
▁giggle	-13.3594
▁glacier	-13.3594
▁gnats	-13.3594
▁grief	-13.3594
▁heartbeat	-13.3594
▁hoodlums	-13.3594
▁incapable	-13.3594
▁interfere	-13.3594
▁intoxicated	-13.3594
▁knowledgable	-13.3594
▁lacrosse	-13.3594
▁lenienc	-13.3594
▁martin	-13.3594
▁mesmerized	-13.3594
▁moderation	-13.3594
▁mohawk	-13.3594
▁motnh	-13.3594
▁neighboor	-13.3594
▁nfl	-13.3594
▁nonetheless	-13.3594
▁notecards	-13.3594
▁occurrence	-13.3594
▁pantyhose	-13.3594
▁peachy	-13.3594
▁pendant	-13.3594
▁prescribe	-13.3594
▁probation	-13.3594
▁propell	-13.3594
▁quater	-13.3594
▁recharge	-13.3594
▁resilience	-13.3594
▁resilient	-13.3594
▁restoration	-13.3594
▁scorpion	-13.3594
▁screensavers	-13.3594
▁scumbag	-13.3594
▁seasick	-13.3594
▁sku	-13.3594
▁snatch	-13.3594
▁sorrowful	-13.3594
▁species	-13.3594
▁stool	-13.3594
▁suspense	-13.3594
▁sweatshop	-13.3594
▁teapot	-13.3594
▁therapeutic	-13.3594
▁thrice	-13.3594
▁trampled	-13.3594
▁tranquil	-13.3594
▁tweet	-13.3594
▁tyke	-13.3594
▁unease	-13.3594
▁unthoughtful	-13.3594
▁unwashed	-13.3594
▁unwelcome	-13.3594
▁vanilla	-13.3594
▁yourselves	-13.3594
000000	-13.3594
▁AMAZING	-13.3594
▁Mcgregor	-13.3594
▁Michigan	-13.3594
▁blabb	-13.3594
▁boob	-13.3594
▁glutton	-13.3594
▁indicate	-13.3594
▁initiative	-13.3594
▁pamper	-13.3594
▁visual	-13.3594
hini	-13.3594
loathing	-13.3594
matizing	-13.3594
minals	-13.3594
▁Ghost	-13.3594
▁abode	-13.3594
▁meditate	-13.3594
▁mourn	-13.3594
▁unforget	-13.3594
ghborhood	-13.3594
umpte	-13.3594
▁Eek	-13.3594
▁Profess	-13.3594
▁absence	-13.3594
climat	-13.3594
splas	-13.3594
▁colledge	-13.3594
▁hypo	-13.3594
werp	-13.3594
▁Jacksonville	-13.3594
▁Open	-13.3594
▁reigns	-13.3594
nterior	-13.3594
NAL	-13.3594
leston	-13.3594
▁fleamarket	-13.3594
stakes	-13.3594
▁Beaut	-13.3594
▁Jenn	-13.3594
▁honda	-13.3594
▁comedian	-13.3594
▁portable	-13.3594
▁Sheesh	-13.3594
scription	-13.3594
▁method	-13.3594
▁sandals	-13.3594
▁unbeli	-13.3594
~	-13.9419
}	-13.9427
Q	-14.4419
|	-14.4427
😒	-14.4427
^	-15.4427
😊	-15.4427
😋	-15.4427
😢	-15.4427
£	-15.4427
