<pad>	0
<unk>	0
<s>	0
</s>	0
.	-3.09634
▁I	-3.20821
_	-3.31982
▁to	-3.87036
'	-3.95213
▁a	-3.96488
comma	-4.06734
▁the	-4.16294
s	-4.19225
▁it	-4.30006
▁you	-4.31158
!	-4.36062
▁and	-4.39341
▁my	-4.48629
▁was	-4.53181
▁that	-4.61662
?	-4.69219
▁of	-4.82061
t	-4.84046
▁is	-4.87585
▁for	-4.90254
▁so	-4.98826
▁in	-5.00293
▁have	-5.03929
▁me	-5.26447
▁be	-5.34112
m	-5.39761
,	-5.39864
▁hit	-5.41204
conv	-5.46266
▁That	-5.49468
▁on	-5.50862
▁It	-5.51394
▁am	-5.53244
▁but	-5.54304
▁with	-5.55111
I	-5.55609
▁i	-5.58504
▁do	-5.65404
▁just	-5.70871
▁get	-5.71916
▁are	-5.73511
▁really	-5.74147
▁	-5.74825
▁at	-5.75041
▁can	-5.75437
▁like	-5.77711
▁out	-5.78186
▁good	-5.79492
▁he	-5.7958
▁they	-5.79786
▁not	-5.81041
▁had	-5.81339
▁when	-5.8548
▁about	-5.88871
▁did	-5.94032
▁time	-5.94352
▁up	-6.0115
▁all	-6.01225
▁surprised	-6.04496
▁her	-6.0643
▁will	-6.06558
▁your	-6.08585
▁she	-6.08904
▁been	-6.09771
▁got	-6.11035
▁know	-6.13645
▁My	-6.14835
ing	-6.1666
▁too	-6.16744
▁Oh	-6.174
▁excited	-6.18203
▁going	-6.19275
▁this	-6.19363
▁sad	-6.21395
ed	-6.26024
▁what	-6.26527
▁one	-6.26676
▁very	-6.26853
▁proud	-6.27862
▁go	-6.28548
▁them	-6.28674
▁work	-6.28846
▁feel	-6.29844
▁him	-6.29881
▁What	-6.31349
▁would	-6.33903
▁think	-6.34068
▁hope	-6.35283
▁no	-6.37772
▁angry	-6.37932
▁some	-6.39979
▁great	-6.41247
▁day	-6.4138
▁afraid	-6.43263
▁don	-6.45474
▁we	-6.47081
▁now	-6.47204
▁annoyed	-6.48126
▁sure	-6.48339
▁lonely	-6.4894
▁confident	-6.4987
anticipating	-6.50749
▁prepared	-6.51275
▁there	-6.51284
▁grateful	-6.51615
d	-6.51896
▁new	-6.52239
▁anxious	-6.52375
▁guilty	-6.53422
▁from	-6.5363
▁terrified	-6.53696
▁jealous	-6.54281
▁an	-6.54914
▁impressed	-6.55708
▁disgusted	-6.56703
▁disappointed	-6.56943
▁hopeful	-6.57346
ve	-6.57864
▁nostalgic	-6.5796
▁furious	-6.5833
▁friend	-6.58706
▁back	-6.60274
▁joyful	-6.62109
▁were	-6.62342
▁bad	-6.63181
▁as	-6.6331
▁how	-6.64482
▁embarrassed	-6.64557
▁content	-6.65306
▁well	-6.66398
▁devastated	-6.66979
▁You	-6.67373
▁always	-6.67705
▁much	-6.69425
▁people	-6.7002
▁or	-6.71546
▁sentimental	-6.72422
▁ashamed	-6.73034
▁last	-6.74096
▁caring	-6.75174
▁He	-6.756
4,	-6.76447
▁see	-6.7728
▁hard	-6.77443
▁trusting	-6.77526
▁nice	-6.77658
▁happy	-6.79297
▁lot	-6.79728
▁Yeah	-6.80186
▁if	-6.80211
▁Yes	-6.80245
▁other	-6.80598
▁job	-6.81855
3,	-6.82899
▁didn	-6.83033
▁Did	-6.83161
▁make	-6.84121
▁went	-6.84899
2,	-6.85811
▁apprehensive	-6.86913
▁love	-6.87502
1,	-6.88518
▁never	-6.8891
▁old	-6.89867
▁car	-6.91287
▁week	-6.91354
▁his	-6.91572
re	-6.92485
▁more	-6.9293
▁over	-6.93559
.,5|5|5_5|5|5,	-6.93845
▁because	-6.93856
▁home	-6.94077
▁hear	-6.94983
▁sorry	-6.95984
▁could	-6.97848
ll	-6.98116
▁right	-6.98202
▁should	-6.98278
▁has	-6.98831
▁something	-6.99058
▁school	-7.00792
▁want	-7.00892
▁They	-7.02121
▁though	-7.02334
▁first	-7.02427
▁years	-7.02575
▁still	-7.0377
▁year	-7.03953
▁long	-7.04293
▁better	-7.04678
▁pretty	-7.05193
▁dog	-7.05472
▁She	-7.06062
▁friends	-7.06286
▁faithful	-7.06621
▁way	-7.06954
▁fun	-7.077
▁take	-7.07769
▁today	-7.07959
▁Well	-7.08085
▁off	-7.08522
▁How	-7.08587
▁family	-7.09663
▁life	-7.10896
▁by	-7.1091
▁things	-7.11349
▁even	-7.11635
▁sounds	-7.11796
▁The	-7.12273
▁We	-7.1268
▁little	-7.13631
▁house	-7.13632
▁felt	-7.13702
▁kids	-7.14755
▁best	-7.15351
My	-7.1576
▁someone	-7.1721
▁must	-7.18273
▁night	-7.18352
...	-7.19892
▁into	-7.23506
▁find	-7.24734
▁kind	-7.25555
▁made	-7.25713
▁then	-7.25742
▁away	-7.27793
▁next	-7.28121
▁after	-7.28202
▁money	-7.29194
▁getting	-7.29678
▁need	-7.30309
-	-7.34626
y	-7.34678
▁feeling	-7.35236
▁awesome	-7.35794
▁down	-7.37678
▁But	-7.37858
▁No	-7.38526
▁thing	-7.38639
▁being	-7.39472
i	-7.39498
▁who	-7.39519
▁A	-7.39803
▁help	-7.40176
▁wait	-7.40763
▁lol	-7.42019
▁able	-7.42184
▁myself	-7.42882
▁before	-7.43147
▁their	-7.43967
▁any	-7.43996
▁found	-7.44298
▁around	-7.44606
▁bet	-7.45307
▁our	-7.4567
▁only	-7.4741
▁So	-7.48206
▁doing	-7.48735
▁weekend	-7.48741
▁try	-7.49134
▁days	-7.49808
▁saw	-7.5057
▁happened	-7.51305
▁Do	-7.51463
▁Wow	-7.5278
▁glad	-7.53382
▁anything	-7.53594
5,	-7.53989
▁than	-7.54083
▁through	-7.5423
▁wish	-7.54536
▁few	-7.5498
ly	-7.55375
,5|5|5_5|5|5,	-7.55604
▁while	-7.56495
▁ago	-7.57645
▁big	-7.58678
▁everything	-7.59706
8	-7.61943
▁having	-7.62334
▁scared	-7.62349
▁hate	-7.62684
0	-7.63014
▁thought	-7.63535
7	-7.63624
er	-7.65792
▁same	-7.65975
▁many	-7.66032
▁took	-7.66094
▁again	-7.66564
▁recently	-7.66699
▁keep	-7.66749
▁cool	-7.66929
▁wife	-7.67425
▁wanted	-7.67431
▁does	-7.67737
▁ever	-7.67756
9	-7.6851
▁let	-7.68554
▁won	-7.6859
▁come	-7.68893
▁Are	-7.69163
▁since	-7.69264
▁makes	-7.71194
▁used	-7.71372
▁son	-7.72102
▁Maybe	-7.72297
▁believe	-7.72326
e	-7.72679
▁looking	-7.72953
▁food	-7.73052
▁ready	-7.7345
▁put	-7.73815
n	-7.7468
f	-7.74843
▁such	-7.75393
▁those	-7.75659
▁came	-7.75941
▁least	-7.76186
▁brother	-7.7641
▁guess	-7.76639
▁soon	-7.77882
▁Why	-7.78084
▁man	-7.78309
▁live	-7.78732
▁place	-7.78734
▁where	-7.78752
▁care	-7.78825
▁miss	-7.79063
▁done	-7.79077
▁why	-7.79293
▁say	-7.79494
4_	-7.7963
▁trying	-7.79844
6_	-7.80046
?,5|5|5_5|5|5,	-7.80142
▁understand	-7.81699
2_	-7.82331
▁yesterday	-7.82768
▁left	-7.84194
▁oh	-7.84525
▁amazing	-7.85498
▁nervous	-7.85936
r	-7.85993
▁sometimes	-7.86047
5_	-7.86204
▁here	-7.86815
▁daughter	-7.86938
▁person	-7.86944
▁mad	-7.87084
▁us	-7.87689
▁told	-7.88307
1_	-7.88438
▁mom	-7.89257
▁start	-7.90258
▁scary	-7.90579
!,5|5|5_5|5|5,	-7.9066
▁wow	-7.90742
▁bit	-7.90848
▁lost	-7.91039
▁tell	-7.91138
▁kid	-7.91388
▁another	-7.91701
▁girlfriend	-7.91814
▁every	-7.92806
▁wasn	-7.93047
▁said	-7.93691
▁terrible	-7.94325
3_	-7.9433
▁When	-7.95244
▁remember	-7.95898
▁alone	-7.96091
▁college	-7.96253
▁husband	-7.96258
▁also	-7.97067
▁birthday	-7.98219
▁favorite	-7.98531
▁play	-7.98754
▁happen	-7.98995
▁pay	-7.9981
▁look	-7.99831
▁two	-8.00393
▁parents	-8.00928
▁give	-8.02804
▁okay	-8.03137
▁everyone	-8.03329
▁game	-8.03726
That	-8.03755
▁upset	-8.04169
▁Have	-8.04502
▁working	-8.04697
▁cat	-8.0498
▁Just	-8.05085
▁party	-8.0512
▁end	-8.05121
▁bought	-8.05242
▁once	-8.06378
▁Good	-8.06513
▁There	-8.06603
▁test	-8.06735
▁almost	-8.07032
▁coming	-8.07279
▁actually	-8.07397
▁tomorrow	-8.07576
▁times	-8.07855
▁its	-8.07974
▁most	-8.08623
▁trip	-8.09993
▁finally	-8.10175
▁mean	-8.10969
▁eat	-8.11054
▁own	-8.11224
▁yes	-8.12814
▁3	-8.12882
▁together	-8.1376
▁might	-8.13952
▁high	-8.14094
▁guy	-8.14588
▁Was	-8.14787
▁yeah	-8.14945
▁haven	-8.15464
▁dad	-8.15523
▁quite	-8.15561
▁luck	-8.15841
▁started	-8.15956
▁month	-8.16128
▁idea	-8.16679
▁knew	-8.17498
▁enough	-8.18102
▁2	-8.18245
▁thats	-8.18538
▁yet	-8.1871
▁maybe	-8.18713
▁true	-8.1932
▁months	-8.19648
▁watch	-8.19753
▁And	-8.19966
▁passed	-8.20439
▁taking	-8.20557
▁tried	-8.20562
▁enjoy	-8.20762
▁show	-8.20822
▁stay	-8.21195
▁stuff	-8.21607
▁move	-8.21884
▁sister	-8.22614
▁vacation	-8.22818
▁sick	-8.23915
▁leave	-8.24114
▁forward	-8.24386
▁until	-8.24567
▁doesn	-8.25139
▁else	-8.2521
▁probably	-8.2521
▁yourself	-8.2522
▁nothing	-8.25237
▁buy	-8.25436
▁store	-8.26097
▁-	-8.26557
▁heard	-8.2666
▁baby	-8.26739
▁close	-8.26858
▁super	-8.26959
▁T	-8.2707
in	-8.28288
▁weeks	-8.28612
▁thinking	-8.2886
▁Not	-8.29144
▁part	-8.29215
▁definitely	-8.29415
▁couldn	-8.29836
▁without	-8.3086
▁Thanks	-8.30882
▁morning	-8.31009
▁im	-8.31183
▁agree	-8.31551
a	-8.31878
▁summer	-8.31932
▁win	-8.32585
▁movie	-8.3276
▁important	-8.32868
▁worried	-8.3404
▁dont	-8.34139
▁far	-8.34423
▁girl	-8.34435
▁Thank	-8.34481
▁Some	-8.34841
▁lucky	-8.35548
▁these	-8.35786
▁memories	-8.36435
▁sucks	-8.36652
▁ok	-8.36693
▁call	-8.36712
▁talk	-8.3677
▁sweet	-8.37154
▁yea	-8.37618
▁happens	-8.3766
▁5	-8.37933
▁:)	-8.38113
▁Hopefully	-8.38399
▁anyone	-8.3844
▁gave	-8.38889
▁fine	-8.39417
▁already	-8.39637
A	-8.39769
▁couple	-8.39888
▁crazy	-8.39888
p	-8.40627
▁clean	-8.41684
▁deal	-8.42595
▁guys	-8.43132
▁both	-8.4341
▁seems	-8.43445
▁exciting	-8.43725
▁tough	-8.43806
▁wrong	-8.44248
▁moved	-8.44435
▁past	-8.44731
▁M	-8.44993
▁mine	-8.45058
▁use	-8.45583
w	-8.45851
▁wouldn	-8.46003
▁seen	-8.46329
▁class	-8.46436
▁late	-8.46548
▁imagine	-8.46725
▁sleep	-8.46961
▁haha	-8.47369
▁horrible	-8.47443
▁usually	-8.47449
▁worked	-8.47517
▁waiting	-8.4753
▁S	-8.48053
▁company	-8.48259
▁,5|5|5_5|5|5,	-8.48479
It	-8.48993
▁ate	-8.49018
▁broke	-8.50426
▁front	-8.50781
▁date	-8.51056
▁world	-8.51309
surprised	-8.51551
▁outside	-8.51626
▁hurt	-8.52419
▁which	-8.52449
▁dinner	-8.53295
▁making	-8.53584
▁experience	-8.53636
▁died	-8.53648
▁awful	-8.5416
▁wonderful	-8.54163
▁ended	-8.54193
▁phone	-8.54394
▁drive	-8.54405
▁whole	-8.54486
▁child	-8.54735
▁bring	-8.54749
o	-8.54944
▁gross	-8.55004
▁change	-8.55121
▁Thats	-8.55996
▁Sounds	-8.5682
▁worst	-8.57395
▁team	-8.57438
▁gone	-8.5754
▁neighbor	-8.57687
▁watching	-8.58001
▁needed	-8.58077
▁interview	-8.58492
▁young	-8.58544
▁reason	-8.58584
"	-8.58649
▁trust	-8.58803
▁situation	-8.58905
▁Yea	-8.59541
▁sound	-8.59578
▁cant	-8.60089
▁Thi	-8.60198
▁room	-8.60596
l	-8.60767
▁driving	-8.61048
▁Me	-8.61114
▁check	-8.6179
▁gonna	-8.62016
th	-8.62052
▁"	-8.62315
▁didnt	-8.62434
one	-8.62739
▁talking	-8.62883
▁called	-8.63175
▁Where	-8.63253
▁boss	-8.63547
▁surprise	-8.63731
▁fast	-8.63831
Oh	-8.64196
▁either	-8.64198
▁mother	-8.64844
▁playing	-8.64924
▁4	-8.64946
▁Nice	-8.65175
▁hours	-8.6551
▁visit	-8.65716
al	-8.65932
▁stop	-8.66139
5|5|5,	-8.66368
▁goes	-8.66634
▁pizza	-8.66791
▁worth	-8.6712
▁mind	-8.67794
▁dogs	-8.68103
▁annoying	-8.68467
▁boyfriend	-8.69118
▁anymore	-8.69792
▁shocked	-8.69827
▁each	-8.70471
▁loved	-8.70715
▁asked	-8.70998
▁real	-8.71413
▁promotion	-8.71498
▁water	-8.71509
▁10	-8.71709
it	-8.72173
▁forgot	-8.72912
c	-8.72941
▁run	-8.72955
▁isn	-8.72962
▁hoping	-8.73595
excited	-8.73618
▁ask	-8.73692
b	-8.74235
▁during	-8.74291
▁door	-8.74548
▁Sometimes	-8.7473
or	-8.74794
▁walking	-8.74834
▁different	-8.74947
▁children	-8.75358
▁Now	-8.75801
▁Don	-8.76115
▁ran	-8.76685
▁exam	-8.76742
▁town	-8.76801
▁free	-8.76815
▁lately	-8.76871
▁seeing	-8.76889
k	-8.7707
▁Were	-8.77328
▁decide	-8.77456
▁un	-8.77854
▁totally	-8.77907
▁restaurant	-8.78262
▁plan	-8.78281
▁often	-8.78365
es	-8.7869
▁pet	-8.78695
▁break	-8.78744
▁meet	-8.78989
furious	-8.79054
▁C	-8.79644
▁gets	-8.79909
content	-8.80178
trusting	-8.80178
▁later	-8.80553
g	-8.8101
▁co	-8.81171
▁married	-8.81253
▁special	-8.82012
▁doctor	-8.8242
/	-8.82449
▁relationship	-8.82802
▁may	-8.82804
▁At	-8.82872
▁paid	-8.8317
▁huge	-8.83174
▁worse	-8.83557
▁starting	-8.84093
▁thank	-8.84958
▁Can	-8.85051
Y	-8.85127
▁hopefully	-8.85252
▁walk	-8.85512
▁eating	-8.85564
▁point	-8.85587
angry	-8.85792
▁seem	-8.8582
▁spend	-8.86108
▁thankful	-8.86266
▁easy	-8.86313
grateful	-8.86393
sad	-8.8641
▁brought	-8.86713
h	-8.86715
▁plans	-8.86746
impressed	-8.86795
lonely	-8.87198
▁lose	-8.87457
▁tonight	-8.87519
▁road	-8.87922
▁turn	-8.88043
nostalgic	-8.88418
▁moment	-8.88873
u	-8.8888
▁worry	-8.88933
▁living	-8.89147
▁side	-8.89205
▁B	-8.8953
▁learn	-8.89569
,4|5|5_5|5|5,	-8.8993
▁weird	-8.89971
▁type	-8.89972
caring	-8.90295
▁positive	-8.90388
▁news	-8.9077
▁fell	-8.9081
prepared	-8.90886
▁full	-8.91166
▁heart	-8.91316
▁Congratulations	-8.91318
annoyed	-8.91322
▁expecting	-8.91369
en	-8.91471
hopeful	-8.91745
▁course	-8.92064
▁cake	-8.92499
▁meeting	-8.92729
When	-8.93021
▁turned	-8.93114
▁mess	-8.93315
▁pass	-8.93348
devastated	-8.9345
▁apartment	-8.93773
▁especially	-8.9378
▁cut	-8.94148
▁looked	-8.94259
▁supposed	-8.94272
▁games	-8.94464
▁future	-8.94633
▁beach	-8.94741
▁season	-8.95069
▁P	-8.95182
▁feels	-8.96532
sentimental	-8.96952
faithful	-8.97382
ting	-8.97553
▁grade	-8.9775
▁comes	-8.97802
▁Las	-8.98388
▁watched	-8.98596
terrified	-8.9875
▁One	-8.99156
▁caught	-8.99524
▁childhood	-8.99525
▁gift	-8.99641
confident	-8.99661
▁ha	-8.99686
▁park	-8.99873
▁near	-8.9998
▁city	-8.99982
▁moving	-9.00439
▁early	-9.00451
afraid	-9.0058
▁movies	-9.00642
▁football	-9.009
disgusted	-9.01043
embarrassed	-9.01043
▁6	-9.01354
▁rest	-9.01416
ashamed	-9.01508
▁name	-9.01711
▁small	-9.01779
proud	-9.01975
▁:(	-9.02632
▁Sorry	-9.02799
guilty	-9.02917
▁hot	-9.02925
hose	-9.02966
▁W	-9.03114
▁older	-9.0316
▁safe	-9.03179
▁helped	-9.03266
disappointed	-9.03391
jealous	-9.03391
▁difficult	-9.03703
▁kept	-9.0371
▁under	-9.04168
▁extra	-9.04186
joyful	-9.04346
▁head	-9.04377
▁funny	-9.04676
▁face	-9.05002
▁stole	-9.05104
▁business	-9.05145
▁interesting	-9.05187
▁open	-9.05709
▁card	-9.05843
le	-9.06036
▁chance	-9.0605
▁coworker	-9.0607
▁afford	-9.06107
ic	-9.06152
▁bed	-9.06288
▁boy	-9.06592
▁smart	-9.06601
▁expensive	-9.06602
▁busy	-9.07125
▁cute	-9.0713
▁fix	-9.07178
ment	-9.07464
ther	-9.0829
!!!	-9.08496
▁(	-9.08591
▁final	-9.09026
▁trouble	-9.09077
▁online	-9.09121
▁lunch	-9.09564
▁second	-9.0958
▁problem	-9.09583
▁instead	-9.10085
▁police	-9.10085
▁Haha	-9.10241
▁partner	-9.10597
▁ex	-9.11192
anxious	-9.11296
▁raise	-9.11476
,238,	-9.11705
▁weight	-9.11728
▁pain	-9.11825
▁neighbors	-9.12143
▁paying	-9.12259
▁grow	-9.12376
▁grandmother	-9.12649
apprehensive	-9.1285
▁All	-9.13718
▁pick	-9.13748
▁truck	-9.1422
▁studied	-9.1422
▁state	-9.14258
Yes	-9.1445
▁20	-9.14576
▁bunch	-9.14749
▁re	-9.15009
ar	-9.15199
▁appreciate	-9.15734
▁country	-9.15821
▁For	-9.16409
▁forever	-9.16715
▁father	-9.16895
▁gotten	-9.16935
▁ride	-9.17071
▁frustrating	-9.17437
▁order	-9.17612
▁Who	-9.17811
▁Really	-9.1803
▁younger	-9.18069
est	-9.18274
▁fall	-9.18328
▁music	-9.18531
▁threw	-9.18533
▁?	-9.18854
▁remind	-9.18978
▁age	-9.19054
able	-9.1934
▁fan	-9.19645
▁exactly	-9.19652
▁inside	-9.19808
▁walked	-9.1991
▁area	-9.20002
▁behind	-9.202
▁lottery	-9.202
▁accident	-9.20351
▁takes	-9.20429
,5|5|5_4|4|4,	-9.20505
▁puppy	-9.20761
▁set	-9.20878
▁catch	-9.20977
▁aren	-9.2102
▁beautiful	-9.21326
▁yard	-9.21329
less	-9.21349
▁works	-9.21729
▁running	-9.21898
▁cause	-9.22128
▁study	-9.22262
D	-9.22405
▁case	-9.2248
▁god	-9.22967
▁forget	-9.23028
▁spent	-9.23041
▁single	-9.23042
▁poop	-9.2305
▁studying	-9.23832
Yeah	-9.23884
▁planning	-9.24204
▁rough	-9.24219
ur	-9.2431
▁entire	-9.24735
▁weather	-9.24785
▁self	-9.24817
ro	-9.24836
The	-9.2492
▁project	-9.25373
▁minutes	-9.25501
▁others	-9.25584
▁position	-9.25965
▁ticket	-9.26241
▁Ah	-9.26525
▁street	-9.2656
▁completely	-9.26575
▁bar	-9.2659
▁expect	-9.26755
)	-9.26757
▁Aw	-9.27022
▁wedding	-9.27159
▁law	-9.27184
▁played	-9.27248
▁girls	-9.27362
ta	-9.27407
▁video	-9.27445
,5|5|5_4|5|5,	-9.27581
▁health	-9.277
▁insurance	-9.27761
▁8	-9.2779
▁Man	-9.27838
▁ones	-9.27867
▁save	-9.28133
▁dark	-9.28372
▁couldnt	-9.28948
▁storm	-9.29916
▁stand	-9.30213
▁three	-9.30829
▁anyway	-9.30848
and	-9.30888
▁figure	-9.30923
te	-9.30979
▁1	-9.31105
▁throw	-9.31198
▁support	-9.31231
▁Be	-9.31274
▁half	-9.31454
▁semester	-9.31454
▁trash	-9.31455
▁matter	-9.31818
▁pregnant	-9.32083
▁neighborhood	-9.32085
▁planned	-9.32092
▁Then	-9.32468
.,1,	-9.32471
▁realize	-9.32573
▁shouldn	-9.32994
▁computer	-9.33353
▁In	-9.33572
T	-9.33756
▁ra	-9.3419
▁hang	-9.34316
S	-9.34321
▁hospital	-9.34639
▁shopping	-9.34648
▁manager	-9.34696
▁healthy	-9.34708
▁relax	-9.34877
▁15	-9.35177
▁everyday	-9.35297
▁fight	-9.35498
▁learned	-9.35591
ers	-9.36045
▁ordered	-9.36172
▁classes	-9.36639
▁cannot	-9.36654
▁results	-9.37031
but	-9.37122
▁read	-9.37713
on	-9.37744
You	-9.37992
▁return	-9.38192
What	-9.38281
▁born	-9.386
▁Hope	-9.38602
▁deserve	-9.38955
▁N	-9.38967
▁taken	-9.39027
▁animals	-9.39181
▁concert	-9.39276
▁quickly	-9.39302
▁F	-9.39325
an	-9.39425
▁missed	-9.39548
▁met	-9.39627
▁less	-9.39653
▁coffee	-9.39956
▁fair	-9.40588
▁cook	-9.40942
▁local	-9.41276
▁kinda	-9.41335
▁keeps	-9.41643
▁lots	-9.41744
▁parent	-9.41914
▁service	-9.42025
▁relaxing	-9.42251
▁line	-9.42689
▁sense	-9.42724
▁bills	-9.42875
▁impressive	-9.43429
▁liked	-9.4351
il	-9.43583
▁looks	-9.44104
▁Hey	-9.4437
▁rain	-9.44452
▁lived	-9.44914
▁along	-9.44971
▁offered	-9.45011
.,4,	-9.45184
ra	-9.45395
,10,	-9.45407
▁Go	-9.45502
▁nephew	-9.45571
se	-9.4564
▁missing	-9.45961
▁social	-9.45987
▁As	-9.4612
▁hour	-9.46248
▁lives	-9.46333
el	-9.46674
▁thanks	-9.46903
▁needs	-9.4695
▁dream	-9.46973
▁serious	-9.46973
▁traffic	-9.47026
▁Congrats	-9.47048
▁Does	-9.4708
▁window	-9.47711
▁office	-9.47721
▁quiet	-9.47761
▁Awesome	-9.47793
▁light	-9.47794
▁cheated	-9.47892
ive	-9.48125
▁choice	-9.48459
,126,	-9.48483
▁Make	-9.48527
▁pants	-9.48655
▁helps	-9.48666
▁realized	-9.48676
▁meal	-9.4888
▁loud	-9.49195
▁easier	-9.49248
▁clothes	-9.49249
▁due	-9.49258
▁Very	-9.49269
▁LOL	-9.49272
6,	-9.49777
▁accidentally	-9.50005
ter	-9.50104
▁goodness	-9.50147
▁book	-9.50636
▁cancer	-9.50758
▁dead	-9.5076
▁cost	-9.50786
▁issues	-9.51321
▁People	-9.51527
▁blame	-9.51533
▁band	-9.5154
▁Yep	-9.51568
.,59,	-9.52114
▁c	-9.5216
is	-9.52194
▁L	-9.52194
▁enjoyed	-9.52231
▁wallet	-9.52292
▁ya	-9.52322
▁diet	-9.52839
▁fly	-9.52886
▁drink	-9.5289
▁count	-9.52947
▁hair	-9.53075
▁embarrassing	-9.53076
▁sitting	-9.5308
▁perfect	-9.53137
▁sort	-9.53212
.,5|5|5_4|5|5,	-9.53488
▁sit	-9.53786
▁careful	-9.53825
▁cats	-9.53832
▁middle	-9.53847
▁pictures	-9.53885
▁honest	-9.54514
▁problems	-9.5463
▁possible	-9.54634
▁control	-9.54645
▁On	-9.5466
▁noticed	-9.54751
▁Hi	-9.54796
▁tickets	-9.55058
▁Christmas	-9.55428
▁alright	-9.55428
▁math	-9.55457
▁tired	-9.55486
▁D	-9.55487
▁mistake	-9.55512
my	-9.55599
▁growing	-9.55752
▁die	-9.56128
▁ice	-9.56197
▁envious	-9.56228
▁grocery	-9.56228
▁rude	-9.56228
▁gym	-9.56228
▁mail	-9.56245
▁animal	-9.57147
▁telling	-9.57329
▁hold	-9.57676
▁starts	-9.5773
▁credit	-9.57847
▁woke	-9.57848
▁stressful	-9.57853
▁lied	-9.57987
▁training	-9.58003
▁across	-9.58667
▁eventually	-9.58667
▁grandma	-9.58668
▁stuck	-9.58669
▁Lol	-9.58717
▁finished	-9.58801
▁word	-9.58805
▁stinks	-9.58951
▁parking	-9.59046
▁seemed	-9.59079
▁R	-9.59224
▁p	-9.59229
▁smell	-9.59234
M	-9.59694
▁st	-9.59897
▁wonder	-9.59919
▁asking	-9.60062
▁talked	-9.60149
▁hand	-9.6029
▁major	-9.60327
▁TV	-9.60331
▁send	-9.60375
▁teacher	-9.60524
E	-9.60707
▁changed	-9.60752
at	-9.60976
ies	-9.60993
▁bathroom	-9.61167
▁bank	-9.61178
▁pets	-9.61235
.,27,	-9.61361
▁driver	-9.61457
.,244,	-9.61631
▁truly	-9.62014
▁bag	-9.6229
▁wanting	-9.6232
,1,	-9.62334
He	-9.62444
▁manage	-9.62561
▁fault	-9.62869
▁lady	-9.6287
▁loss	-9.62878
▁Nothing	-9.62902
Some	-9.63416
▁red	-9.6364
▁earlier	-9.63731
▁graduated	-9.63836
▁Aww	-9.63852
▁issue	-9.63961
▁teach	-9.64417
▁offer	-9.64447
▁Your	-9.64503
▁faith	-9.64595
▁woman	-9.64601
▁become	-9.64811
▁group	-9.64816
nt	-9.64832
ation	-9.65125
▁sign	-9.65147
▁cleaning	-9.65322
▁giving	-9.65478
▁leaving	-9.65478
▁Cool	-9.65508
▁received	-9.65542
▁7	-9.65649
▁saying	-9.65948
▁stress	-9.6595
▁fit	-9.66041
▁b	-9.66096
▁applied	-9.66363
▁degree	-9.66363
▁surgery	-9.66363
▁stupid	-9.66363
▁buddy	-9.66363
▁tv	-9.66368
▁happening	-9.66594
▁IT	-9.66639
2	-9.66689
ion	-9.6696
▁turns	-9.66999
▁longer	-9.67011
▁suppose	-9.67108
▁slow	-9.67205
▁wants	-9.67217
▁dropped	-9.67256
▁stopped	-9.67256
▁brand	-9.67257
▁rent	-9.67269
▁Everyone	-9.67309
Well	-9.67921
▁consider	-9.67939
▁E	-9.67942
▁strong	-9.68108
▁fear	-9.68154
▁awhile	-9.68157
▁borrow	-9.68157
▁gas	-9.68162
▁cars	-9.68398
us	-9.68951
▁scratch	-9.69066
▁pool	-9.69072
▁stepp	-9.69088
▁After	-9.69117
▁cooking	-9.69345
▁touch	-9.69467
▁learning	-9.69533
▁amount	-9.69983
▁blood	-9.69984
▁power	-9.70002
▁honestly	-9.70045
▁fire	-9.7005
▁saving	-9.70304
▁cousin	-9.70325
▁knows	-9.70568
▁G	-9.70895
▁shoes	-9.7136
▁anxiety	-9.71844
▁Every	-9.71892
▁camping	-9.71932
▁Or	-9.71965
▁hasn	-9.72782
▁losing	-9.72789
▁Luckily	-9.72798
▁certainly	-9.7283
▁bother	-9.72846
▁failed	-9.72931
▁bus	-9.72976
▁30	-9.72976
▁wont	-9.73215
▁stayed	-9.73663
▁shame	-9.73734
▁winning	-9.73749
▁unfortunately	-9.73786
5	-9.73956
.,322,	-9.74219
ie	-9.74305
ell	-9.74362
▁de	-9.74436
1	-9.74475
▁normal	-9.74648
▁Monday	-9.74701
▁everywhere	-9.74705
▁disgusting	-9.74718
▁Will	-9.7472
▁whatever	-9.74867
▁Yesterday	-9.74877
▁top	-9.74885
▁given	-9.74938
z	-9.75122
▁student	-9.75124
▁death	-9.75672
▁delicious	-9.75672
▁drunk	-9.75673
▁invited	-9.75752
▁fixed	-9.76053
▁short	-9.76053
▁roommate	-9.76106
ir	-9.76278
ful	-9.76326
▁e	-9.76479
P	-9.76568
▁treat	-9.76659
▁aunt	-9.76663
▁candy	-9.7675
▁cover	-9.76902
▁shows	-9.76913
▁helping	-9.76918
▁step	-9.76999
▁travel	-9.77427
▁large	-9.77601
▁poor	-9.77605
▁buying	-9.77611
▁cream	-9.77642
▁indeed	-9.77643
▁sent	-9.77643
▁absolutely	-9.7765
▁Like	-9.77658
▁himself	-9.77678
▁pull	-9.78237
et	-9.78327
▁box	-9.78406
▁Especially	-9.78642
▁kitchen	-9.78642
▁nasty	-9.78642
▁spill	-9.78642
▁advice	-9.78643
▁empty	-9.78647
▁putting	-9.78754
▁Ugh	-9.78754
▁nerve	-9.79151
coming	-9.79369
▁wear	-9.79385
▁dollars	-9.79564
▁notice	-9.79583
>	-9.79653
▁Great	-9.79664
▁Glad	-9.7967
▁Dang	-9.79691
▁coworkers	-9.79764
▁piece	-9.80151
O	-9.80323
▁quit	-9.8041
▁speech	-9.80656
▁attention	-9.80673
▁church	-9.80673
▁report	-9.80675
▁staying	-9.80684
7,	-9.80834
▁beat	-9.81046
N	-9.81287
ch	-9.81307
▁handle	-9.81697
▁terrifying	-9.81704
▁afterwards	-9.81887
▁:	-9.81907
▁Ha	-9.81971
▁cruise	-9.82746
▁effort	-9.82746
▁research	-9.82746
▁memory	-9.82746
▁black	-9.82746
▁celebrate	-9.82765
▁Nope	-9.82813
as	-9.8302
▁To	-9.83125
We	-9.83312
▁weren	-9.83393
▁words	-9.83622
▁somewhere	-9.83819
▁Exactly	-9.8382
▁Even	-9.83841
▁wasnt	-9.84126
▁eyes	-9.84149
▁secret	-9.8434
C	-9.84387
No	-9.84648
▁peace	-9.84855
▁bummer	-9.84862
▁story	-9.84896
▁12	-9.85055
▁ch	-9.85193
▁present	-9.85256
▁cheat	-9.85534
▁unexpected	-9.85884
▁promised	-9.86022
:855	-9.86123
▁expected	-9.86284
▁unfortunate	-9.86972
▁cheap	-9.86977
▁avoid	-9.87024
▁package	-9.87027
▁four	-9.87028
▁Never	-9.87033
U	-9.87144
▁broken	-9.87199
▁alive	-9.87248
▁ahead	-9.87268
▁saved	-9.87292
▁gre	-9.8739
▁train	-9.87636
▁trusted	-9.87718
▁laugh	-9.8772
▁listen	-9.87726
▁beer	-9.87734
▁O	-9.8779
▁Trump	-9.88123
▁chocolate	-9.88123
▁soccer	-9.88123
:762	-9.88123
▁spot	-9.88125
▁cried	-9.88125
▁Most	-9.88126
▁New	-9.88126
▁bike	-9.8813
▁pulled	-9.88335
▁cheating	-9.88339
▁decid	-9.88341
out	-9.88691
ever	-9.88812
,262,	-9.89133
▁Florida	-9.89234
▁push	-9.89234
:1043	-9.89234
▁public	-9.89235
▁cold	-9.89239
▁means	-9.89267
▁speak	-9.89918
ck	-9.8997
▁noise	-9.90008
▁smash	-9.9016
▁strange	-9.90328
▁blue	-9.90358
▁themselves	-9.90358
▁places	-9.90418
worker	-9.90787
▁miles	-9.90905
▁18	-9.91148
▁fact	-9.91152
Wow	-9.91177
▁ground	-9.91329
▁photos	-9.91395
▁showed	-9.91407
▁sisters	-9.91654
▁stressed	-9.91742
▁sun	-9.91852
5|5,	-9.92101
am	-9.92206
▁decision	-9.92266
▁eye	-9.92296
▁H	-9.92422
▁cry	-9.92453
▁certain	-9.92591
▁similar	-9.92644
▁debt	-9.92644
▁hungry	-9.92645
▁Any	-9.92692
▁scare	-9.93273
▁number	-9.93448
▁t	-9.93524
▁wa	-9.93617
▁share	-9.93656
▁process	-9.93806
▁switch	-9.93806
:86	-9.93808
▁building	-9.93931
time	-9.9417
▁using	-9.94294
▁finish	-9.94575
▁snake	-9.94644
▁w	-9.94958
▁doubt	-9.94983
:763	-9.94983
▁contest	-9.94983
▁confidence	-9.94983
▁knowing	-9.95012
▁gosh	-9.95111
▁lay	-9.95118
.,639,	-9.95125
▁flying	-9.95305
▁sat	-9.95526
▁career	-9.95563
▁shop	-9.95597
They	-9.95985
▁between	-9.96173
▁stomach	-9.96173
▁system	-9.96173
▁congratulations	-9.96173
:760	-9.96174
▁Keep	-9.96174
▁tripped	-9.96174
▁chicken	-9.96175
▁cup	-9.96181
▁anywhere	-9.96181
▁Everything	-9.96208
▁body	-9.96296
▁returned	-9.96517
▁checked	-9.96912
▁lie	-9.97027
▁d	-9.97033
▁contact	-9.97182
▁focus	-9.97182
▁ah	-9.9732
▁bonus	-9.97378
▁comfortable	-9.97384
▁luckily	-9.97385
▁Our	-9.97389
:84	-9.97419
:852	-9.97483
▁picked	-9.97822
▁9	-9.97853
▁graduate	-9.98449
:761	-9.98598
;	-9.98598
▁attitude	-9.98598
▁baseball	-9.98598
:125	-9.98598
▁foot	-9.98623
:550	-9.98642
L	-9.98805
▁spending	-9.99249
that	-9.99261
he	-9.99282
up	-9.99303
▁meant	-9.99375
▁minute	-9.99563
▁fat	-9.99645
▁cancel	-9.99682
▁bill	-9.99802
▁regret	-9.99832
▁supplies	-9.99832
:245	-9.99833
:460	-9.99833
um	-9.99988
,4,	-10.0008
ce	-10.001
.,273,	-10.0036
▁shower	-10.0049
the	-10.007
▁sleeping	-10.0081
▁loan	-10.0082
4|4|4,	-10.0086
▁prepare	-10.0093
▁stick	-10.0102
▁floor	-10.0108
:107	-10.0108
:1166	-10.0108
:342	-10.0108
:247	-10.0108
▁low	-10.011
▁pre	-10.0114
▁act	-10.0159
nd	-10.0177
▁fail	-10.0194
▁tree	-10.0209
▁dent	-10.0226
▁harder	-10.0228
▁random	-10.023
▁barely	-10.0235
▁extremely	-10.0236
▁track	-10.0238
▁congrats	-10.0238
▁complain	-10.024
▁vet	-10.0247
▁Got	-10.0253
:854	-10.0253
▁killed	-10.0254
▁badly	-10.0264
ant	-10.0293
▁plane	-10.0298
op	-10.0325
6	-10.034
v	-10.0351
▁marriage	-10.0363
:1164	-10.0363
:1002	-10.0363
:1167	-10.0363
▁blast	-10.0363
▁joy	-10.0364
ate	-10.0365
▁herself	-10.0369
:853	-10.0371
▁feelings	-10.038
▁kill	-10.0442
▁sell	-10.0476
▁emotional	-10.0488
▁roll	-10.0488
▁apart	-10.0492
:340	-10.0493
▁several	-10.0493
▁distance	-10.0493
▁Because	-10.0494
▁13	-10.0496
▁pleased	-10.05
▁feet	-10.0514
3	-10.0517
▁mostly	-10.053
So	-10.0539
▁nerves	-10.0558
▁pray	-10.0574
W	-10.059
when	-10.0593
▁adult	-10.0604
▁crush	-10.0605
▁replace	-10.0608
,59,	-10.0622
▁dumb	-10.0625
▁Today	-10.0632
▁helpful	-10.0633
▁against	-10.0638
▁fishing	-10.0642
▁God	-10.0652
▁join	-10.0665
▁f	-10.0669
▁toys	-10.0672
,196,	-10.0698
ng	-10.0721
▁rush	-10.0738
▁jobs	-10.0738
▁attack	-10.0738
▁current	-10.0752
no	-10.0755
▁Friday	-10.0758
:1003	-10.0758
▁dating	-10.0759
▁Of	-10.0762
▁list	-10.0762
▁winter	-10.0763
▁grown	-10.0771
▁daughters	-10.0783
Las	-10.0862
▁hahaha	-10.0871
▁financial	-10.0888
▁quick	-10.0889
hich	-10.089
▁graduation	-10.0893
▁level	-10.0893
:953	-10.0893
▁shelter	-10.0893
:600	-10.0893
▁flight	-10.0893
▁wake	-10.0893
▁couch	-10.0896
▁Right	-10.0897
▁reach	-10.0898
▁hands	-10.0903
oh	-10.0949
ish	-10.0954
▁doesnt	-10.0992
Did	-10.0999
▁calm	-10.1008
▁dress	-10.1009
▁relate	-10.1015
▁deep	-10.1025
▁books	-10.1029
▁loyal	-10.103
:341	-10.103
▁uncle	-10.103
:908	-10.103
▁explain	-10.103
▁taught	-10.103
▁presentation	-10.1031
▁ball	-10.1046
▁exams	-10.1053
,27,	-10.1104
ous	-10.1148
▁score	-10.1154
▁damage	-10.1154
▁pays	-10.1164
▁lazy	-10.1169
▁relief	-10.1169
▁patient	-10.1169
▁dangerous	-10.1169
▁Absolutely	-10.117
▁School	-10.1184
▁ruined	-10.1184
▁fired	-10.1194
.,294,	-10.1256
me	-10.1263
▁moments	-10.1266
▁answer	-10.128
▁rid	-10.1284
.,226,	-10.1286
▁attend	-10.1291
ad	-10.1293
▁asleep	-10.131
▁recipe	-10.131
:108	-10.131
▁Yup	-10.131
▁laptop	-10.131
▁etc	-10.131
▁twice	-10.131
▁swimming	-10.131
:1159	-10.131
▁involved	-10.1312
▁ten	-10.1312
▁table	-10.1312
▁Probably	-10.1314
▁race	-10.1314
▁roller	-10.1315
▁packed	-10.1325
4	-10.1384
.,4|4|4_	-10.1387
▁bros	-10.1394
▁steal	-10.1431
▁ghost	-10.1443
▁cash	-10.1452
:1165	-10.1452
▁competition	-10.1453
▁garden	-10.1453
▁pissed	-10.1453
:1168	-10.1453
:785	-10.1453
▁bowl	-10.1453
▁decent	-10.1453
▁alot	-10.1454
▁picture	-10.1455
▁Try	-10.1458
▁Get	-10.1461
▁riding	-10.1474
▁tend	-10.1486
age	-10.1492
▁reading	-10.1498
:	-10.1514
ry	-10.1536
▁mo	-10.1561
▁hadn	-10.157
▁repair	-10.1578
un	-10.158
▁air	-10.1584
,296,	-10.1586
.,225,	-10.1591
▁lesson	-10.1592
▁Life	-10.1597
▁appointment	-10.1597
▁babies	-10.1597
:246	-10.1597
:878	-10.1597
:1158	-10.1598
:880	-10.1599
▁Definitely	-10.1601
▁field	-10.1603
▁oldest	-10.1625
▁o	-10.1628
▁ugh	-10.1665
,4|4|4_	-10.1674
uch	-10.1685
wo	-10.1694
▁wreck	-10.1703
▁keeping	-10.1707
▁cleaned	-10.1708
ated	-10.1718
:156	-10.174
▁Disney	-10.1744
▁satisfied	-10.1744
▁boring	-10.1745
▁basement	-10.1745
▁station	-10.1746
▁waited	-10.1753
▁laughing	-10.1773
▁g	-10.1839
▁continue	-10.1844
▁follow	-10.1853
▁jump	-10.1853
▁respect	-10.1861
ia	-10.1874
ight	-10.1876
▁m	-10.1881
ol	-10.1883
There	-10.1887
▁disappointing	-10.1894
▁scholarship	-10.1894
▁bummed	-10.1894
▁rug	-10.1894
▁drop	-10.1894
▁promoted	-10.1895
▁haunted	-10.1895
▁Yikes	-10.1895
▁Uh	-10.1898
▁accepted	-10.1912
▁thankfully	-10.1914
ity	-10.1941
▁gifts	-10.1941
▁items	-10.1944
▁sp	-10.197
▁U	-10.1977
▁hearing	-10.198
▁song	-10.1987
▁sports	-10.1997
ee	-10.1998
▁gives	-10.2
.,238,	-10.2016
lo	-10.202
▁crash	-10.2026
▁anniversary	-10.2045
▁biggest	-10.2045
▁drove	-10.2045
▁hurricane	-10.2045
:1045	-10.2045
▁desk	-10.2045
:83	-10.2045
▁Mine	-10.2047
▁pro	-10.2059
▁jumped	-10.2065
▁towards	-10.2101
▁opened	-10.2106
im	-10.213
▁rat	-10.2153
She	-10.2168
▁accept	-10.2179
▁mistakes	-10.2183
:109	-10.2189
▁account	-10.2199
▁groceries	-10.2199
▁horror	-10.2199
▁struggling	-10.2199
▁rock	-10.2199
:787	-10.2199
▁mood	-10.2199
▁accomplishment	-10.22
▁hide	-10.2203
ance	-10.2203
▁filled	-10.2209
▁freak	-10.222
▁ma	-10.2221
▁homeless	-10.2226
▁advance	-10.2243
ally	-10.2255
B	-10.2271
▁tho	-10.2299
▁visiting	-10.23
ext	-10.2311
▁40	-10.2324
How	-10.2324
came	-10.2324
:110	-10.2327
▁refund	-10.2336
:879	-10.2355
▁,11,	-10.2355
▁Indeed	-10.2355
▁divorce	-10.2355
:1039	-10.2355
ne	-10.2357
▁human	-10.2358
ness	-10.2359
▁niece	-10.236
▁letter	-10.2366
▁feed	-10.2373
▁gun	-10.2378
▁90	-10.239
▁whenever	-10.2396
▁note	-10.2454
oo	-10.2454
▁100	-10.2455
▁charge	-10.248
▁drivers	-10.2483
▁fish	-10.2494
▁bright	-10.2513
▁fresh	-10.2514
▁Sunday	-10.2514
▁awkward	-10.2514
▁easily	-10.2514
▁internet	-10.2514
:601	-10.2514
:764	-10.2514
:954	-10.2514
:1163	-10.2514
:877	-10.2514
▁slipped	-10.2514
▁space	-10.2517
:248	-10.2518
▁paper	-10.2519
▁Same	-10.252
▁key	-10.2523
▁destroyed	-10.2523
▁Once	-10.2527
to	-10.2529
▁ill	-10.2549
▁headed	-10.2579
Thank	-10.2654
▁conversation	-10.2675
▁mouth	-10.2675
:876	-10.2675
▁court	-10.2675
▁million	-10.2675
:786	-10.2675
▁fantastic	-10.2675
▁sold	-10.2677
▁irritated	-10.2677
▁kitten	-10.2683
▁customer	-10.2684
:1110	-10.2695
▁16	-10.2705
so	-10.2707
.,243,	-10.2711
▁loves	-10.2715
▁appreciated	-10.2721
be	-10.2721
▁leg	-10.2722
▁brothers	-10.2727
bout	-10.2781
ty	-10.2786
la	-10.2797
ca	-10.2806
▁heat	-10.2818
ade	-10.2819
▁lovely	-10.2833
▁says	-10.2835
:952	-10.2839
▁insane	-10.2839
▁lake	-10.2839
▁university	-10.2839
:950	-10.2839
:956	-10.2839
hile	-10.284
▁somehow	-10.2845
▁financially	-10.2846
co	-10.2847
▁lawn	-10.2851
.,296,	-10.2852
▁photo	-10.2854
▁dollar	-10.2854
.,4|4|5_5|5|5,	-10.2876
ul	-10.288
▁shouldnt	-10.2899
rs	-10.2924
vi	-10.2925
pe	-10.293
F	-10.2971
▁prefer	-10.2983
▁spray	-10.2986
▁rescue	-10.2991
▁lock	-10.2997
▁beyond	-10.3006
▁security	-10.3006
▁amazed	-10.3006
▁dude	-10.3006
▁carpet	-10.3006
▁direction	-10.3007
▁suck	-10.3009
▁mall	-10.3017
▁knocked	-10.3024
▁sale	-10.3025
▁wearing	-10.3041
ach	-10.305
cu	-10.305
▁14	-10.3056
id	-10.306
▁hanging	-10.3061
▁turning	-10.3094
ist	-10.3131
▁lead	-10.3154
▁practice	-10.316
▁50	-10.3162
.,7,	-10.3165
ure	-10.3167
▁optimistic	-10.3175
:955	-10.3175
▁odd	-10.3176
▁tiny	-10.3176
▁license	-10.3176
▁milk	-10.3176
▁oil	-10.3176
▁taste	-10.3177
,5|5|5_4|3|	-10.3177
▁Unfortunately	-10.3179
▁media	-10.3182
:82	-10.3186
▁app	-10.3187
▁crossed	-10.3187
▁normally	-10.3187
▁stolen	-10.3191
▁question	-10.3194
▁stranger	-10.3198
▁shot	-10.3199
▁remembered	-10.3208
all	-10.3219
▁...	-10.3254
ow	-10.33
H	-10.3343
▁Still	-10.3348
▁depressed	-10.3348
▁opportunity	-10.3348
▁pride	-10.3348
▁Must	-10.3348
▁Time	-10.3352
ian	-10.3352
▁warm	-10.3374
▁laughed	-10.3378
▁crying	-10.338
nna	-10.3396
man	-10.3408
▁grades	-10.3416
▁passing	-10.3434
▁SO	-10.3458
4|5	-10.349
▁pack	-10.3491
Yesterday	-10.3491
:36	-10.3503
▁ruin	-10.3504
▁talent	-10.3504
▁schedule	-10.3508
▁particular	-10.3518
▁art	-10.3519
▁invest	-10.3523
▁specific	-10.3523
▁Halloween	-10.3523
▁christmas	-10.3523
▁exercise	-10.3523
▁therapy	-10.3523
▁women	-10.3523
:1004	-10.3523
:1005	-10.3523
:461	-10.3523
▁heartbroken	-10.3523
▁OK	-10.3524
▁dentist	-10.3524
▁toilet	-10.3524
▁boat	-10.3527
▁Take	-10.3529
▁burger	-10.353
▁seriously	-10.3536
▁spider	-10.3549
ma	-10.3572
▁u	-10.3577
▁con	-10.3579
▁simple	-10.3583
▁event	-10.3596
▁Has	-10.3606
ap	-10.3632
▁text	-10.3661
▁calling	-10.3678
▁except	-10.3679
▁knock	-10.3683
▁invite	-10.3687
,389,	-10.3702
▁spouse	-10.3702
▁straight	-10.3702
▁subject	-10.3702
:349	-10.3702
▁fridge	-10.3702
▁senior	-10.3702
▁forgive	-10.3702
▁depend	-10.3702
▁dump	-10.3702
▁nail	-10.3702
▁Thankfully	-10.3703
:808	-10.3703
▁pumped	-10.3706
.,126,	-10.3706
▁personal	-10.3718
▁hitting	-10.3726
▁speaking	-10.3736
▁Kids	-10.3736
▁deserved	-10.3743
sh	-10.3764
,269,	-10.3785
,506,	-10.3797
▁breaking	-10.3805
▁whe	-10.3826
she	-10.3831
,4|4|5_5|5|5,	-10.3844
cting	-10.3845
▁recover	-10.3858
▁general	-10.3878
▁success	-10.3879
▁World	-10.3884
:343	-10.3884
▁record	-10.3885
▁bigger	-10.3887
▁carry	-10.3897
you	-10.3898
▁19	-10.3905
▁grandfather	-10.3913
▁cards	-10.3913
▁flowers	-10.3922
▁shirt	-10.3927
▁drinking	-10.3934
▁cooked	-10.3935
aking	-10.4007
▁shock	-10.4028
▁kick	-10.4029
▁glass	-10.4067
▁pair	-10.4069
▁practicing	-10.4069
▁progress	-10.4069
:942	-10.4069
:1044	-10.4069
:352	-10.4069
▁literally	-10.4069
▁information	-10.4069
▁medical	-10.4069
▁True	-10.4071
▁creepy	-10.4073
king	-10.4076
▁board	-10.4079
▁someday	-10.4081
▁charged	-10.4089
▁r	-10.4091
.,302,	-10.4092
▁color	-10.4104
.,274,	-10.4104
▁holiday	-10.4104
ay	-10.4143
aw	-10.415
▁skills	-10.4203
.,209,	-10.4205
ine	-10.4222
▁land	-10.4233
▁promise	-10.4243
▁per	-10.4251
ho	-10.4255
▁sandwich	-10.4256
:951	-10.4258
:957	-10.4258
▁emergency	-10.4258
▁robbed	-10.4258
▁white	-10.4258
:1038	-10.4258
▁discover	-10.4258
▁risk	-10.4258
way	-10.4258
▁screen	-10.4259
▁dirty	-10.426
old	-10.4262
▁till	-10.4266
▁yelled	-10.4268
▁interested	-10.4273
ge	-10.4314
ey	-10.4362
▁ton	-10.4382
▁waste	-10.4395
ling	-10.4404
Why	-10.4418
▁men	-10.4423
Me	-10.4428
:111	-10.4429
▁improve	-10.4449
▁successful	-10.4449
:351	-10.445
▁behavior	-10.445
▁garbage	-10.445
:529	-10.445
▁Turn	-10.445
:549	-10.445
▁shut	-10.445
▁flat	-10.445
▁fence	-10.445
▁Ouch	-10.4451
▁corner	-10.4452
▁Look	-10.446
▁five	-10.446
▁loose	-10.4461
▁wi	-10.4468
R	-10.4471
▁cookies	-10.4507
▁seat	-10.4514
▁nose	-10.4516
▁Too	-10.4574
▁build	-10.4625
ary	-10.4625
▁ear	-10.464
retty	-10.4645
▁occasion	-10.4646
▁Lebron	-10.4646
▁frustrated	-10.4646
▁gain	-10.4646
▁plenty	-10.4646
▁assume	-10.4646
▁neat	-10.4646
▁Thing	-10.4658
▁rare	-10.4671
▁v	-10.4677
:1057	-10.4681
ph	-10.4683
▁emotions	-10.469
:1058	-10.4736
▁award	-10.4739
▁owner	-10.4739
▁closed	-10.4781
ha	-10.4785
what	-10.4795
▁Her	-10.4797
▁goal	-10.4809
▁bat	-10.4814
▁His	-10.4821
▁Would	-10.4827
▁keys	-10.4835
▁club	-10.4835
▁write	-10.4836
▁dang	-10.4841
▁comfort	-10.4845
▁furniture	-10.4846
▁mortified	-10.4846
▁negative	-10.4846
▁stock	-10.4846
▁value	-10.4846
▁sugar	-10.4846
▁cherish	-10.4846
▁basically	-10.4846
_000	-10.4846
▁cancelled	-10.4846
▁OH	-10.4847
▁supportive	-10.4848
▁incredible	-10.485
▁Super	-10.485
▁approved	-10.485
▁somebody	-10.4857
▁understandable	-10.4861
▁tire	-10.4874
▁holding	-10.4899
▁wood	-10.4903
▁pounds	-10.4919
▁ways	-10.4941
▁dis	-10.4949
▁students	-10.496
▁k	-10.4973
ba	-10.4974
8,	-10.5023
ber	-10.5025
▁confront	-10.503
▁receive	-10.5035
▁la	-10.5038
▁doctors	-10.5038
:1048	-10.505
,268,	-10.505
▁education	-10.505
▁energy	-10.505
▁require	-10.505
▁roof	-10.505
▁vehicle	-10.505
▁third	-10.505
▁swim	-10.505
▁wild	-10.505
▁dishes	-10.5052
▁above	-10.5052
▁K	-10.5053
▁speeding	-10.5069
▁amuse	-10.507
▁grandparents	-10.5071
▁l	-10.5074
▁closer	-10.5087
▁smelled	-10.5098
tic	-10.5099
▁jerk	-10.5103
▁y	-10.5134
▁sometime	-10.5136
.,123,	-10.5147
▁plant	-10.517
▁bugs	-10.5172
ize	-10.5179
ence	-10.5227
ut	-10.5242
ver	-10.5249
▁program	-10.5258
▁difference	-10.5258
▁nowadays	-10.5258
▁overcome	-10.5258
▁backyard	-10.5258
:244	-10.5258
:468	-10.5258
▁loving	-10.5258
▁common	-10.5258
▁favor	-10.5259
▁welcome	-10.5259
▁Always	-10.526
▁Wish	-10.526
▁painful	-10.5261
▁evening	-10.5265
▁lights	-10.5269
".	-10.5282
,267,	-10.5286
▁listening	-10.5299
her	-10.5304
em	-10.5319
▁snakes	-10.5319
▁fed	-10.532
▁coaster	-10.5321
▁skill	-10.5322
▁..	-10.5326
▁rep	-10.5339
ring	-10.5404
x	-10.5411
▁Awww	-10.5443
▁apply	-10.5457
▁post	-10.5462
▁situations	-10.5468
▁Nintendo	-10.5471
▁York	-10.5471
▁garage	-10.5471
▁machine	-10.5471
▁period	-10.5471
:1040	-10.5471
▁Hawaii	-10.5471
▁With	-10.5471
:124	-10.5471
▁email	-10.5471
▁ridiculous	-10.5471
,4|5|4_5|5|5,	-10.5471
▁Something	-10.5472
▁block	-10.5472
▁hotel	-10.5475
▁lbs	-10.548
▁concerned	-10.5483
▁V	-10.5485
▁dreams	-10.5487
▁eaten	-10.5487
▁upsetting	-10.5489
▁worker	-10.549
▁followed	-10.5499
▁covered	-10.5513
▁member	-10.5535
,3	-10.5536
▁raised	-10.5543
▁steak	-10.5553
.,269,	-10.556
om	-10.5574
▁visited	-10.56
▁pee	-10.5634
.,5|5|5_4|4|	-10.564
G	-10.5654
back	-10.5658
▁ho	-10.5668
▁complete	-10.5668
▁apologize	-10.5673
▁match	-10.5687
we	-10.5688
▁honor	-10.5689
▁horse	-10.5689
▁landlord	-10.5689
:949	-10.5689
▁Los	-10.5689
▁daily	-10.5689
▁alarm	-10.5689
▁immediately	-10.5689
▁enjoying	-10.5693
▁blessed	-10.5694
▁friendship	-10.5695
▁randomly	-10.5698
▁applying	-10.571
▁button	-10.5716
▁following	-10.572
.,43,	-10.5732
▁sport	-10.5758
▁noises	-10.5766
▁wasted	-10.577
▁tests	-10.5772
▁11	-10.5777
▁fingers	-10.5782
▁soup	-10.5812
▁closet	-10.5825
ard	-10.5842
▁hurting	-10.5853
▁holidays	-10.5868
,5|5|5_5|4|	-10.588
▁camp	-10.5885
ical	-10.5895
▁mow	-10.5906
▁employer	-10.5911
▁guitar	-10.5911
▁purpose	-10.5911
▁stories	-10.5911
▁supervisor	-10.5911
▁dread	-10.5911
▁six	-10.5911
▁performance	-10.5911
▁dish	-10.5912
▁huh	-10.5912
▁youngest	-10.5919
ook	-10.5924
▁somewhat	-10.593
▁lo	-10.5934
▁freaked	-10.5939
▁Un	-10.5952
▁fully	-10.5958
▁ring	-10.5974
▁price	-10.5975
▁hurts	-10.5983
▁bird	-10.5984
▁sh	-10.6012
uck	-10.6021
do	-10.6023
▁steps	-10.6038
ake	-10.6055
side	-10.6056
ole	-10.6086
ac	-10.6099
na	-10.6103
▁likely	-10.6112
▁speed	-10.6117
▁struggle	-10.6123
▁shake	-10.6134
▁perform	-10.6138
employed	-10.6138
▁afternoon	-10.6138
▁breakfast	-10.6138
▁quality	-10.6138
▁smile	-10.6138
▁stoked	-10.6138
,301,	-10.6138
,52,	-10.6138
▁bored	-10.6138
▁compare	-10.6139
▁Fall	-10.6139
▁Sure	-10.6141
▁style	-10.6142
▁suddenly	-10.6142
▁alcohol	-10.6145
▁nobody	-10.6151
▁fle	-10.6153
▁grad	-10.6159
▁j	-10.6163
▁25	-10.6163
rd	-10.6172
▁stealing	-10.6172
:851	-10.6184
▁dr	-10.6185
▁ending	-10.6192
per	-10.6213
▁result	-10.6219
▁understanding	-10.6256
▁An	-10.6297
▁po	-10.63
▁parts	-10.6301
▁coasters	-10.6305
.,438,	-10.6313
▁goals	-10.6315
.,220,	-10.6336
*	-10.6338
▁clear	-10.6345
▁drinks	-10.636
▁advantage	-10.6371
▁community	-10.6371
▁shape	-10.6371
:57	-10.6371
▁porch	-10.6371
▁laid	-10.6371
▁size	-10.6371
▁constantly	-10.6372
▁Enjoy	-10.6372
▁cable	-10.6374
▁grass	-10.6377
▁double	-10.6378
▁crashed	-10.64
▁h	-10.6413
ah	-10.6422
▁higher	-10.6428
▁brave	-10.6455
ke	-10.6459
▁camera	-10.6469
.,548,	-10.6501
for	-10.6518
▁$20	-10.6538
▁onto	-10.6553
▁heal	-10.6555
▁havent	-10.6565
,5|4|4_	-10.6578
One	-10.6579
▁prize	-10.6593
ot	-10.6605
▁begin	-10.6609
▁cheese	-10.6609
▁rode	-10.6609
’	-10.6609
▁appreciative	-10.6609
▁athletic	-10.6609
▁click	-10.6609
▁granted	-10.6609
▁truth	-10.6609
▁swear	-10.6609
▁responsible	-10.6609
▁previous	-10.6609
▁airport	-10.6609
▁Think	-10.6609
▁react	-10.6612
!,238,	-10.6614
▁gate	-10.6619
▁Co	-10.662
▁Re	-10.6623
▁interest	-10.6657
▁total	-10.6668
▁trick	-10.6693
▁relative	-10.6698
▁upon	-10.6698
▁wall	-10.6715
.,53,	-10.6766
▁crap	-10.678
▁da	-10.678
:1100	-10.6801
.,297,	-10.6803
ned	-10.6825
▁market	-10.6831
:1101	-10.6839
▁provide	-10.6844
▁regular	-10.6847
▁professional	-10.6847
▁tornado	-10.6851
:170	-10.6852
▁grand	-10.6852
▁Saturday	-10.6853
▁adorable	-10.6853
▁changing	-10.6853
▁heavy	-10.6853
▁tournament	-10.6853
▁bucks	-10.6853
:875	-10.6853
▁friday	-10.6853
▁bomb	-10.6853
▁bedroom	-10.6853
▁flies	-10.6853
▁admit	-10.6853
▁facebook	-10.6853
,46,	-10.6855
,5|4|5_5|5|5,	-10.6855
▁delivered	-10.6866
▁accomplished	-10.6871
▁adopted	-10.6871
▁talented	-10.688
▁til	-10.689
▁breath	-10.6895
ig	-10.6928
▁Poo	-10.693
▁ti	-10.6931
▁hated	-10.6934
▁crawl	-10.6995
▁caus	-10.7
▁meat	-10.7008
▁limit	-10.7015
▁tooth	-10.7023
po	-10.704
?,4|4|4_	-10.7061
▁natural	-10.7097
▁incredibl	-10.7098
▁Kind	-10.71
▁Guess	-10.7103
▁excellent	-10.7103
▁reunion	-10.7103
▁shift	-10.7103
▁basketball	-10.7103
,3|4|4_5|5|5,	-10.7103
▁breed	-10.7103
▁history	-10.7103
▁series	-10.7103
▁pretend	-10.7103
▁chat	-10.7103
▁interviews	-10.7103
▁lane	-10.7103
▁lakers	-10.7103
▁fancy	-10.7103
▁cheer	-10.7104
▁hole	-10.7104
▁engaged	-10.7105
▁habit	-10.7105
▁management	-10.7106
▁:/	-10.7106
▁nap	-10.7106
▁warning	-10.7109
pa	-10.7111
▁baked	-10.7111
▁currently	-10.7113
▁purchased	-10.7115
▁slowly	-10.7118
▁perfectly	-10.712
thats	-10.7129
▁locked	-10.7132
og	-10.7133
▁selling	-10.7144
▁Had	-10.7154
▁Hav	-10.7175
▁raining	-10.7178
▁tip	-10.718
▁throwing	-10.7189
ner	-10.719
ud	-10.7197
▁teenager	-10.7206
▁pigs	-10.7206
▁bite	-10.721
▁bro	-10.7215
▁hey	-10.722
if	-10.725
▁th	-10.7255
Not	-10.7262
▁vi	-10.7265
▁braves	-10.7266
▁St	-10.7317
▁spiders	-10.7322
oon	-10.7323
Sometimes	-10.7327
▁burn	-10.733
▁Hahaha	-10.7332
▁adopt	-10.7339
▁arrive	-10.7344
▁dance	-10.7353
▁correct	-10.7353
▁develop	-10.7358
▁star	-10.7358
▁Should	-10.7359
▁argument	-10.7359
▁pleasant	-10.7359
▁science	-10.7359
▁application	-10.7359
▁funeral	-10.7359
▁Happy	-10.7359
▁rich	-10.7359
▁stray	-10.7359
:1157	-10.736
▁suit	-10.7361
▁Perhaps	-10.7361
▁plus	-10.7361
RAM	-10.7361
▁driveway	-10.7362
▁nowhere	-10.7364
▁bug	-10.737
▁Whoa	-10.7371
▁burned	-10.7378
▁However	-10.7379
▁cop	-10.7386
day	-10.7398
,3|5|5_	-10.7401
workers	-10.7413
.,375,	-10.7428
▁fighting	-10.7444
der	-10.7452
▁pot	-10.7452
<	-10.7453
▁isnt	-10.7456
▁plate	-10.7465
▁film	-10.7465
▁blessing	-10.7473
ning	-10.7515
▁woods	-10.7556
,1|1|1_	-10.7576
Maybe	-10.759
ron	-10.7593
▁accomplish	-10.7602
▁physical	-10.7617
NIG	-10.7622
,181,	-10.7622
:1047	-10.7622
▁blind	-10.7622
▁bottle	-10.7622
▁department	-10.7622
▁happiness	-10.7622
▁hobby	-10.7622
▁irritating	-10.7622
▁league	-10.7622
▁teeth	-10.7622
:469	-10.7622
▁judge	-10.7622
▁held	-10.7623
▁bond	-10.7623
▁role	-10.7623
▁heights	-10.7623
▁snow	-10.7623
▁chase	-10.7624
▁injured	-10.7624
▁lying	-10.7624
▁Ok	-10.7626
:19	-10.7626
▁delivery	-10.7627
▁thoughtful	-10.7636
▁farted	-10.7639
▁allow	-10.764
▁cow	-10.7643
▁hu	-10.766
▁Went	-10.7663
▁attic	-10.7667
▁changes	-10.7672
▁siblings	-10.7674
Do	-10.7698
▁row	-10.7703
▁comp	-10.7719
de	-10.7725
▁falling	-10.7726
ged	-10.7735
▁drug	-10.7739
▁De	-10.7808
.,748,	-10.7815
▁flood	-10.7851
!!!!	-10.7851
:1572	-10.7854
Good	-10.7861
▁kiss	-10.7871
▁please	-10.7879
▁spoke	-10.7888
▁sub	-10.7891
▁Eagles	-10.7892
▁budget	-10.7892
▁complex	-10.7892
▁elderly	-10.7892
▁hockey	-10.7892
:1001	-10.7892
:1042	-10.7892
:350	-10.7892
:909	-10.7892
▁choose	-10.7892
,4|3|4_5|5|5,	-10.7893
▁path	-10.7893
▁High	-10.7893
▁obviously	-10.7894
▁stage	-10.7894
▁ta	-10.7895
▁respond	-10.7895
:797	-10.7896
▁Been	-10.7898
▁AC	-10.7907
▁rewarding	-10.7911
▁allowed	-10.7912
▁fairly	-10.7914
▁boys	-10.7921
▁Seem	-10.7932
▁yo	-10.7942
▁hardest	-10.7951
:85	-10.796
Are	-10.797
|5|5_5|5|5,	-10.7977
▁picking	-10.8004
▁excuse	-10.8013
▁n	-10.8015
▁characters	-10.8027
▁Bes	-10.8032
▁payment	-10.8034
▁videos	-10.8037
▁gra	-10.8039
ating	-10.8043
our	-10.8081
ster	-10.8087
▁player	-10.8095
▁bo	-10.8097
Thanks	-10.8119
▁cross	-10.813
▁sadly	-10.8135
Thi	-10.8138
▁60	-10.8146
▁mix	-10.8151
gu	-10.8162
▁sudden	-10.8165
▁peaceful	-10.8166
▁bump	-10.8167
▁US	-10.817
▁graduating	-10.817
▁miserable	-10.817
▁nintendo	-10.817
▁ocean	-10.817
▁opposite	-10.817
▁president	-10.817
▁spirit	-10.817
▁terribly	-10.817
▁uncomfortable	-10.817
▁shining	-10.817
▁hiking	-10.817
,3|4|5_5|5|5,	-10.817
▁ripped	-10.817
▁South	-10.817
▁potty	-10.8171
▁fries	-10.8171
▁reasons	-10.8174
▁motivated	-10.8179
▁cr	-10.8179
ent	-10.8184
▁youtube	-10.8189
lthough	-10.8197
▁file	-10.8198
▁ace	-10.8198
▁rely	-10.8199
▁workers	-10.8213
End	-10.8219
▁trained	-10.822
▁phones	-10.8234
.,10,	-10.8235
▁teaching	-10.8239
▁itself	-10.8245
lent	-10.8251
ound	-10.8258
,273,	-10.8276
▁none	-10.8286
▁flu	-10.8293
.,525,	-10.8313
▁drugs	-10.8331
▁sa	-10.8359
well	-10.8375
tion	-10.8403
:1099	-10.8412
▁bear	-10.8414
▁add	-10.8418
Yea	-10.8423
ations	-10.8425
:171	-10.8427
▁sweat	-10.8428
▁refuse	-10.8441
▁sl	-10.8443
▁$100	-10.8453
▁despi	-10.8454
,448,	-10.8456
▁available	-10.8456
▁hilarious	-10.8456
▁inconsiderate	-10.8456
▁jail	-10.8456
▁opinion	-10.8456
▁precious	-10.8456
▁smoke	-10.8456
▁strength	-10.8456
▁unknown	-10.8456
▁writing	-10.8456
,329,	-10.8456
▁guard	-10.8456
▁severe	-10.8456
▁Anything	-10.8456
▁lord	-10.8456
▁brain	-10.8456
▁sunday	-10.8456
▁100%	-10.8457
▁Hard	-10.8457
▁rage	-10.8458
▁cell	-10.8458
▁teen	-10.8465
▁hired	-10.847
▁fi	-10.8473
▁diagnose	-10.8485
.,262,	-10.8488
▁sucked	-10.8489
▁achieve	-10.8496
▁J	-10.8497
▁canceled	-10.8501
▁atleast	-10.8504
▁workout	-10.8505
▁calls	-10.8523
.,160,	-10.8524
▁heck	-10.8536
▁message	-10.8555
.,100,	-10.8561
▁parked	-10.8579
▁opening	-10.8584
▁eggs	-10.8586
▁cared	-10.8592
▁employee	-10.8596
▁bath	-10.861
▁cops	-10.8624
▁simpl	-10.8639
ru	-10.8644
."	-10.8648
▁sea	-10.8663
,5|5|5_3|4|	-10.8663
00	-10.8691
▁arm	-10.8692
:222	-10.8699
▁21	-10.8714
School	-10.8718
▁blow	-10.8725
▁condition	-10.8728
▁Feel	-10.8729
ug	-10.873
▁vomit	-10.8731
▁ignore	-10.8735
they	-10.8737
▁recommend	-10.8742
▁hire	-10.8742
▁mental	-10.8745
▁fond	-10.8745
▁$1	-10.8746
▁drama	-10.875
▁Plus	-10.875
▁Also	-10.875
▁English	-10.875
▁Texas	-10.875
▁crime	-10.875
▁gesture	-10.875
▁neither	-10.875
▁sauce	-10.875
▁volunteer	-10.875
▁pressure	-10.875
▁harm	-10.875
▁giant	-10.875
▁pregnancy	-10.875
▁cashier	-10.875
▁paycheck	-10.875
▁spring	-10.8751
▁punch	-10.8752
▁earth	-10.8753
▁dear	-10.8754
▁Okay	-10.8755
▁abandoned	-10.8755
▁nights	-10.8755
▁built	-10.8757
▁Wait	-10.8758
▁tall	-10.8762
▁arrived	-10.8767
▁posted	-10.8777
).	-10.878
▁Chat	-10.8795
▁Bett	-10.8813
▁traveling	-10.8814
son	-10.8838
▁presents	-10.8876
$	-10.8884
,322,	-10.8901
,123,	-10.8911
▁si	-10.8931
rank	-10.8935
ten	-10.8939
▁agreed	-10.8945
▁kinds	-10.8948
▁members	-10.8963
▁Big	-10.8973
:1575	-10.9009
Just	-10.9021
▁Ohh	-10.9035
▁auto	-10.9037
▁fill	-10.9044
▁fortunate	-10.9048
|5|5,	-10.905
▁protect	-10.9052
▁birth	-10.9053
▁NFL	-10.9053
▁airplane	-10.9053
▁knee	-10.9053
▁motorcycle	-10.9053
▁preparing	-10.9053
▁uneasy	-10.9053
▁yep	-10.9053
▁haircut	-10.9053
▁center	-10.9053
▁livid	-10.9053
▁sink	-10.9053
▁view	-10.9053
▁marry	-10.9053
▁donuts	-10.9053
▁dying	-10.9053
▁nuts	-10.9054
▁kidding	-10.9054
▁apple	-10.9055
▁relieved	-10.9058
▁shy	-10.9062
▁Tomorrow	-10.9062
▁abused	-10.9066
▁screaming	-10.9067
▁barking	-10.9067
▁refused	-10.9069
▁overall	-10.9071
▁rescued	-10.9081
▁finances	-10.9094
▁however	-10.9094
led	-10.9103
:856	-10.9112
▁loans	-10.912
▁Let	-10.9121
▁clue	-10.9126
▁deserves	-10.9131
ible	-10.9133
▁war	-10.9135
▁manag	-10.9142
▁paint	-10.9183
▁character	-10.9192
▁joke	-10.921
▁review	-10.9211
▁shoe	-10.9213
▁experienced	-10.9214
▁mile	-10.9216
▁roommates	-10.9226
▁Mom	-10.9238
▁80	-10.9244
:20	-10.9249
.,99,	-10.9251
▁tea	-10.9253
body	-10.9283
▁$50	-10.9288
rr	-10.9288
▁main	-10.9307
▁teachers	-10.9311
▁mark	-10.9318
▁reward	-10.9326
law	-10.9335
▁See	-10.9345
▁affect	-10.9345
▁Ba	-10.9356
ton	-10.9358
▁tax	-10.9361
▁nurse	-10.9365
,725,	-10.9366
.,20,	-10.9366
▁Mario	-10.9366
▁Pokemon	-10.9366
▁ourselves	-10.9366
▁society	-10.9366
▁;)	-10.9366
▁silly	-10.9366
▁binge	-10.9366
▁unsure	-10.9366
,284,	-10.9366
▁income	-10.9366
:894	-10.9366
▁medicine	-10.9366
▁client	-10.9366
▁property	-10.9366
▁duty	-10.9366
▁junk	-10.9366
▁Spanish	-10.9366
▁battle	-10.9366
▁Lot	-10.9367
▁sight	-10.9367
▁pie	-10.9367
▁happier	-10.9367
▁grill	-10.9368
▁green	-10.937
▁south	-10.937
▁Famil	-10.9371
▁spare	-10.9372
▁Holy	-10.9373
▁owned	-10.9374
▁thrilled	-10.9375
▁dry	-10.9375
gg	-10.9376
▁Recently	-10.9378
▁tons	-10.939
▁wise	-10.9404
gged	-10.9412
▁multipl	-10.942
int	-10.942
▁pulling	-10.9433
.,5|5|5_3|3|	-10.9438
▁names	-10.9451
▁friendly	-10.9459
ect	-10.9465
▁sooner	-10.9478
▁matters	-10.95
▁ends	-10.9528
Thats	-10.9531
.,3|3|3_5|5|5,	-10.9535
▁ba	-10.9546
ger	-10.9549
,5|5|5_5|5|5,<	-10.9571
▁cameras	-10.9572
▁em	-10.9578
don	-10.9604
▁wash	-10.9606
ced	-10.9623
▁sky	-10.9625
rate	-10.9636
▁rides	-10.9643
.,267,	-10.9645
▁tour	-10.9646
hi	-10.9657
▁sales	-10.9657
▁Could	-10.9663
.,5|5|5_3|4|	-10.9671
▁serve	-10.9673
▁purchase	-10.9674
:1569	-10.9674
▁creep	-10.9682
.,11,	-10.9688
▁disease	-10.9688
▁envy	-10.9688
▁escape	-10.9688
▁material	-10.9688
▁nursing	-10.9688
▁routine	-10.9688
▁vacuum	-10.9688
:126	-10.9688
▁Love	-10.9688
▁Omg	-10.9688
▁witness	-10.9688
▁repeat	-10.9688
▁nature	-10.9688
▁response	-10.9688
▁hurry	-10.9688
▁beginning	-10.9688
▁gut	-10.9689
▁expectations	-10.9689
▁tight	-10.969
▁otherwise	-10.9692
▁familiar	-10.9693
▁songs	-10.9693
▁nearby	-10.9694
like	-10.9698
ga	-10.9699
▁mower	-10.9701
▁cheaper	-10.9702
▁survived	-10.9703
light	-10.9704
▁singing	-10.9705
▁entered	-10.9706
▁answers	-10.9712
▁scheduled	-10.9716
▁painting	-10.972
!,4|5|5_5|5|5,	-10.9733
,4|3|3_5|5|	-10.9735
▁attacked	-10.9736
▁se	-10.9736
:1	-10.9757
▁considering	-10.9766
▁snacks	-10.9767
ew	-10.9781
▁relaxed	-10.9787
▁numbers	-10.979
cted	-10.9836
,5|5|5_3|4|4,	-10.9843
▁crowd	-10.9845
gh	-10.989
blew	-10.9908
▁classic	-10.9916
.,381,	-10.9936
aid	-10.996
Was	-10.9991
▁pit	-10.9995
lol	-10.9998
▁stores	-10.9998
▁spoil	-11.0002
▁destroy	-11.0002
▁mention	-11.0002
end	-11.0003
▁passion	-11.0005
▁survive	-11.0006
▁nieces	-11.0011
:56	-11.0011
▁moms	-11.0015
,686,	-11.0021
▁Europe	-11.0021
▁curious	-11.0021
▁female	-11.0021
▁frightened	-11.0021
▁private	-11.0021
▁professor	-11.0021
▁skydiving	-11.0021
▁unfair	-11.0021
▁adventure	-11.0021
,155,	-11.0022
▁Facebook	-11.0022
▁committed	-11.0022
▁damn	-11.0022
▁cheesecake	-11.0022
▁balance	-11.0022
▁bread	-11.0022
▁chill	-11.0022
▁wound	-11.0022
▁illness	-11.0022
▁prank	-11.0022
▁properly	-11.0023
▁chose	-11.0023
▁torn	-11.0024
▁arrested	-11.0024
▁Although	-11.0029
▁Before	-11.0032
.,524,	-11.0034
▁owe	-11.0037
▁17	-11.0048
▁shoot	-11.005
▁replaced	-11.006
▁peed	-11.0063
vo	-11.0083
▁rec	-11.013
▁Dad	-11.0141
.,56,	-11.0145
nce	-11.0148
▁albums	-11.0173
.,196,	-11.0174
▁employees	-11.0199
▁option	-11.0212
▁album	-11.0212
▁guessing	-11.0225
ear	-11.0228
▁fart	-11.0232
ue	-11.0238
▁cousins	-11.0244
?,5|5|5_4|4|	-11.0284
▁Ro	-11.0289
ide	-11.0322
une	-11.0325
▁annoy	-11.0326
▁questions	-11.0327
▁happend	-11.0331
.,139,	-11.0333
▁addict	-11.0346
,5|5|5_4|4|	-11.0347
▁abuse	-11.0352
dy	-11.036
▁exact	-11.0361
▁actual	-11.0361
▁wishing	-11.0362
▁America	-11.0362
▁direct	-11.0362
▁fiance	-11.0362
▁usual	-11.0364
▁Since	-11.0366
▁attached	-11.0366
▁dancing	-11.0366
▁depressing	-11.0366
▁encourage	-11.0366
▁environment	-11.0366
▁perhaps	-11.0366
▁salad	-11.0366
▁succeed	-11.0366
▁trustworthy	-11.0366
▁version	-11.0366
:580	-11.0366
▁convince	-11.0366
▁thousand	-11.0366
:1169	-11.0366
:281	-11.0366
▁outcome	-11.0366
▁certification	-11.0366
▁hometown	-11.0366
▁litter	-11.0367
▁model	-11.0367
▁qualified	-11.0368
▁embarassing	-11.0369
▁Please	-11.037
▁organized	-11.0371
▁panic	-11.0372
▁physically	-11.0373
▁fried	-11.0374
▁thoughts	-11.0379
--	-11.038
▁personally	-11.0385
,388,	-11.0387
▁Dr	-11.0389
▁windows	-11.039
▁design	-11.039
▁hell	-11.0395
▁tasted	-11.0397
▁prove	-11.0399
▁tail	-11.0401
▁landed	-11.0402
▁kicked	-11.0403
▁damaged	-11.0404
▁related	-11.0405
va	-11.0416
▁jumping	-11.0416
▁crushed	-11.0418
▁unit	-11.0435
▁lotto	-11.0436
,5|5|5_4|5|	-11.0441
▁diapers	-11.0479
hing	-11.0516
▁nightmares	-11.0517
▁options	-11.0523
,3|3|3_5|5|5,	-11.0534
▁nightmare	-11.0569
▁finger	-11.057
ittle	-11.0582
▁200	-11.0588
,160,	-11.0639
▁colors	-11.0657
▁dealing	-11.066
did	-11.0669
▁yell	-11.0684
▁deliver	-11.0698
▁farm	-11.0702
▁lift	-11.0702
▁enter	-11.0704
▁concern	-11.0704
off	-11.0708
ball	-11.0711
▁suggest	-11.0718
ny	-11.0718
▁recent	-11.0719
,119,	-11.0723
▁Amazing	-11.0723
▁Honestly	-11.0723
▁OMG	-11.0723
▁charity	-11.0723
▁complicated	-11.0723
▁confused	-11.0723
▁deposit	-11.0723
▁episode	-11.0723
▁internship	-11.0723
▁newborn	-11.0723
▁overwhelming	-11.0723
▁physics	-11.0723
▁purse	-11.0723
▁register	-11.0723
▁squirrel	-11.0723
▁Thanksgiving	-11.0723
▁gambling	-11.0723
▁remain	-11.0723
▁tasty	-11.0723
▁crappy	-11.0723
▁intense	-11.0723
▁depression	-11.0723
▁starved	-11.0723
▁daycare	-11.0724
▁reliable	-11.0724
▁lack	-11.0725
▁fur	-11.0725
▁embarassed	-11.0726
▁exist	-11.0726
▁male	-11.0726
▁grabb	-11.0727
▁sta	-11.0727
▁understood	-11.0728
,9,	-11.073
▁based	-11.073
▁Stay	-11.073
▁continues	-11.0732
▁Work	-11.0738
▁lessons	-11.0741
▁shooting	-11.0747
▁mixed	-11.0749
▁Ei	-11.075
▁staring	-11.0753
▁recovered	-11.0762
3_5|5|5,	-11.0763
▁shocking	-11.0765
▁trips	-11.0771
▁chances	-11.0772
▁praying	-11.0782
???	-11.0783
▁complaining	-11.0784
.,727,	-11.0785
▁pe	-11.082
▁$200	-11.0833
▁decisions	-11.0843
gi	-11.0851
▁catching	-11.0863
▁actions	-11.0864
▁tools	-11.0865
▁sooo	-11.0875
.,104,	-11.0892
▁storms	-11.0896
ied	-11.0915
lin	-11.0915
let	-11.0922
▁shorts	-11.0929
pped	-11.0936
▁treatment	-11.0941
▁pig	-11.0943
▁birds	-11.0972
od	-11.0981
,243,	-11.1012
ex	-11.102
▁def	-11.1022
ier	-11.1031
:1570	-11.1033
10	-11.1068
▁search	-11.1072
▁relationships	-11.1075
▁crack	-11.108
▁coast	-11.1088
▁flip	-11.1091
▁gold	-11.1094
.,227,	-11.1094
▁Vegas	-11.1094
▁allergic	-11.1094
▁expired	-11.1094
▁generation	-11.1094
▁motivation	-11.1094
▁nostalgia	-11.1094
▁raffle	-11.1094
▁rules	-11.1094
▁stroke	-11.1094
▁wrote	-11.1094
▁zoo	-11.1094
:467	-11.1094
▁average	-11.1094
▁casino	-11.1094
▁election	-11.1094
▁hundred	-11.1094
▁chasing	-11.1094
:661	-11.1094
▁root	-11.1094
:784	-11.1094
▁Hello	-11.1094
▁attractive	-11.1094
▁grab	-11.1094
▁ease	-11.1094
:159	-11.1094
▁dragon	-11.1094
▁retirement	-11.1095
▁Nah	-11.1095
:807	-11.1096
▁coach	-11.1097
▁everybody	-11.1098
▁reflect	-11.1098
▁ditched	-11.1099
▁spoken	-11.11
▁setting	-11.1104
▁parties	-11.1105
▁earn	-11.1111
▁hung	-11.1114
▁lower	-11.1115
▁poo	-11.1115
▁yelling	-11.1116
▁rip	-11.1117
ious	-11.1125
▁ne	-11.1131
▁leftovers	-11.1138
▁failing	-11.1157
▁hug	-11.1159
ign	-11.1164
mb	-11.1172
even	-11.1187
▁pop	-11.1202
▁scares	-11.1214
:112	-11.1239
K	-11.128
gan	-11.1293
:114	-11.1304
▁clo	-11.1315
▁savings	-11.1343
some	-11.1356
ice	-11.1369
bu	-11.1381
,43,	-11.1411
▁na	-11.1418
mon	-11.1427
▁soul	-11.1432
.....	-11.1435
book	-11.1439
ama	-11.144
▁NO	-11.1445
▁legs	-11.1454
cy	-11.147
da	-11.1475
▁babysit	-11.1477
,317,	-11.1478
,447,	-11.1478
ING	-11.1478
▁2018	-11.1478
▁California	-11.1478
▁apparently	-11.1478
▁colleague	-11.1478
▁draft	-11.1478
▁families	-11.1478
▁fruit	-11.1478
▁geez	-11.1478
▁humiliated	-11.1478
▁inspiring	-11.1478
▁knife	-11.1478
▁marathon	-11.1478
▁piano	-11.1478
▁software	-11.1478
▁sushi	-11.1478
▁treasure	-11.1478
▁brush	-11.1478
▁cavs	-11.1478
▁economy	-11.1478
▁isolated	-11.1478
▁printer	-11.1478
▁loneliness	-11.1478
▁vegan	-11.1478
:881	-11.1479
▁clown	-11.1479
▁chores	-11.1479
▁buffet	-11.1479
▁closing	-11.1479
▁restroom	-11.1479
▁Dogs	-11.1479
▁achievement	-11.148
.,5|5|5_5|4|	-11.148
▁Yay	-11.1481
▁Actually	-11.1482
▁Give	-11.1482
▁socks	-11.1482
▁sur	-11.1483
▁reality	-11.1483
:1571	-11.1484
▁highway	-11.1485
ON	-11.1485
▁worries	-11.1488
▁ability	-11.1489
▁24	-11.1491
▁events	-11.1492
▁copy	-11.1493
▁simpler	-11.1493
▁hunting	-11.1496
,5|5|5_3|3|	-11.1501
▁wracking	-11.1501
slept	-11.1504
▁mission	-11.1512
▁practiced	-11.1513
▁nope	-11.1519
▁Awe	-11.1519
▁faster	-11.1537
▁adults	-11.1541
yes	-11.1542
▁killing	-11.1543
.,527,	-11.1545
land	-11.1576
ple	-11.1581
of	-11.161
by	-11.167
▁worrying	-11.1685
zz	-11.1709
▁task	-11.1722
▁tricks	-11.1729
▁pen	-11.1741
▁li	-11.1751
not	-11.1767
▁ages	-11.1788
,302,	-11.1828
,639,	-11.183
▁Hmm	-11.1831
unk	-11.1832
5_4|5|4,	-11.1832
yea	-11.1834
Really	-11.1846
▁shoulder	-11.1847
▁Ju	-11.1852
was	-11.1855
ward	-11.1857
▁chip	-11.1859
▁retire	-11.1862
are	-11.1871
▁engine	-11.1878
▁Tinder	-11.1878
▁Usually	-11.1878
▁abilities	-11.1878
▁contract	-11.1878
▁fantasy	-11.1878
▁generous	-11.1878
▁journey	-11.1878
▁keto	-11.1878
▁maintain	-11.1878
▁midnight	-11.1878
▁pocket	-11.1878
▁pokemon	-11.1878
▁political	-11.1878
▁reschedule	-11.1878
▁thrones	-11.1878
▁turtle	-11.1878
▁voice	-11.1878
▁cruel	-11.1878
▁responsibility	-11.1878
▁tradition	-11.1878
:1046	-11.1878
▁companies	-11.1878
:662	-11.1878
▁waitress	-11.1879
▁vase	-11.1879
▁paperwork	-11.1879
▁dislike	-11.1879
▁info	-11.1879
▁personality	-11.1879
▁travelling	-11.188
▁pile	-11.188
▁Korean	-11.188
▁Finger	-11.1881
▁skin	-11.1881
▁American	-11.1884
▁34	-11.1887
▁homework	-11.1887
▁mis	-11.1888
▁approached	-11.1892
▁Finally	-11.1893
▁lend	-11.1897
▁anytime	-11.1899
▁sing	-11.1901
▁action	-11.1902
▁choices	-11.1902
▁apologized	-11.1906
▁careless	-11.1909
▁crossing	-11.191
▁plays	-11.191
▁officer	-11.191
▁breaks	-11.1925
▁texting	-11.1927
▁di	-11.1929
▁meaning	-11.1933
▁*	-11.1935
▁ge	-11.1939
:1144	-11.1944
▁bout	-11.1962
ris	-11.1975
▁wind	-11.1987
▁rained	-11.199
▁Red	-11.2002
▁greatest	-11.2004
!,4|4|4_	-11.202
ately	-11.2021
cc	-11.2039
j	-11.2051
iest	-11.2054
▁secrets	-11.2059
▁cam	-11.2072
ile	-11.2076
haha	-11.2092
:249	-11.2141
▁pound	-11.2143
▁omg	-11.218
▁accidents	-11.2207
▁Car	-11.2216
over	-11.2218
▁tires	-11.2222
▁Ho	-11.2223
▁500	-11.2236
▁donate	-11.2241
:1574	-11.2255
shirt	-11.2262
Once	-11.2264
ese	-11.227
itting	-11.2273
▁includ	-11.2275
▁Le	-11.2287
:79	-11.229
▁inter	-11.2293
▁brown	-11.2294
▁courage	-11.2295
▁electric	-11.2295
,234,	-11.2295
:602	-11.2295
▁access	-11.2295
▁activities	-11.2295
▁bittersweet	-11.2295
▁chair	-11.2295
▁chemistry	-11.2295
▁discount	-11.2295
▁exercising	-11.2295
▁innocent	-11.2295
▁laundry	-11.2295
▁mechanic	-11.2295
▁parcel	-11.2295
▁popular	-11.2295
▁recital	-11.2295
▁scold	-11.2295
▁shadow	-11.2295
▁tragic	-11.2295
,463,	-11.2295
:1162	-11.2295
:948	-11.2295
▁accuse	-11.2295
▁curl	-11.2295
:353	-11.2295
▁unique	-11.2295
▁craving	-11.2295
,63,	-11.2295
▁disney	-11.2295
▁unhappy	-11.2295
▁wore	-11.2296
▁master	-11.2296
▁scrap	-11.2296
▁reaction	-11.2297
▁taxes	-11.2297
,5|5|5_1|1|	-11.2297
▁chatting	-11.2298
▁determined	-11.2299
▁safety	-11.2299
▁Call	-11.2299
▁trailer	-11.2302
▁More	-11.2305
▁min	-11.2308
▁round	-11.2309
▁22	-11.2311
▁screamed	-11.2312
▁secretly	-11.2316
▁lab	-11.2319
▁ER	-11.232
▁singer	-11.2327
▁healing	-11.2334
▁Doesn	-11.2339
ati	-11.2342
▁toward	-11.2361
▁wine	-11.2379
▁treated	-11.238
▁hall	-11.2384
▁benefits	-11.2392
ome	-11.2397
!,220,	-11.2399
▁45	-11.2399
▁lies	-11.2413
▁mi	-11.243
▁hi	-11.243
ial	-11.2457
ore	-11.2487
▁heading	-11.2487
.,506,	-11.2498
▁reviews	-11.2506
ise	-11.2506
▁wh	-11.255
▁players	-11.2557
▁tool	-11.2558
:250	-11.2562
▁hoped	-11.2565
its	-11.2566
▁ohh	-11.2568
▁interviewed	-11.2572
▁medication	-11.2572
▁toddler	-11.2573
▁challenge	-11.2574
▁stink	-11.2578
rus	-11.258
▁handl	-11.2582
▁su	-11.26
cent	-11.2645
▁spit	-11.2649
▁din	-11.2678
ction	-11.2679
40	-11.268
▁shots	-11.2684
Sounds	-11.2698
:1160	-11.2705
▁rais	-11.2708
▁sorts	-11.2709
Have	-11.2711
,524,	-11.2714
▁collect	-11.2728
▁bull	-11.273
▁non	-11.273
▁rob	-11.273
,5|5|5_2|4|	-11.273
,653,	-11.273
▁Apparently	-11.273
▁Hurricane	-11.273
▁Interesting	-11.273
▁LOVE	-11.273
▁Summer	-11.273
▁aggravating	-11.273
▁dessert	-11.273
▁frequently	-11.273
▁government	-11.273
▁halloween	-11.273
▁increase	-11.273
▁muscle	-11.273
▁perspective	-11.273
▁puppies	-11.273
▁secure	-11.273
▁shark	-11.273
▁stubb	-11.273
▁underwear	-11.273
,741,	-11.273
▁discuss	-11.273
▁stairs	-11.273
▁vibes	-11.273
:599	-11.273
▁darn	-11.273
▁headache	-11.273
▁independent	-11.273
▁oven	-11.273
▁ramen	-11.273
:319	-11.273
▁madden	-11.273
▁split	-11.273
▁irresponsible	-11.273
▁sketchy	-11.273
▁WOW	-11.273
▁sex	-11.2731
▁hint	-11.2731
,4|4|5_4|5|5,	-11.2731
▁mold	-11.2731
▁example	-11.2732
▁engineering	-11.2732
▁Lucky	-11.2732
▁handful	-11.2733
▁selfish	-11.2733
▁edge	-11.2734
▁City	-11.2734
▁boxes	-11.2737
▁mainly	-11.2737
▁cage	-11.2739
til	-11.2741
▁cope	-11.2742
▁rear	-11.2742
▁salt	-11.2744
▁puked	-11.2746
▁boost	-11.2746
▁firm	-11.2747
▁deer	-11.2752
▁everytime	-11.2752
▁cracked	-11.2753
▁addiction	-11.2753
▁earned	-11.2753
▁spoiled	-11.2756
▁vomited	-11.2759
can	-11.2781
▁favorites	-11.2781
▁Pan	-11.2781
mash	-11.2782
.,286,	-11.2784
▁shared	-11.2787
▁expenses	-11.2789
▁wave	-11.2801
.,128,	-11.2806
▁vacations	-11.2808
▁lines	-11.2812
▁IS	-11.2822
▁gig	-11.2823
▁wondering	-11.2845
tle	-11.2871
▁doors	-11.2871
▁mountains	-11.288
▁Fir	-11.2881
▁mate	-11.2899
▁Da	-11.2906
▁Haven	-11.2918
ient	-11.2922
ions	-11.297
▁com	-11.2985
OU	-11.2988
▁fe	-11.2989
.,5|5|5_4|5|	-11.3006
▁force	-11.3011
▁relatives	-11.3015
und	-11.3016
,478,	-11.3017
.,545,	-11.3025
▁willing	-11.3025
▁rollercoaster	-11.3027
▁mountain	-11.303
▁boot	-11.3042
.,4	-11.3061
uring	-11.3087
▁Di	-11.309
▁bags	-11.3091
▁nicer	-11.3091
work	-11.3113
ual	-11.3118
▁magic	-11.3133
ank	-11.314
▁mini	-11.3141
line	-11.3146
front	-11.3152
waiting	-11.3152
.,388,	-11.3157
▁mu	-11.3159
,5|5|5_	-11.3162
▁ol	-11.3164
▁hunt	-11.3164
wow	-11.3165
year	-11.3174
!,269,	-11.3177
que	-11.3178
▁original	-11.3179
▁basic	-11.3184
&	-11.3184
▁miracle	-11.3184
,282,	-11.3184
,706,	-11.3184
▁BMW	-11.3184
▁Chicago	-11.3184
▁Colorado	-11.3184
▁Switch	-11.3184
▁Tesla	-11.3184
▁abroad	-11.3184
▁admire	-11.3184
▁calculus	-11.3184
▁downstairs	-11.3184
▁frightening	-11.3184
▁heaven	-11.3184
▁lebron	-11.3184
▁necklace	-11.3184
▁possibly	-11.3184
▁salary	-11.3184
▁sharing	-11.3184
▁sidewalk	-11.3184
▁technology	-11.3184
▁Japan	-11.3184
▁chef	-11.3184
▁tech	-11.3184
▁Old	-11.3185
▁flash	-11.3185
▁Spring	-11.3185
▁alternative	-11.3185
▁shady	-11.3185
▁slice	-11.3185
▁thru	-11.3185
▁evil	-11.3185
▁outfit	-11.3185
▁potatoes	-11.3185
▁Mexican	-11.3185
▁product	-11.3185
▁freshman	-11.3185
▁comment	-11.3186
▁duck	-11.3186
▁forgotten	-11.3187
▁belt	-11.319
▁$25	-11.3195
▁forgetting	-11.3196
▁lunches	-11.3199
,225,	-11.3204
▁bake	-11.3211
▁lifting	-11.3212
▁rewarded	-11.3213
▁handy	-11.3221
▁ref	-11.3224
▁Feeling	-11.3234
▁scored	-11.3235
▁packing	-11.3241
▁bothers	-11.3258
▁trees	-11.3283
25	-11.3288
Haha	-11.3289
▁besides	-11.3291
▁tri	-11.3316
▁experiences	-11.3321
▁site	-11.3346
▁item	-11.3352
▁forest	-11.3367
▁Star	-11.337
▁gi	-11.337
▁gifted	-11.3385
▁bugg	-11.339
hahaha	-11.3402
▁Fel	-11.3414
▁le	-11.3417
eep	-11.344
▁Li	-11.3456
▁,5|5|5_4|4|4,	-11.3464
▁mum	-11.3466
AT	-11.3474
▁channel	-11.3505
▁term	-11.3506
▁tre	-11.3506
▁diaper	-11.3506
ries	-11.3508
ler	-11.3535
▁sn	-11.354
▁groups	-11.3541
▁ca	-11.3549
vy	-11.3564
,274,	-11.3569
rain	-11.3582
▁San	-11.359
ship	-11.3607
watch	-11.361
▁fl	-11.3614
V	-11.3616
▁scream	-11.362
boy	-11.3629
See	-11.3631
▁suffer	-11.3639
par	-11.3651
▁guilt	-11.3654
▁surprising	-11.3655
izing	-11.3655
▁mosquito	-11.366
▁document	-11.366
,5|5|5_5|5|4,	-11.3661
,724,	-11.3661
▁Almost	-11.3661
▁Both	-11.3661
▁September	-11.3661
▁abusive	-11.3661
▁bottom	-11.3661
▁buddies	-11.3661
▁circus	-11.3661
▁corrupt	-11.3661
▁florida	-11.3661
▁impossible	-11.3661
▁location	-11.3661
▁request	-11.3661
▁retail	-11.3661
▁romantic	-11.3661
▁smack	-11.3661
▁tattoo	-11.3661
▁valuable	-11.3661
▁written	-11.3661
,507,	-11.3661
▁impact	-11.3661
▁Otherwise	-11.3661
▁kindergarten	-11.3661
▁lawyer	-11.3661
▁awake	-11.3661
▁jacket	-11.3661
▁rabbit	-11.3661
ified	-11.3661
▁appear	-11.3661
▁bench	-11.3661
▁shaking	-11.3661
▁Canada	-11.3661
▁freedom	-11.3662
▁Six	-11.3662
ility	-11.3662
▁trial	-11.3662
▁extend	-11.3664
▁Youtube	-11.3664
▁Though	-11.3664
▁replacement	-11.3665
▁May	-11.3665
▁Kinda	-11.3665
▁pink	-11.3666
▁removed	-11.3666
▁Seriously	-11.3668
▁rarely	-11.3674
▁skiing	-11.3678
▁retired	-11.3679
▁unprepared	-11.3679
▁mid	-11.3679
▁belong	-11.3681
go	-11.3684
▁counter	-11.3691
▁glo	-11.3695
▁Am	-11.3704
▁leaves	-11.3704
,139,	-11.3707
▁safely	-11.3716
▁joined	-11.3732
▁fac	-11.3743
▁soda	-11.3751
Lately	-11.3753
ipped	-11.3759
▁sum	-11.376
!,438,	-11.3767
ddy	-11.3773
now	-11.3848
,3|3|4_	-11.3856
▁fee	-11.3884
,7,	-11.3904
IT	-11.3906
signed	-11.3909
▁teenagers	-11.3959
▁cl	-11.3993
ok	-11.3996
▁prices	-11.3998
thing	-11.4018
▁hat	-11.4023
,409,	-11.4028
how	-11.4079
▁scam	-11.4088
cha	-11.4099
:1573	-11.4121
Every	-11.4127
▁draw	-11.4127
▁spin	-11.4128
Sorry	-11.4129
▁cho	-11.4137
▁settle	-11.4147
▁hid	-11.4147
▁release	-11.4148
▁puke	-11.4148
▁,4|4|4_5|	-11.4154
▁significant	-11.4155
▁temp	-11.4156
uc	-11.4157
▁exp	-11.4158
▁fo	-11.4158
,5|4|	-11.4159
▁trauma	-11.416
▁companion	-11.416
▁December	-11.4161
▁appetite	-11.4161
▁husky	-11.4161
+	-11.4161
,147,	-11.4161
\	-11.4161
responsibilities	-11.4161
▁Croatia	-11.4161
▁Honda	-11.4161
▁Netflix	-11.4161
▁Walmart	-11.4161
▁anticipation	-11.4161
▁assuming	-11.4161
▁attempt	-11.4161
▁burrito	-11.4161
▁climate	-11.4161
▁dedication	-11.4161
▁disappear	-11.4161
▁ferrari	-11.4161
▁goldfish	-11.4161
▁industry	-11.4161
▁influence	-11.4161
▁irked	-11.4161
▁jeans	-11.4161
▁overseas	-11.4161
▁patience	-11.4161
▁preseason	-11.4161
▁reconnect	-11.4161
▁selected	-11.4161
▁solution	-11.4161
▁storage	-11.4161
▁supermarket	-11.4161
▁suprising	-11.4161
,310,	-11.4161
stood	-11.4161
▁Totally	-11.4161
▁desire	-11.4161
▁desperate	-11.4161
▁parrot	-11.4161
▁argue	-11.4161
▁celebrating	-11.4161
:1056	-11.4161
▁pics	-11.4161
▁monday	-11.4161
▁Miss	-11.4161
,3|2|3_5|5|5,	-11.4161
▁debi	-11.4161
▁towel	-11.4161
,5|5|5_2|2|	-11.4161
▁Disneyland	-11.4161
▁vote	-11.4161
▁neck	-11.4161
▁repay	-11.4161
▁dried	-11.4161
▁productive	-11.4161
▁Part	-11.4162
,75,	-11.4162
▁bound	-11.4162
▁hassle	-11.4162
▁lightning	-11.4162
▁Yum	-11.4162
▁gear	-11.4163
▁nah	-11.4163
▁discipline	-11.4163
▁considerate	-11.4163
▁hike	-11.4164
▁investment	-11.4164
,4|4|4_4|5|	-11.4165
▁ship	-11.4167
▁resolved	-11.4167
▁anybody	-11.417
▁slide	-11.4171
ES	-11.4171
▁ME	-11.4174
▁hahah	-11.4177
▁1000	-11.418
▁kindness	-11.4184
▁bosses	-11.4187
▁ignored	-11.4187
▁areas	-11.4197
▁flooded	-11.4197
.,349,	-11.4199
▁county	-11.4204
ALL	-11.4206
ify	-11.4207
▁mon	-11.4209
top	-11.4229
▁complained	-11.424
▁focused	-11.4244
▁Bell	-11.4247
▁defin	-11.4257
ches	-11.4283
▁$500	-11.4292
20	-11.4295
▁tie	-11.4315
▁70	-11.4315
ina	-11.4332
self	-11.4334
▁supporting	-11.4338
0%	-11.434
.,408,	-11.435
ray	-11.4352
▁beating	-11.436
▁curse	-11.4381
,2|4|5_5|5|	-11.4386
▁fixing	-11.4387
▁gal	-11.4412
▁payments	-11.445
▁covers	-11.4451
▁bi	-11.4454
▁tips	-11.4475
▁Start	-11.4478
ky	-11.4487
:157	-11.4487
:72	-11.4498
ily	-11.4512
▁beard	-11.4523
cal	-11.4524
,4|4|4_5|4|	-11.4535
▁cookie	-11.4539
▁lover	-11.454
rry	-11.4548
car	-11.4557
ities	-11.4559
▁Mo	-11.4568
▁tear	-11.4592
ox	-11.4598
▁Cha	-11.4614
▁spa	-11.4618
door	-11.4627
,220,	-11.4637
.,5|5|5_	-11.4639
ack	-11.4645
Yep	-11.4655
50	-11.4657
low	-11.4657
▁customers	-11.4659
▁smooth	-11.4661
▁climb	-11.4665
▁punish	-11.4666
▁slip	-11.4678
▁bark	-11.468
▁teenage	-11.4683
:189	-11.4687
,3|4|	-11.4687
▁valedictorian	-11.4687
▁Lakers	-11.4687
▁Miami	-11.4687
▁Tuesday	-11.4687
▁appropriate	-11.4687
▁conference	-11.4687
▁dementia	-11.4687
▁detail	-11.4687
▁devastating	-11.4687
▁disaster	-11.4687
▁horribly	-11.4687
▁instrument	-11.4687
▁language	-11.4687
▁mortgage	-11.4687
▁netflix	-11.4687
▁politician	-11.4687
▁prison	-11.4687
▁rejected	-11.4687
▁shattered	-11.4687
▁target	-11.4687
▁thanksgiving	-11.4687
▁warriors	-11.4687
,647,	-11.4687
▁August	-11.4687
▁advise	-11.4687
▁hectic	-11.4687
:106	-11.4687
,641,	-11.4687
▁initial	-11.4687
▁pepper	-11.4687
:459	-11.4687
▁rotten	-11.4687
▁fool	-11.4687
▁timing	-11.4687
▁grind	-11.4687
▁belongings	-11.4687
▁leap	-11.4687
▁countries	-11.4688
▁France	-11.4688
▁specifically	-11.4688
▁fake	-11.4688
▁Anyway	-11.4688
ably	-11.4688
▁instantly	-11.4689
▁teh	-11.4689
▁trap	-11.4689
▁trade	-11.4689
▁tries	-11.469
▁pup	-11.469
▁cure	-11.469
▁improvement	-11.469
▁workplace	-11.4691
▁Woo	-11.4692
▁smoothly	-11.4692
▁patch	-11.4693
▁ticked	-11.4693
▁blown	-11.4695
▁roomate	-11.4695
:567	-11.4695
▁Mac	-11.4695
▁mentally	-11.4697
▁Day	-11.4697
▁hyped	-11.4699
play	-11.4703
▁spelling	-11.4705
▁released	-11.4707
▁climbing	-11.4709
▁unexpectedly	-11.4714
▁searching	-11.4718
▁mentioned	-11.4718
▁wipe	-11.472
▁struggled	-11.4723
▁thrown	-11.4724
▁Isn	-11.4731
▁passionate	-11.4731
▁healed	-11.4732
ause	-11.4737
:1576	-11.4738
▁asap	-11.4739
▁onions	-11.474
,226,	-11.4777
▁charger	-11.4783
▁reminder	-11.4792
▁McDonalds	-11.4793
▁cap	-11.4797
,297,	-11.4797
au	-11.4798
imm	-11.4807
▁prayer	-11.4808
ONE	-11.4836
▁tears	-11.4845
▁returning	-11.4862
▁parks	-11.488
▁tra	-11.4915
ural	-11.4921
▁rate	-11.4975
▁treats	-11.4996
▁ot	-11.4996
▁pal	-11.5011
▁interests	-11.5037
ace	-11.5058
uff	-11.507
▁load	-11.5086
▁blanket	-11.5086
fully	-11.5088
▁becomes	-11.5106
▁scar	-11.512
▁Che	-11.5134
▁mode	-11.5139
ory	-11.5162
▁strangers	-11.5188
▁du	-11.519
▁awe	-11.5194
▁boo	-11.5197
▁tan	-11.52
▁35	-11.5201
▁approach	-11.5201
▁stuffed	-11.5206
▁ni	-11.5207
After	-11.521
Today	-11.5211
wracking	-11.5211
Lol	-11.5212
down	-11.5223
Had	-11.5227
▁create	-11.5227
▁recognize	-11.5227
On	-11.5229
▁sneak	-11.5236
▁dirt	-11.5236
▁eager	-11.5237
▁supp	-11.5238
▁blo	-11.524
▁scene	-11.5242
▁England	-11.5242
▁Football	-11.5242
▁GPA	-11.5242
▁Mexico	-11.5242
▁Orlando	-11.5242
▁Parent	-11.5242
▁aggressive	-11.5242
▁burden	-11.5242
▁candidate	-11.5242
▁challenging	-11.5242
▁essential	-11.5242
▁flavor	-11.5242
▁heartbreaking	-11.5242
▁hidden	-11.5242
▁incident	-11.5242
▁lawnmower	-11.5242
▁potential	-11.5242
▁reminisce	-11.5242
▁skating	-11.5242
▁starving	-11.5242
▁walmart	-11.5242
▁website	-11.5242
,313,	-11.5243
,321,	-11.5243
.,449,	-11.5243
▁beforehand	-11.5243
▁prevent	-11.5243
▁Boy	-11.5243
▁demand	-11.5243
:348	-11.5243
▁peeved	-11.5243
▁Talk	-11.5243
▁goodbye	-11.5243
▁homemade	-11.5243
▁aisle	-11.5243
▁lung	-11.5243
▁excitement	-11.5243
▁adjust	-11.5243
▁traumatic	-11.5243
▁Chinese	-11.5243
▁mature	-11.5243
▁drain	-11.5243
▁quarter	-11.5243
▁Rock	-11.5243
▁rice	-11.5243
▁chew	-11.5243
▁eachother	-11.5244
▁burst	-11.5244
▁Out	-11.5244
▁solve	-11.5244
▁necessary	-11.5245
▁minor	-11.5245
▁wings	-11.5245
,5|5|5_3|2|3,	-11.5245
▁Back	-11.5245
▁baking	-11.5245
cial	-11.5246
▁cord	-11.5246
▁stain	-11.5247
▁nest	-11.5247
▁USA	-11.5247
▁eagerly	-11.5248
▁fiancee	-11.525
▁College	-11.5251
▁Fro	-11.5251
,4|5|5_4|5|4,	-11.5254
▁useful	-11.5255
▁pity	-11.5256
▁pricey	-11.5259
▁generally	-11.5259
▁semi	-11.526
▁busted	-11.526
▁provider	-11.5263
▁hiding	-11.5267
▁sweetest	-11.5267
▁suffering	-11.5268
▁anger	-11.527
section	-11.5275
▁crowded	-11.5276
▁affected	-11.5278
▁ghosts	-11.528
ump	-11.5285
▁sweating	-11.5285
▁mug	-11.5291
▁folks	-11.5301
ney	-11.5306
▁injury	-11.5308
▁twins	-11.531
▁repaired	-11.532
bling	-11.5323
▁dressed	-11.5324
▁Th	-11.5329
▁messy	-11.5332
▁Wars	-11.5337
▁:),5|5|5_5|5|5,	-11.5339
▁listened	-11.5345
Ha	-11.5349
▁La	-11.5351
▁stressing	-11.5382
▁,59,	-11.5385
▁booked	-11.5391
ER	-11.5436
▁uni	-11.5443
▁fights	-11.5448
.,277,	-11.5457
vid	-11.5457
ched	-11.549
▁fin	-11.5494
▁pieces	-11.5539
▁arms	-11.5542
io	-11.5547
▁pr	-11.5561
,4|5|5_4|5|	-11.5577
▁active	-11.5585
▁stare	-11.5597
▁Fi	-11.5632
ying	-11.5635
▁dim	-11.565
▁interviewing	-11.5657
▁wheel	-11.5677
▁jerks	-11.5678
▁bu	-11.5709
▁par	-11.5718
▁ski	-11.5727
▁grandfathers	-11.5734
▁/	-11.5742
▁nor	-11.575
▁drag	-11.5768
▁introduce	-11.5786
▁Ph	-11.5792
port	-11.5797
Congratulations	-11.5799
just	-11.5799
Who	-11.58
Went	-11.5803
,438,	-11.5814
▁bang	-11.5816
▁humans	-11.5819
▁Ahh	-11.5821
▁aware	-11.5825
▁extreme	-11.5825
▁whil	-11.5827
▁cab	-11.5829
▁entertain	-11.583
▁compassion	-11.583
▁prior	-11.5831
▁ceiling	-11.5831
.,530,	-11.5831
@	-11.5831
▁Birthday	-11.5831
▁Instead	-11.5831
▁Remember	-11.5831
▁Sweet	-11.5831
▁Taco	-11.5831
▁author	-11.5831
▁bicycle	-11.5831
▁brutal	-11.5831
▁chain	-11.5831
▁communicate	-11.5831
▁diving	-11.5831
▁exchange	-11.5831
▁horrifying	-11.5831
▁leash	-11.5831
▁object	-11.5831
▁opportunities	-11.5831
▁overwhelmed	-11.5831
▁participate	-11.5831
▁proposal	-11.5831
▁pumpkin	-11.5831
▁radio	-11.5831
▁saturday	-11.5831
▁stubborn	-11.5831
▁tennis	-11.5831
▁Yuck	-11.5831
▁confess	-11.5831
▁gaming	-11.5831
▁passenger	-11.5831
,397,	-11.5831
▁costume	-11.5831
▁overnight	-11.5831
▁Damn	-11.5831
▁championship	-11.5831
▁solid	-11.5831
▁submitt	-11.5831
▁zone	-11.5831
▁seafood	-11.5831
:225	-11.5831
▁slammed	-11.5831
▁angel	-11.5831
▁golf	-11.5831
▁brakes	-11.5831
▁spread	-11.5831
▁keyboard	-11.5831
▁kitty	-11.5831
▁Game	-11.5831
▁claim	-11.5831
▁route	-11.5831
▁robber	-11.5831
▁YES	-11.5831
▁cities	-11.5832
:-)	-11.5832
▁unbelievable	-11.5832
▁NOT	-11.5832
▁explore	-11.5832
▁HR	-11.5832
▁connection	-11.5833
▁squid	-11.5833
▁standard	-11.5833
▁highschool	-11.5833
▁command	-11.5834
▁matches	-11.5835
▁dig	-11.5835
▁moon	-11.5836
▁uh	-11.5836
▁$10	-11.5836
▁startled	-11.5838
Don	-11.5839
jury	-11.584
▁thick	-11.584
▁fortunately	-11.5841
▁Pet	-11.5841
▁Over	-11.5843
▁HA	-11.5846
▁successfully	-11.5848
com	-11.5858
▁sticky	-11.5863
print	-11.5867
▁300	-11.5871
▁loudly	-11.5874
,5|4|5_4|4|	-11.5876
▁marketing	-11.5884
▁meals	-11.5887
aught	-11.589
▁King	-11.5895
▁chest	-11.5904
▁refunded	-11.5907
%	-11.5907
▁Awwww	-11.5925
▁contacted	-11.593
AL	-11.593
▁payed	-11.5931
▁van	-11.5931
!,99,	-11.5942
▁testing	-11.5948
▁meds	-11.596
▁respectful	-11.5965
,381,	-11.5985
▁outdoors	-11.5997
▁legal	-11.6
,748,	-11.6004
▁2000	-11.6017
rew	-11.6024
▁terms	-11.6028
▁channels	-11.6028
chi	-11.6049
ried	-11.6063
▁surely	-11.6108
.,659,	-11.6116
uld	-11.613
▁bud	-11.6142
▁fre	-11.6158
▁inch	-11.6164
ase	-11.6178
▁Lab	-11.6182
arded	-11.6189
AR	-11.6222
▁walls	-11.6226
use	-11.6227
▁snack	-11.6302
nea	-11.6344
▁tastes	-11.6395
.,5|5|5_3|5|	-11.6416
Aww	-11.6424
Look	-11.6425
Get	-11.6425
yeah	-11.6426
:113	-11.643
▁papers	-11.6434
▁assist	-11.6435
▁boil	-11.6436
▁thrill	-11.6436
▁spell	-11.6437
pol	-11.644
▁motivate	-11.6441
▁range	-11.6442
dge	-11.6444
▁stud	-11.645
▁$5	-11.6451
▁snap	-11.6454
,4|5|4_5|	-11.6455
,2|2|	-11.6456
,5|5|4_5|5|5,	-11.6456
,620,	-11.6456
,630,	-11.6456
,715,	-11.6456
▁October	-11.6456
▁Starbucks	-11.6456
▁Thursday	-11.6456
▁convenient	-11.6456
▁creative	-11.6456
▁disagree	-11.6456
▁elementary	-11.6456
▁emergencies	-11.6456
▁gunshots	-11.6456
▁hamburger	-11.6456
▁idiot	-11.6456
▁ingredients	-11.6456
▁instinct	-11.6456
▁ladies	-11.6456
▁lonesome	-11.6456
▁military	-11.6456
▁pharmac	-11.6456
▁renew	-11.6456
▁smoking	-11.6456
▁sweetheart	-11.6456
▁umbrella	-11.6456
▁upgrade	-11.6456
▁worn	-11.6456
,17,	-11.6456
,435,	-11.6456
▁Food	-11.6456
▁Park	-11.6456
▁YOU	-11.6456
▁cigarette	-11.6456
▁hamster	-11.6456
▁instructions	-11.6456
▁instructor	-11.6456
VERY	-11.6456
▁Army	-11.6456
▁junior	-11.6456
▁Trust	-11.6456
:907	-11.6456
▁foreign	-11.6456
▁dealership	-11.6456
▁begging	-11.6456
struck	-11.6456
,50,	-11.6456
▁transportation	-11.6456
▁mouse	-11.6456
▁yoga	-11.6456
▁hiring	-11.6456
▁percent	-11.6456
▁feature	-11.6456
▁celebration	-11.6456
▁Find	-11.6456
▁grandpa	-11.6456
▁Watch	-11.6457
▁drew	-11.6457
▁impression	-11.6457
▁deli	-11.6457
▁occasionally	-11.6457
▁theater	-11.6457
▁sake	-11.6458
▁golden	-11.6458
▁guide	-11.6458
▁lifestyle	-11.6459
|3|5_5|5|5,	-11.646
Ah	-11.6461
▁glasses	-11.6461
▁household	-11.6464
▁stable	-11.6464
▁payday	-11.6464
▁homeschool	-11.6465
▁comedy	-11.6465
,4|4|4_3|3|	-11.6467
▁kiddo	-11.6467
▁poisoning	-11.6468
▁ze	-11.6468
EVER	-11.6468
▁function	-11.6468
Donald	-11.6469
▁backpack	-11.6469
▁PS	-11.6469
▁clearly	-11.6471
▁distracted	-11.6472
▁former	-11.6474
▁raw	-11.6479
▁passes	-11.648
▁drawing	-11.6483
Were	-11.6486
▁enjoyable	-11.6488
▁stronger	-11.649
▁achieved	-11.6498
▁totaled	-11.6508
▁pasta	-11.6517
▁Wouldn	-11.6518
▁Heck	-11.6525
▁DO	-11.6537
▁alley	-11.6542
▁wrecked	-11.6542
...,269,	-11.655
▁x	-11.6556
!,209,	-11.6562
▁monsters	-11.6563
.,332,	-11.6567
▁finishing	-11.6575
,4|5|4_4|4|	-11.658
▁decades	-11.6584
OR	-11.6589
,4|5|5_4|4|	-11.6596
AM	-11.6599
hold	-11.6605
▁rea	-11.6613
▁theme	-11.6617
.,580,	-11.6631
▁sting	-11.6631
OL	-11.6632
.,422,	-11.6634
▁rates	-11.6646
▁challenges	-11.6687
▁thou	-11.6694
ugh	-11.6711
▁jokes	-11.6781
cing	-11.6813
,3|3|4_4|4|	-11.6854
ony	-11.6854
ism	-11.6863
▁cla	-11.6877
hill	-11.693
HI	-11.6959
nk	-11.6962
▁emotion	-11.6967
▁benefit	-11.6968
▁plants	-11.6971
▁bust	-11.7012
▁shirts	-11.7015
umbled	-11.7022
▁weigh	-11.7043
nual	-11.7053
ker	-11.7061
school	-11.7077
pack	-11.7081
iff	-11.7082
board	-11.709
▁kittens	-11.709
▁impress	-11.7101
▁hype	-11.7103
▁behave	-11.7107
▁squa	-11.7111
▁polite	-11.7117
▁absolute	-11.7117
▁beside	-11.7118
▁Ever	-11.7118
▁express	-11.7119
▁commit	-11.7122
▁Eww	-11.7122
▁transfer	-11.7122
,228,	-11.7122
,516,	-11.7122
.,366,	-11.7122
▁1/2	-11.7122
▁Agreed	-11.7122
▁Bahamas	-11.7122
▁February	-11.7122
▁Supercopa	-11.7122
▁Woah	-11.7122
▁activity	-11.7122
▁affair	-11.7122
▁breeze	-11.7122
▁bucket	-11.7122
▁circumstances	-11.7122
▁consequences	-11.7122
▁contribut	-11.7122
▁counselor	-11.7122
▁error	-11.7122
▁exotic	-11.7122
▁genetic	-11.7122
▁gorgeous	-11.7122
▁hobbies	-11.7122
▁hospice	-11.7122
▁hubby	-11.7122
▁iguana	-11.7122
▁mirror	-11.7122
▁organic	-11.7122
▁preparation	-11.7122
▁rehab	-11.7122
▁remote	-11.7122
▁represent	-11.7122
▁satisfying	-11.7122
▁swallow	-11.7122
▁symptoms	-11.7122
▁throat	-11.7122
▁thunder	-11.7122
▁tuition	-11.7122
▁tuna	-11.7122
▁turkey	-11.7122
▁upstairs	-11.7122
,343,	-11.7122
▁Black	-11.7122
▁headphones	-11.7122
▁increasing	-11.7122
▁insisted	-11.7122
▁jewelry	-11.7122
▁shave	-11.7122
▁basis	-11.7122
▁pleasure	-11.7122
▁skunk	-11.7122
▁source	-11.7122
▁happily	-11.7122
:282	-11.7122
▁craft	-11.7122
▁milestone	-11.7122
▁cautio	-11.7122
▁Grandma	-11.7123
▁pineapple	-11.7123
▁skip	-11.7123
▁neice	-11.7123
▁slack	-11.7123
▁festival	-11.7123
▁honk	-11.7123
▁yummy	-11.7123
▁taco	-11.7123
▁ego	-11.7123
▁yuck	-11.7123
▁racing	-11.7123
▁collection	-11.7123
▁sunny	-11.7123
▁brownies	-11.7124
ature	-11.7124
▁babysitter	-11.7124
▁awww	-11.7124
▁humanity	-11.7124
▁portion	-11.7124
FC	-11.7124
▁tuck	-11.7125
▁slightly	-11.7125
▁typically	-11.7125
▁labor	-11.7125
▁SAT	-11.7126
▁culture	-11.7126
▁cringe	-11.7127
▁thin	-11.7128
▁temper	-11.7129
▁rot	-11.713
▁dorm	-11.713
▁sneaky	-11.713
▁taxi	-11.7131
▁juice	-11.7133
▁realistic	-11.7134
▁housework	-11.7135
▁proposed	-11.7137
▁momma	-11.7138
▁danger	-11.7139
▁nightlight	-11.7139
▁sue	-11.7141
▁humble	-11.7145
▁pitch	-11.7155
▁critters	-11.7161
▁addicted	-11.7161
▁Ski	-11.7162
▁washed	-11.7169
▁coolest	-11.7184
bid	-11.7187
▁Fun	-11.7189
▁smaller	-11.7194
▁skipp	-11.7196
▁kit	-11.7201
▁comics	-11.7207
nother	-11.721
▁answered	-11.7219
▁wishes	-11.7228
▁attending	-11.7229
▁dented	-11.723
,99,	-11.7248
▁demo	-11.7257
▁bur	-11.7257
hhh	-11.7267
▁lit	-11.7268
Hi	-11.7279
ble	-11.7279
:728	-11.7282
house	-11.7283
▁wheels	-11.7304
?,5|5|5_3|3|	-11.7307
then	-11.7311
▁blankets	-11.7315
ching	-11.7317
15	-11.7326
▁dieting	-11.7329
▁seek	-11.7334
,3|3|3_	-11.7336
ED	-11.7337
▁snuggle	-11.7341
▁hero	-11.7353
,545,	-11.7363
▁san	-11.7363
,53,	-11.7369
▁faced	-11.7372
▁prep	-11.7377
,294,	-11.7385
▁Sh	-11.7388
▁tasks	-11.7393
▁pace	-11.7396
:2512	-11.7406
▁ri	-11.7408
oooh	-11.7412
!,3	-11.7418
lash	-11.7435
ild	-11.7437
▁crowds	-11.745
▁Sc	-11.7455
oke	-11.7464
read	-11.7465
▁br	-11.7478
istic	-11.7495
lor	-11.7499
▁excuses	-11.7517
▁,2	-11.7528
Be	-11.7534
▁disc	-11.7534
▁complaint	-11.7575
▁pan	-11.7578
▁Ki	-11.7582
ady	-11.762
ently	-11.767
19	-11.7673
▁flower	-11.7692
▁owners	-11.7711
▁notes	-11.7713
own	-11.7748
▁addition	-11.7752
ax	-11.7781
▁hop	-11.7789
rink	-11.7789
,4|5|4_4|	-11.7799
X	-11.7803
J	-11.7804
Awesome	-11.7805
But	-11.7806
▁bless	-11.7807
▁redo	-11.781
fire	-11.7811
For	-11.7812
▁ches	-11.7813
▁propose	-11.7821
▁mud	-11.7828
▁corn	-11.783
▁slap	-11.7835
▁compete	-11.7837
,469,	-11.7837
,577,	-11.7837
.,203,	-11.7837
▁assertive	-11.7837
▁communication	-11.7837
▁ecstatic	-11.7837
▁possibility	-11.7837
▁zombie	-11.7837
▁DMV	-11.7837
▁Excellent	-11.7837
▁Flags	-11.7837
▁Friends	-11.7837
▁Kindergarten	-11.7837
▁Universal	-11.7837
▁University	-11.7837
▁bachelor	-11.7837
▁condolences	-11.7837
▁determination	-11.7837
▁devestated	-11.7837
▁diabetes	-11.7837
▁distraught	-11.7837
▁entitled	-11.7837
▁frame	-11.7837
▁gluten	-11.7837
▁harsh	-11.7837
▁phase	-11.7837
▁phobia	-11.7837
▁promising	-11.7837
▁reunited	-11.7837
▁suspect	-11.7837
▁transition	-11.7837
▁trophy	-11.7837
▁address	-11.7837
▁aspect	-11.7837
▁branch	-11.7837
▁distant	-11.7837
▁sharp	-11.7837
▁console	-11.7837
▁dropping	-11.7837
▁outlook	-11.7837
▁transferred	-11.7837
.,49,	-11.7837
▁banana	-11.7837
▁google	-11.7837
▁ankle	-11.7837
▁fulfilling	-11.7837
▁buzz	-11.7837
▁trapped	-11.7837
▁lemon	-11.7837
▁artist	-11.7837
▁east	-11.7837
▁elated	-11.7837
▁famous	-11.7837
▁cloud	-11.7837
,64,	-11.7837
,25,	-11.7837
▁devil	-11.7837
▁regardless	-11.7837
▁reverse	-11.7838
▁vari	-11.7838
▁smartphone	-11.7838
▁beef	-11.7838
▁feedback	-11.7838
▁slam	-11.7838
▁fortune	-11.7838
▁clock	-11.7838
▁capable	-11.7838
▁mice	-11.7839
▁lice	-11.7839
▁further	-11.7839
▁alert	-11.7839
▁kayaking	-11.7839
▁realizing	-11.7839
▁toppings	-11.784
▁Ooh	-11.784
▁fitness	-11.784
▁wide	-11.784
▁dug	-11.784
▁Mother	-11.784
▁dedicated	-11.7842
▁doorstep	-11.7842
▁protective	-11.7842
▁infuriating	-11.7842
▁Law	-11.7842
▁slim	-11.7843
▁trait	-11.7845
▁lap	-11.7846
▁suprised	-11.7847
▁checkout	-11.7849
▁bubble	-11.785
▁$1000	-11.785
▁fondly	-11.785
▁betrayed	-11.7851
▁lame	-11.7853
▁camper	-11.7853
▁bone	-11.7854
▁sweaty	-11.7854
▁clothing	-11.7854
▁yearbook	-11.7854
▁national	-11.7855
▁host	-11.7855
▁consistent	-11.7857
▁recommendation	-11.7857
▁rubb	-11.7858
▁settled	-11.7859
▁boiling	-11.7862
▁chemicals	-11.7866
▁vegetables	-11.7866
▁melt	-11.7866
▁served	-11.7871
▁hood	-11.7876
▁Driv	-11.7877
▁None	-11.7888
▁completed	-11.7888
▁pant	-11.7892
▁smelly	-11.7896
▁trainer	-11.7897
▁makeup	-11.7903
mart	-11.7905
▁entirely	-11.7905
▁tested	-11.7906
▁killer	-11.7912
64	-11.7915
!,277,	-11.7915
AS	-11.7921
▁landing	-11.7922
ja	-11.7935
ose	-11.7936
▁swor	-11.7941
▁actors	-11.7949
▁classmates	-11.7961
▁fam	-11.7968
good	-11.8009
bie	-11.8009
▁handed	-11.8013
▁wondered	-11.8014
:2515	-11.8023
ept	-11.8026
▁Fl	-11.8034
!,478,	-11.8053
nia	-11.8059
!,5|5|5_4|4|	-11.8064
▁fees	-11.8074
▁cleaner	-11.8086
▁toddlers	-11.8104
▁para	-11.8126
▁Wa	-11.8131
ually	-11.8195
ending	-11.8201
▁carrie	-11.8202
▁Moms	-11.8213
▁needles	-11.8219
▁jo	-11.8238
▁Use	-11.8248
▁butter	-11.8248
▁)	-11.8254
▁films	-11.8286
▁plates	-11.8286
▁blessings	-11.8286
aving	-11.8317
▁scarie	-11.8335
,5|5|5_3|5|	-11.834
5_5|5|5,	-11.8372
▁happie	-11.8395
rrow	-11.8399
ended	-11.8414
▁ki	-11.8427
▁effect	-11.8448
▁decade	-11.845
▁McDonald	-11.845
▁sibling	-11.8453
pping	-11.8455
ery	-11.8455
Go	-11.8496
8,2,	-11.8541
nic	-11.8544
nel	-11.8547
▁ob	-11.8562
hood	-11.857
?,5|5|5_3|4|	-11.8571
Recently	-11.8573
Even	-11.8574
still	-11.8574
having	-11.8575
Everyone	-11.8577
8,3,	-11.8579
▁distract	-11.8584
▁drown	-11.8584
▁delay	-11.8586
▁unlock	-11.8587
▁Mat	-11.8589
1|1|1	-11.86
ripping	-11.86
▁Pepper	-11.8601
▁Wor	-11.8604
▁tomato	-11.8604
▁chick	-11.8605
,670,	-11.8606
:161	-11.8606
,607,	-11.8606
,717,	-11.8606
▁Children	-11.8606
▁November	-11.8606
▁Physics	-11.8606
▁appartment	-11.8606
▁battery	-11.8606
▁belief	-11.8606
▁bracelet	-11.8606
▁cereal	-11.8606
▁clumsy	-11.8606
▁competitive	-11.8606
▁counseling	-11.8606
▁coyote	-11.8606
▁december	-11.8606
▁doughnuts	-11.8606
▁evicted	-11.8606
▁explode	-11.8606
▁froze	-11.8606
▁horrified	-11.8606
▁iPhone	-11.8606
▁illegal	-11.8606
▁infection	-11.8606
▁karma	-11.8606
▁knowledge	-11.8606
▁murder	-11.8606
▁photograph	-11.8606
▁picnic	-11.8606
▁profit	-11.8606
▁protein	-11.8606
▁quilt	-11.8606
▁revenge	-11.8606
▁sacrifice	-11.8606
▁spaghetti	-11.8606
▁spooky	-11.8606
▁television	-11.8606
▁texas	-11.8606
▁unacceptable	-11.8606
▁unpleasant	-11.8606
▁unsafe	-11.8606
▁yikes	-11.8606
▁Garden	-11.8606
▁Rain	-11.8606
▁Three	-11.8606
▁cafe	-11.8606
▁naked	-11.8606
▁ordeal	-11.8606
▁weapon	-11.8606
▁wrist	-11.8606
▁fireworks	-11.8606
:1006	-11.8606
:895	-11.8606
▁$300	-11.8606
▁lease	-11.8606
▁shipping	-11.8606
▁softball	-11.8606
▁Funny	-11.8606
▁religious	-11.8606
▁Cats	-11.8606
▁foster	-11.8606
▁castle	-11.8606
▁Long	-11.8607
▁title	-11.8607
▁UK	-11.8607
▁deadline	-11.8607
▁tshirt	-11.8607
▁nerd	-11.8607
▁lean	-11.8607
▁adoption	-11.8608
▁healthier	-11.8608
▁liar	-11.8608
▁organization	-11.8608
▁hook	-11.8608
▁babysitting	-11.8609
▁evacuate	-11.8609
▁jet	-11.8609
▁feat	-11.8609
▁mari	-11.861
▁Italy	-11.861
▁Break	-11.8611
▁fade	-11.8611
▁hello	-11.8611
working	-11.8611
▁4.0	-11.8612
▁choked	-11.8613
roid	-11.8613
▁winner	-11.8614
▁freez	-11.8614
▁beans	-11.8615
▁inspired	-11.8615
▁horn	-11.8615
▁originally	-11.8615
▁dresses	-11.8615
▁Cup	-11.8616
▁agent	-11.8617
▁flipped	-11.8618
:200	-11.8619
▁separated	-11.8619
▁oops	-11.8621
▁image	-11.8621
▁snapp	-11.8622
▁flirting	-11.8623
▁Ew	-11.8623
▁regularly	-11.8624
▁Pro	-11.8624
▁tab	-11.8625
▁delayed	-11.8626
▁describe	-11.8626
▁noble	-11.8627
▁meantime	-11.8627
▁hah	-11.863
▁racking	-11.8632
▁,719,	-11.8634
▁reasonable	-11.8634
lb	-11.8634
▁beaches	-11.8636
▁creatures	-11.8638
▁Math	-11.8648
▁reservations	-11.8651
list	-11.8655
▁tape	-11.8658
12	-11.866
▁hill	-11.8663
▁sand	-11.8671
ley	-11.8671
▁cleared	-11.8674
▁overtime	-11.8675
▁assignments	-11.8676
▁errands	-11.8676
nite	-11.8678
▁tag	-11.8681
▁manners	-11.8689
▁tied	-11.8695
▁magical	-11.8696
,209,	-11.8698
▁bounce	-11.87
:729	-11.8706
▁leading	-11.8708
▁cave	-11.8715
▁soft	-11.8718
▁wrecking	-11.8725
▁flags	-11.8727
IR	-11.8729
Hav	-11.8732
lbs	-11.8734
ike	-11.8735
dom	-11.8757
▁effects	-11.8766
▁island	-11.8768
▁speaker	-11.8769
TE	-11.8769
▁gum	-11.8774
▁popp	-11.8775
▁,27,	-11.8797
▁28	-11.8811
!,409,	-11.8816
▁loads	-11.8831
▁warn	-11.8871
▁26	-11.888
▁rollercoasters	-11.8883
▁medications	-11.8896
▁ordering	-11.893
▁keeper	-11.8931
,244,	-11.894
800	-11.8948
▁treatments	-11.8948
,548,	-11.8971
nier	-11.8979
▁hum	-11.898
▁pat	-11.8981
▁HO	-11.9002
▁Jo	-11.9005
hen	-11.9028
:10586	-11.9053
arch	-11.908
once	-11.9177
▁reliv	-11.9177
3|3,	-11.9209
head	-11.9219
other	-11.9225
▁Boo	-11.9243
:8	-11.9256
ada	-11.9282
▁musician	-11.9286
▁Congratulation	-11.9288
rity	-11.9292
▁afterward	-11.9302
▁Kid	-11.9306
,5|5|	-11.9331
where	-11.9363
phone	-11.9374
magine	-11.9402
friend	-11.9404
field	-11.9407
Dang	-11.9407
why	-11.9407
sorry	-11.9408
Nice	-11.9409
burger	-11.9409
thank	-11.941
▁leak	-11.9417
pathetic	-11.9419
which	-11.9421
And	-11.9424
ork	-11.9424
4|5|	-11.9425
▁trail	-11.9426
▁base	-11.9426
▁bla	-11.9432
▁dip	-11.9433
▁Korea	-11.9435
▁Ohhh	-11.9436
▁Wonder	-11.9439
xcept	-11.9439
▁pill	-11.9439
▁neighbour	-11.9439
▁inspection	-11.9439
,4|4|5_5|4|	-11.9439
,631,	-11.9439
▁Africa	-11.9439
▁Alabama	-11.9439
▁Falcons	-11.9439
▁Ferrari	-11.9439
▁HAHA	-11.9439
▁Harvard	-11.9439
▁Master	-11.9439
▁Russia	-11.9439
▁WHAT	-11.9439
▁Wednesday	-11.9439
▁Yankees	-11.9439
▁defense	-11.9439
▁evidence	-11.9439
▁experiment	-11.9439
▁heavily	-11.9439
▁ketchup	-11.9439
▁ladder	-11.9439
▁memorable	-11.9439
▁praise	-11.9439
▁raccoon	-11.9439
▁resume	-11.9439
▁spark	-11.9439
▁unlucky	-11.9439
▁veggies	-11.9439
▁vitamins	-11.9439
,211,	-11.9439
,247,	-11.9439
,554,	-11.9439
,5|5|4_4|	-11.9439
.,540,	-11.9439
.,68,	-11.9439
2|2,	-11.9439
▁Bowl	-11.9439
▁Cowboys	-11.9439
▁Neither	-11.9439
▁Porsche	-11.9439
▁bunnies	-11.9439
▁calories	-11.9439
▁carefree	-11.9439
▁competing	-11.9439
▁compliment	-11.9439
▁conflict	-11.9439
▁cryptocurrency	-11.9439
▁disconnect	-11.9439
▁english	-11.9439
▁equipment	-11.9439
▁frustration	-11.9439
▁hesitant	-11.9439
▁ignoring	-11.9439
▁individual	-11.9439
▁massive	-11.9439
▁monitor	-11.9439
▁pimple	-11.9439
▁pitbull	-11.9439
▁policy	-11.9439
▁popcorn	-11.9439
▁possum	-11.9439
▁proceed	-11.9439
▁pursu	-11.9439
▁recognition	-11.9439
▁saddened	-11.9439
▁suspicious	-11.9439
▁swerve	-11.9439
▁technician	-11.9439
▁thrift	-11.9439
▁thursday	-11.9439
▁uniform	-11.9439
▁unnecessary	-11.9439
,5|6|5_	-11.9439
:10590	-11.9439
▁catfish	-11.9439
▁digging	-11.9439
▁permanent	-11.9439
▁ridden	-11.9439
▁presence	-11.9439
▁float	-11.9439
▁Oops	-11.9439
,475,	-11.9439
▁THAT	-11.9439
▁grasp	-11.9439
▁permission	-11.9439
▁playoffs	-11.9439
▁staff	-11.9439
▁pepperoni	-11.9439
▁superbowl	-11.9439
▁ipad	-11.9439
▁Music	-11.944
▁flashlight	-11.944
▁pipe	-11.944
▁doomed	-11.944
▁stability	-11.944
▁rose	-11.944
▁grandson	-11.944
▁Jack	-11.944
▁recall	-11.944
▁hostel	-11.944
▁dumpster	-11.944
▁clearance	-11.9441
▁commitment	-11.9441
▁imagination	-11.9441
▁classroom	-11.9441
▁rotting	-11.9441
▁swell	-11.9441
▁jam	-11.9441
▁punk	-11.9442
▁failure	-11.9442
▁gang	-11.9443
▁coverage	-11.9443
▁ballet	-11.9443
▁priceless	-11.9443
▁page	-11.9443
▁bandage	-11.9444
vity	-11.9444
▁hyper	-11.9444
▁belly	-11.9445
▁dial	-11.9445
▁Put	-11.9445
▁coke	-11.9446
▁fellow	-11.9446
▁supper	-11.9447
▁daddy	-11.9448
▁disturbing	-11.945
▁slapp	-11.945
▁breakup	-11.945
▁July	-11.9451
▁topic	-11.9451
bble	-11.9452
▁difficulties	-11.9452
▁Way	-11.9452
:568	-11.9452
▁declined	-11.9454
▁cuddle	-11.9454
▁bumper	-11.9455
▁informed	-11.9456
▁screwed	-11.9456
▁shaken	-11.9456
:2517	-11.9456
▁naturally	-11.9458
▁23	-11.9459
▁juggle	-11.9462
▁funds	-11.9469
▁rap	-11.947
▁deeply	-11.9474
▁metal	-11.9474
▁,244,	-11.9474
▁among	-11.9476
▁drawer	-11.9481
▁shorter	-11.9483
?,5|5|5_4|5|	-11.9484
▁writer	-11.9488
:2497	-11.9494
▁Air	-11.9495
▁included	-11.9495
▁lifetime	-11.9503
▁kissing	-11.9509
!,422,	-11.951
▁rise	-11.9512
▁bum	-11.9512
eba	-11.9513
▁aliens	-11.9516
▁justice	-11.9517
unge	-11.952
▁rainy	-11.9521
▁Ga	-11.953
:80	-11.9533
▁kicking	-11.9542
▁picky	-11.955
▁rig	-11.9552
▁bullets	-11.9558
▁peel	-11.9572
▁differently	-11.9573
▁hip	-11.9594
▁smashed	-11.9594
Drink	-11.9599
▁musicians	-11.96
3|3|	-11.9604
:1115	-11.9604
...,273,	-11.9616
comp	-11.9622
▁noodle	-11.9629
:2504	-11.963
▁tense	-11.9633
▁El	-11.9637
▁shout	-11.9641
:2506	-11.9648
ix	-11.9654
:2493	-11.9658
▁75	-11.9661
:2496	-11.9668
▁Mov	-11.9669
▁Scar	-11.9674
▁weak	-11.9675
▁north	-11.9687
▁procrastinat	-11.9689
▁cra	-11.9709
▁lik	-11.9711
atch	-11.9727
:2494	-11.9729
:2511	-11.974
All	-11.9746
:2513	-11.975
:2514	-11.9774
rought	-11.9774
got	-11.9776
:2500	-11.9777
▁Tak	-11.9809
oe	-11.981
.......	-11.9817
lar	-11.9837
▁web	-11.9837
pen	-11.984
▁factor	-11.9848
ung	-11.9864
▁roomie	-11.9865
,525,	-11.9879
:2498	-11.9892
59	-11.9903
mom	-11.992
▁Ste	-11.9945
:2505	-11.9952
ought	-11.9956
:10583	-11.9977
:2495	-12.0002
too	-12.0014
2|1|1	-12.0015
:1119	-12.0031
▁imagin	-12.0071
:10588	-12.0116
tial	-12.0136
:2488	-12.0169
:2510	-12.0174
▁admitted	-12.0181
▁classmate	-12.0191
▁monster	-12.0192
▁TO	-12.0207
:2501	-12.0216
bor	-12.0216
▁War	-12.0219
▁tap	-12.0231
:2503	-12.0235
:2502	-12.024
▁outdoor	-12.0249
:2491	-12.0288
▁occur	-12.0293
retake	-12.0295
think	-12.0306
ana	-12.0314
,719,	-12.0315
Feeling	-12.0316
Finally	-12.0316
Same	-12.0316
Where	-12.0316
husband	-12.0316
life	-12.0316
from	-12.0317
Ugh	-12.0318
shot	-12.0324
rup	-12.0324
▁gather	-12.0326
▁cloth	-12.033
▁pump	-12.033
struct	-12.0332
▁fri	-12.0332
▁separate	-12.0333
mark	-12.0339
▁soooo	-12.0341
▁attract	-12.0343
▁Hah	-12.0344
▁aww	-12.0348
ublic	-12.0348
▁Girl	-12.0348
,2|5|4_	-12.0348
,674,	-12.0348
▁heirloom	-12.0348
▁inspiration	-12.0348
▁massage	-12.0348
▁procedure	-12.0348
▁session	-12.0348
▁steam	-12.0348
arcraft	-12.0348
▁Angeles	-12.0348
▁Atlanta	-12.0348
▁Caribbean	-12.0348
▁Craigslist	-12.0348
▁Crazy	-12.0348
▁Dallas	-12.0348
▁Doctor	-12.0348
▁Gross	-12.0348
▁John	-12.0348
▁LOT	-12.0348
▁Louisiana	-12.0348
▁Navy	-12.0348
▁Seattle	-12.0348
▁Washington	-12.0348
▁Winter	-12.0348
▁barista	-12.0348
▁bodies	-12.0348
▁breast	-12.0348
▁carnival	-12.0348
▁cinema	-12.0348
▁concrete	-12.0348
▁construction	-12.0348
▁contain	-12.0348
▁employment	-12.0348
▁encounter	-12.0348
▁enraged	-12.0348
▁exhausted	-12.0348
▁extension	-12.0348
▁fashion	-12.0348
▁fragile	-12.0348
▁gamble	-12.0348
▁gossip	-12.0348
▁grief	-12.0348
▁hotdog	-12.0348
▁improving	-12.0348
▁inconvenient	-12.0348
▁injuries	-12.0348
▁interrupt	-12.0348
▁intimidating	-12.0348
▁lasagna	-12.0348
▁martial	-12.0348
▁milkshake	-12.0348
▁paranoid	-12.0348
▁prompt	-12.0348
▁remeber	-12.0348
▁reminiscing	-12.0348
▁resident	-12.0348
▁shredded	-12.0348
▁therapist	-12.0348
▁trigger	-12.0348
▁trump	-12.0348
▁underdog	-12.0348
▁variety	-12.0348
▁vegas	-12.0348
,185,	-12.0348
:320	-12.0348
▁Cadillac	-12.0348
▁Eventually	-12.0348
.,14,	-12.0348
dispute	-12.0348
▁stamp	-12.0348
:941	-12.0348
▁adapt	-12.0348
▁vision	-12.0348
:788	-12.0348
▁frog	-12.0348
.,85,	-12.0348
▁possessions	-12.0348
▁resist	-12.0348
▁temperature	-12.0348
▁moral	-12.0348
,77,	-12.0349
▁$400	-12.0349
▁Money	-12.0349
▁biology	-12.0349
▁receiving	-12.0349
▁Phew	-12.0349
▁cartoon	-12.0349
▁Aunt	-12.0349
▁equal	-12.0349
▁pillow	-12.0349
▁limb	-12.0349
▁plain	-12.0349
▁honey	-12.0349
▁programming	-12.0349
▁jeep	-12.0349
▁relieve	-12.0349
▁Olive	-12.0349
▁candies	-12.0349
▁documentary	-12.0349
▁THE	-12.0349
▁nause	-12.0349
▁Irma	-12.0349
▁$4	-12.0349
▁salesman	-12.0349
▁Nike	-12.0349
▁cents	-12.0349
▁roaches	-12.035
▁meaningful	-12.035
▁vent	-12.035
▁uber	-12.035
▁nine	-12.035
▁punishment	-12.035
▁tune	-12.035
▁Home	-12.035
▁bail	-12.0351
▁elsewhere	-12.0351
▁fry	-12.0351
▁ACT	-12.0352
▁mosquitoes	-12.0352
▁paw	-12.0352
▁flown	-12.0352
:1098	-12.0352
▁rash	-12.0353
▁deck	-12.0353
▁FB	-12.0354
▁greet	-12.0354
▁Beach	-12.0354
assic	-12.0355
▁PH	-12.0356
▁pole	-12.0356
ronic	-12.0357
▁relaxation	-12.0358
▁Other	-12.0359
▁neglected	-12.0359
▁petty	-12.0359
▁surprisingly	-12.0359
▁lego	-12.036
▁teary	-12.0362
▁childish	-12.0362
▁installed	-12.0363
▁Eh	-12.0364
▁press	-12.0366
▁pin	-12.0367
▁swing	-12.0368
▁Nobody	-12.0368
▁poured	-12.0368
▁33	-12.0371
▁CS	-12.0372
▁woo	-12.0372
▁leaking	-12.0373
▁cough	-12.0374
▁lick	-12.0375
▁recovery	-12.0383
▁punished	-12.0384
▁brac	-12.0384
▁approaching	-12.0385
▁defend	-12.0385
▁useless	-12.0386
▁grace	-12.0388
mashed	-12.0393
▁cutest	-12.0396
▁poorly	-12.0401
▁,438,	-12.0401
▁Bad	-12.0404
▁wire	-12.0405
▁update	-12.0408
Got	-12.0417
▁pour	-12.0421
▁locally	-12.0424
▁dust	-12.0425
▁,5|5|5_4|4|	-12.0428
▁honesty	-12.043
▁Brothers	-12.0433
▁appliances	-12.0433
▁novel	-12.0434
▁rev	-12.0439
vast	-12.0443
▁texted	-12.0455
▁thunderstorms	-12.0463
▁fal	-12.0476
oz	-12.0477
yo	-12.0481
▁inches	-12.0482
live	-12.0482
:1117	-12.0482
▁rushed	-12.0491
:2487	-12.0509
▁rum	-12.0542
▁presenting	-12.0544
▁intend	-12.0551
rough	-12.0559
▁treating	-12.0563
NES	-12.0578
riving	-12.0607
▁monthly	-12.0615
▁king	-12.0619
▁Sp	-12.0651
:2509	-12.068
tress	-12.0699
:2499	-12.0727
▁den	-12.0747
make	-12.0749
▁bri	-12.076
▁400	-12.0768
Pri	-12.0833
ummy	-12.0842
,659,	-12.0871
,104,	-12.0877
▁dealer	-12.0884
cially	-12.0886
▁ju	-12.0899
4|4,	-12.0922
▁cockroach	-12.0974
▁egg	-12.0979
:10581	-12.0983
▁ev	-12.1027
▁Joe	-12.1034
KE	-12.1043
▁Ja	-12.1094
▁TH	-12.1096
▁Spen	-12.1101
▁ble	-12.1108
▁shou	-12.1112
▁fa	-12.1129
uz	-12.1142
▁gri	-12.1146
room	-12.1162
▁flag	-12.1191
▁actor	-12.1205
▁Ye	-12.1207
,4|4|4_4|4|	-12.1209
,90	-12.1263
▁terrif	-12.1298
16	-12.1308
steps	-12.1308
vious	-12.131
wise	-12.131
conscious	-12.1315
Before	-12.1316
Congrats	-12.1316
because	-12.1316
sometimes	-12.1316
Cool	-12.1317
LOL	-12.1317
kind	-12.1317
▁Ex	-12.1321
To	-12.1325
▁flirt	-12.1327
▁screw	-12.1329
▁inform	-12.1329
ground	-12.1332
▁ban	-12.1333
▁anticipate	-12.1333
▁suprise	-12.1333
▁involve	-12.1333
talk	-12.1335
teen	-12.1341
▁betray	-12.1342
right	-12.1344
▁potato	-12.1347
▁confide	-12.1348
▁blank	-12.1348
plug	-12.1348
▁$3	-12.1348
▁skate	-12.1348
!,60,	-12.1348
,129,	-12.1348
,271,	-12.1348
,390,	-12.1348
rcade	-12.1348
▁BBQ	-12.1348
▁Babies	-12.1348
▁Chocolate	-12.1348
▁Mcdonald	-12.1348
▁Mturking	-12.1348
▁NICU	-12.1348
▁Needles	-12.1348
▁Orleans	-12.1348
▁Pizza	-12.1348
▁Psychology	-12.1348
▁SUV	-12.1348
▁Spain	-12.1348
▁Strange	-12.1348
▁Thrones	-12.1348
▁YouTube	-12.1348
▁allergies	-12.1348
▁batteries	-12.1348
▁brilliant	-12.1348
▁bunny	-12.1348
▁ceremony	-12.1348
▁convenience	-12.1348
▁coupon	-12.1348
▁creating	-12.1348
▁culprit	-12.1348
▁decorate	-12.1348
▁disappointment	-12.1348
▁easiest	-12.1348
▁effic	-12.1348
▁embarrasing	-12.1348
▁exterminator	-12.1348
▁favourite	-12.1348
▁gallon	-12.1348
▁gentle	-12.1348
▁ghetto	-12.1348
▁grumpy	-12.1348
▁guests	-12.1348
▁insecure	-12.1348
▁insomnia	-12.1348
▁jackpot	-12.1348
▁jeez	-12.1348
▁jeopard	-12.1348
▁jiu	-12.1348
▁maggots	-12.1348
▁mailbox	-12.1348
▁maintenance	-12.1348
▁mandatory	-12.1348
▁museum	-12.1348
▁outstanding	-12.1348
▁overcharge	-12.1348
▁precaution	-12.1348
▁prospect	-12.1348
▁providing	-12.1348
▁puddle	-12.1348
▁refreshing	-12.1348
▁scenario	-12.1348
▁silence	-12.1348
▁spooked	-12.1348
▁surreal	-12.1348
▁technique	-12.1348
▁tragedy	-12.1348
▁twenty	-12.1348
▁unemployment	-12.1348
▁void	-12.1348
▁watermelon	-12.1348
,178,	-12.1348
,217,	-12.1348
,280,	-12.1348
.,184,	-12.1348
▁assured	-12.1348
▁caramel	-12.1348
▁consult	-12.1348
▁euro	-12.1348
▁fraud	-12.1348
▁voting	-12.1348
Z	-12.1348
▁candles	-12.1348
▁docile	-12.1348
▁remodel	-12.1348
jitsu	-12.1348
▁James	-12.1348
▁roam	-12.1348
▁disneyworld	-12.1348
▁humid	-12.1348
▁unusual	-12.1348
▁alter	-12.1348
▁ugly	-12.1348
▁downtown	-12.1348
▁temptation	-12.1348
▁Buy	-12.1348
▁Plan	-12.1348
▁peak	-12.1348
gency	-12.1348
▁Save	-12.1348
▁grandkids	-12.1348
▁snatch	-12.1348
worms	-12.1349
▁destination	-12.1349
▁doggy	-12.1349
▁Lego	-12.1349
,76,	-12.1349
▁distress	-12.1349
▁Greece	-12.1349
▁tension	-12.1349
▁poker	-12.1349
▁skinny	-12.1349
▁joking	-12.1349
▁Baby	-12.1349
▁lasy	-12.1349
▁reception	-12.1349
▁threaten	-12.1349
▁polar	-12.1349
▁Dirt	-12.1349
▁Know	-12.1349
▁concentrate	-12.1349
▁THat	-12.1349
inste	-12.1349
▁slot	-12.1349
▁bakery	-12.1349
▁Came	-12.1349
▁portable	-12.1349
▁electricity	-12.1349
▁mansion	-12.1349
▁mutt	-12.135
▁epic	-12.135
▁Asia	-12.135
▁crab	-12.135
▁Uber	-12.135
▁grieve	-12.1351
▁Help	-12.1351
▁acceptance	-12.1351
▁yup	-12.1351
▁playground	-12.1352
▁technically	-12.1352
herish	-12.1352
hieves	-12.1352
▁socialize	-12.1352
▁data	-12.1353
▁carbs	-12.1353
▁Sadly	-12.1353
▁lecturer	-12.1353
▁fever	-12.1353
▁North	-12.1354
▁Q	-12.1354
▁darkness	-12.1355
round	-12.1356
▁Pay	-12.1356
Rid	-12.1356
TH	-12.1356
▁brighten	-12.1358
▁mild	-12.1359
▁downloaded	-12.136
▁anyhow	-12.1361
▁wandering	-12.1363
▁quitting	-12.1364
going	-12.1366
▁Bus	-12.1368
hame	-12.1368
story	-12.1369
▁signal	-12.137
▁affordable	-12.1371
▁gathering	-12.1373
▁36	-12.1373
▁unlocked	-12.1375
▁reply	-12.1376
▁scu	-12.1376
▁introduc	-12.138
mping	-12.1381
▁lon	-12.1383
▁banging	-12.1387
izer	-12.1391
▁freaky	-12.1394
▁gotcha	-12.1399
▁sw	-12.1402
ooooo	-12.1402
▁visitor	-12.1403
▁dough	-12.1407
▁prized	-12.1416
▁,478,	-12.1426
ided	-12.1426
▁blowing	-12.1426
▁carefully	-12.1431
▁burning	-12.1438
▁painted	-12.1439
▁mac	-12.1449
▁confronted	-12.1451
▁backup	-12.147
▁Hmmm	-12.1472
▁sprayed	-12.1475
▁sadness	-12.149
▁ward	-12.1493
▁,5|4|4_	-12.1495
imum	-12.1497
▁scamme	-12.15
▁,5|5|5_5|4|	-12.1505
▁loser	-12.1512
▁calming	-12.1518
▁audi	-12.1519
▁longest	-12.1527
▁grounded	-12.1535
NA	-12.1566
▁fav	-12.1567
▁boxer	-12.1585
proof	-12.1596
▁dev	-12.1601
cker	-12.1685
OW	-12.1705
ngle	-12.1728
put	-12.1737
pass	-12.1778
rowing	-12.1858
Come	-12.1921
2|3|5	-12.1925
▁BE	-12.1963
▁Ohhhh	-12.2027
▁led	-12.2037
▁messag	-12.2078
3|3|3,	-12.2138
ong	-12.2179
,2|3|4_	-12.2179
long	-12.219
▁freakin	-12.2214
tleast	-12.2265
9,2,	-12.2277
▁figur	-12.2284
▁bullet	-12.2303
▁expense	-12.2305
▁fren	-12.2306
▁finance	-12.2308
ette	-12.232
rmally	-12.2334
9,3,	-12.235
ool	-12.2361
▁charg	-12.2372
start	-12.2378
▁tha	-12.2389
▁sno	-12.2403
▁disgust	-12.2419
uble	-12.2426
(	-12.2426
Tomorrow	-12.2427
Probably	-12.2427
power	-12.2427
Everything	-12.2428
Very	-12.2428
Nope	-12.2431
Let	-12.2433
▁reli	-12.2434
ggling	-12.2434
▁connect	-12.2435
Can	-12.2437
▁poison	-12.2437
Man	-12.244
▁abandon	-12.244
▁flow	-12.2443
▁juic	-12.2443
▁resolve	-12.2444
▁irritate	-12.2445
:115	-12.2445
▁intentional	-12.2454
▁constant	-12.2454
▁bully	-12.2455
▁Luck	-12.2457
▁wrap	-12.2457
▁tomorro	-12.2457
▁scr	-12.2457
xican	-12.2458
4|2|5	-12.2458
▁roach	-12.2458
|5|5_3|3|3,	-12.2458
q	-12.2458
▁epi	-12.2458
▁regard	-12.2458
▁YE	-12.2459
▁Spani	-12.2459
▁uncertain	-12.2459
▁congratulat	-12.2459
#	-12.2459
,1|4|5_4|	-12.2459
,5|5|5_5|3|	-12.2459
▁Cleveland	-12.2459
▁Montreal	-12.2459
▁President	-12.2459
▁carpool	-12.2459
▁disheartened	-12.2459
▁guarantee	-12.2459
▁malfunction	-12.2459
▁occupied	-12.2459
▁puzzle	-12.2459
▁tutor	-12.2459
▁ukelele	-12.2459
!|4|4	-12.2459
,239,	-12.2459
,4|4|3_	-12.2459
.,842,	-12.2459
3|0|1	-12.2459
Cinema	-12.2459
▁Accord	-12.2459
▁Algebra	-12.2459
▁Animal	-12.2459
▁Australia	-12.2459
▁Boston	-12.2459
▁Bummer	-12.2459
▁Carolina	-12.2459
▁Chipotle	-12.2459
▁Clinton	-12.2459
▁Costco	-12.2459
▁Death	-12.2459
▁Madden	-12.2459
▁Neat	-12.2459
▁Studios	-12.2459
▁Terrible	-12.2459
▁abduct	-12.2459
▁accord	-12.2459
▁adrenalin	-12.2459
▁antique	-12.2459
▁appreciation	-12.2459
▁balcony	-12.2459
▁blush	-12.2459
▁booze	-12.2459
▁bruise	-12.2459
▁certified	-12.2459
▁circle	-12.2459
▁commercials	-12.2459
▁concept	-12.2459
▁cornhole	-12.2459
▁cricket	-12.2459
▁deployed	-12.2459
▁diagnosis	-12.2459
▁diamond	-12.2459
▁dirtbike	-12.2459
▁economic	-12.2459
▁elevator	-12.2459
▁enemy	-12.2459
▁forgiving	-12.2459
▁genius	-12.2459
▁hammer	-12.2459
▁homesick	-12.2459
▁impatient	-12.2459
▁inappropriate	-12.2459
▁interstate	-12.2459
▁intruder	-12.2459
▁investigate	-12.2459
▁lizard	-12.2459
▁lunchbox	-12.2459
▁meatloaf	-12.2459
▁naughty	-12.2459
▁pajama	-12.2459
▁policies	-12.2459
▁politics	-12.2459
▁racist	-12.2459
▁reassuring	-12.2459
▁referring	-12.2459
▁rejection	-12.2459
▁sensitive	-12.2459
▁sparring	-12.2459
▁thirty	-12.2459
▁unhealthy	-12.2459
▁valid	-12.2459
▁vegetarian	-12.2459
▁vividly	-12.2459
▁worrisome	-12.2459
▁xbox	-12.2459
▁calc	-12.2459
▁nugget	-12.2459
▁overreact	-12.2459
▁status	-12.2459
dispose	-12.2459
▁occurred	-12.2459
▁rope	-12.2459
▁Italian	-12.2459
▁bleeding	-12.2459
▁charm	-12.246
▁Count	-12.246
▁resent	-12.246
▁shrimp	-12.246
arvel	-12.246
,3|3|2_4|	-12.246
Visit	-12.246
▁operation	-12.246
▁skateboard	-12.246
▁flick	-12.246
▁locate	-12.246
▁clinic	-12.246
▁croc	-12.246
▁Georgia	-12.246
▁studio	-12.246
▁network	-12.246
▁denied	-12.246
▁zipper	-12.246
▁IRS	-12.246
▁cuss	-12.246
▁daunting	-12.246
▁disrespectful	-12.246
▁knit	-12.246
▁doggie	-12.246
?!?!?	-12.246
▁colon	-12.246
▁poisonous	-12.246
▁Bros	-12.246
▁humidity	-12.246
▁hungover	-12.246
▁eternity	-12.246
▁fright	-12.246
▁bride	-12.246
ternal	-12.246
▁French	-12.246
▁Wonderful	-12.246
▁preschool	-12.246
▁compassionate	-12.246
▁stalk	-12.246
▁$80	-12.246
▁bind	-12.2461
▁prim	-12.2461
▁subway	-12.2461
▁spank	-12.2461
AND	-12.2461
arvey	-12.2461
▁rumor	-12.2461
▁Blue	-12.2462
▁shade	-12.2462
▁practically	-12.2462
▁rapes	-12.2462
▁Job	-12.2462
▁artistic	-12.2462
▁sentence	-12.2463
▁campus	-12.2463
▁loyalty	-12.2463
▁dash	-12.2463
▁puck	-12.2463
▁Ewww	-12.2463
▁brag	-12.2464
▁persu	-12.2464
▁cabin	-12.2464
▁mailman	-12.2465
TIC	-12.2465
▁posters	-12.2465
▁intentionally	-12.2465
▁tank	-12.2465
▁Gosh	-12.2465
▁Somehow	-12.2465
▁introverted	-12.2465
▁pad	-12.2466
▁Hop	-12.2466
▁GO	-12.2467
▁skir	-12.2467
▁FL	-12.2468
stian	-12.2468
▁Whoop	-12.247
▁herbs	-12.2472
▁lion	-12.2472
▁Sad	-12.2472
▁legit	-12.2472
▁Beat	-12.2473
MRI	-12.2474
▁chosen	-12.2475
▁beaten	-12.2476
▁suggestion	-12.2477
▁speeches	-12.2479
▁square	-12.2479
▁connected	-12.248
▁sickness	-12.248
▁eh	-12.2481
angs	-12.2481
▁pilot	-12.2481
▁coat	-12.2482
▁peacefully	-12.2484
▁pc	-12.2484
were	-12.2484
▁Tv	-12.2484
▁behaved	-12.2486
▁Hang	-12.2486
▁era	-12.2487
▁recognized	-12.2492
▁CD	-12.2492
▁fir	-12.2496
▁statement	-12.2497
▁cou	-12.2497
▁conscious	-12.2497
ssistant	-12.25
▁mustard	-12.2501
▁unfaithful	-12.2503
there	-12.2505
▁swam	-12.2507
▁emotionally	-12.251
▁X	-12.2513
▁iphone	-12.2514
brake	-12.252
▁port	-12.2524
▁dare	-12.2524
Ready	-12.2531
▁pastor	-12.2535
idiculous	-12.2543
▁conditioning	-12.2547
▁flooding	-12.2555
:2516	-12.256
▁Ahhh	-12.2568
▁grosses	-12.257
▁ideal	-12.2581
▁saver	-12.2684
dded	-12.2706
▁swa	-12.2751
▁ache	-12.2751
▁triple	-12.28
▁Ya	-12.2829
▁continu	-12.2831
▁relive	-12.2843
:201	-12.2885
2|1|	-12.2887
▁strip	-12.2902
rby	-12.2911
ppy	-12.2957
poke	-12.3032
▁150	-12.3068
unce	-12.3079
,277,	-12.3094
▁curs	-12.3159
▁jog	-12.3163
oving	-12.3172
,408,	-12.3235
,56,	-12.3239
,100,	-12.324
ipping	-12.3251
0,2,	-12.3256
ability	-12.3262
0,3,	-12.3304
▁comic	-12.3411
:10578	-12.3478
perfection	-12.3499
isco	-12.3509
▁Sma	-12.353
▁thunderstorm	-12.3551
▁twin	-12.3558
▁leftover	-12.3568
▁Sometime	-12.3586
ominated	-12.3614
▁fron	-12.3631
lty	-12.3652
:55	-12.3662
▁$2	-12.3673
describe	-12.3676
draw	-12.3677
Wait	-12.3677
built	-12.3677
Definitely	-12.3677
congrats	-12.3677
especially	-12.3677
water	-12.3677
▁psych	-12.3679
Right	-12.368
national	-12.368
Make	-12.3682
Does	-12.3686
big	-12.3687
:)	-12.3687
▁organiz	-12.3687
,5|5|5_5|	-12.3688
cake	-12.3689
▁install	-12.369
▁ditch	-12.369
▁gap	-12.3691
▁inspire	-12.3694
▁remove	-12.3694
▁decline	-12.3696
:15	-12.3702
▁lecture	-12.3703
▁typical	-12.3704
▁obvious	-12.3704
▁chunk	-12.3704
▁gui	-12.3704
▁proper	-12.3706
▁profession	-12.3707
2|2|2	-12.3708
ompletely	-12.3709
,4|3|4_	-12.3709
▁transport	-12.3709
▁kindergar	-12.3709
appens	-12.3709
▁possess	-12.3709
▁civil	-12.3709
:20875,	-12.3709
:1721,	-12.3709
!,746,	-12.3709
:20879,	-12.3709
hihuahua	-12.3709
:1659,	-12.3709
:1677,	-12.3709
,135,	-12.3709
,237,	-12.3709
,536,	-12.3709
,599,	-12.3709
,720,	-12.3709
.,385,	-12.3709
.,466,	-12.3709
.,673,	-12.3709
:17045,	-12.3709
:23328,	-12.3709
:23329,	-12.3709
ordinate	-12.3709
▁Mountain	-12.3709
▁claustrophobic	-12.3709
▁disheartening	-12.3709
▁dissapoint	-12.3709
▁exhausting	-12.3709
▁millionaire	-12.3709
▁overindulge	-12.3709
▁salvage	-12.3709
▁silver	-12.3709
▁strike	-12.3709
,221,	-12.3709
,224,	-12.3709
,340,	-12.3709
,445,	-12.3709
.,346,	-12.3709
1|2|1	-12.3709
1|4|5	-12.3709
:15260,	-12.3709
:1640,	-12.3709
Disgusting	-12.3709
corporate	-12.3709
lfredo	-12.3709
▁,227,	-12.3709
▁911	-12.3709
▁ABC	-12.3709
▁Alright	-12.3709
▁Barcelona	-12.3709
▁CEO	-12.3709
▁CPA	-12.3709
▁Calculus	-12.3709
▁Christian	-12.3709
▁Cozumel	-12.3709
▁Fantastic	-12.3709
▁Figure	-12.3709
▁Focus	-12.3709
▁Grudge	-12.3709
▁Guil	-12.3709
▁HELLP	-12.3709
▁JUS	-12.3709
▁January	-12.3709
▁League	-12.3709
▁Memories	-12.3709
▁Mistake	-12.3709
▁Perfect	-12.3709
▁Quite	-12.3709
▁Science	-12.3709
▁Study	-12.3709
▁Virginia	-12.3709
▁acknowledge	-12.3709
▁advocate	-12.3709
▁announced	-12.3709
▁arguing	-12.3709
▁athlete	-12.3709
▁axolotls	-12.3709
▁bacon	-12.3709
▁biscuit	-12.3709
▁blinker	-12.3709
▁bragging	-12.3709
▁california	-12.3709
▁casserole	-12.3709
▁categor	-12.3709
▁coconut	-12.3709
▁combination	-12.3709
▁confirm	-12.3709
▁conscience	-12.3709
▁cycle	-12.3709
▁description	-12.3709
▁embarrased	-12.3709
▁escort	-12.3709
▁estimate	-12.3709
▁excitied	-12.3709
▁fascinat	-12.3709
▁formula	-12.3709
▁fuel	-12.3709
▁glue	-12.3709
▁independence	-12.3709
▁infected	-12.3709
▁intentions	-12.3709
▁jazz	-12.3709
▁jogging	-12.3709
▁kitties	-12.3709
▁luggage	-12.3709
▁mcdonalds	-12.3709
▁mutual	-12.3709
▁nachos	-12.3709
▁nagging	-12.3709
▁newspaper	-12.3709
▁nightgown	-12.3709
▁obnoxious	-12.3709
▁ordinary	-12.3709
▁overdraft	-12.3709
▁plastic	-12.3709
▁qualification	-12.3709
▁qualify	-12.3709
▁receipt	-12.3709
▁salon	-12.3709
▁scooter	-12.3709
▁scorch	-12.3709
▁serving	-12.3709
▁smiling	-12.3709
▁stadium	-12.3709
▁strict	-12.3709
▁sunscreen	-12.3709
▁terrier	-12.3709
▁transplant	-12.3709
▁triathlon	-12.3709
▁unlikely	-12.3709
:17526,	-12.3709
:17615,	-12.3709
:3125,	-12.3709
|2|2_4|4|	-12.3709
~	-12.3709
▁Google	-12.3709
▁Impossible	-12.3709
▁MMA	-12.3709
▁blatant	-12.3709
▁collage	-12.3709
▁healthcare	-12.3709
▁ignoran	-12.3709
▁ornament	-12.3709
▁resort	-12.3709
▁retreat	-12.3709
▁soulmate	-12.3709
▁stream	-12.3709
▁stroll	-12.3709
▁tackle	-12.3709
▁torture	-12.3709
▁unpacked	-12.3709
:1694,	-12.3709
▁hustle	-12.3709
▁psychology	-12.3709
▁roster	-12.3709
:15261,	-12.3709
:1727,	-12.3709
:6987,	-12.3709
Despi	-12.3709
▁vaca	-12.3709
▁vows	-12.3709
:23345,	-12.3709
▁repeatedly	-12.3709
▁western	-12.3709
5289	-12.3709
▁owl	-12.3709
▁plot	-12.3709
▁stunt	-12.3709
:17614,	-12.371
:20918,	-12.371
rassed	-12.371
▁Play	-12.371
▁jack	-12.371
▁raging	-12.371
:20878,	-12.371
▁strings	-12.371
▁ultrasound	-12.371
▁hurri	-12.371
:530	-12.371
▁fuss	-12.371
▁motor	-12.371
▁boomer	-12.371
▁bridge	-12.371
,402,	-12.371
▁expert	-12.371
▁temporary	-12.371
▁memoriz	-12.371
▁linger	-12.371
▁Sucks	-12.371
▁mask	-12.371
,391,	-12.371
▁butterflies	-12.371
digestion	-12.371
,473,	-12.371
▁Mark	-12.371
▁intuition	-12.371
▁antsy	-12.371
▁evaluation	-12.371
,55,	-12.371
▁pyr	-12.371
▁plugg	-12.371
▁plumber	-12.371
▁bullied	-12.371
▁Jeep	-12.371
▁gravy	-12.371
▁cabinet	-12.371
▁lump	-12.371
▁venture	-12.371
▁trivia	-12.371
urdle	-12.371
sailing	-12.371
▁lining	-12.3711
▁airline	-12.3711
▁yellow	-12.3711
▁brat	-12.3711
▁oof	-12.3711
▁scan	-12.3711
,4|2|5_	-12.3711
▁Range	-12.3712
▁flush	-12.3712
▁definitl	-12.3712
▁25%	-12.3712
▁entertainment	-12.3712
▁humor	-12.3712
▁tomatoes	-12.3712
▁wrapp	-12.3712
▁landscaper	-12.3712
▁Stress	-12.3712
istening	-12.3713
,4|5|3_	-12.3713
▁max	-12.3713
▁OF	-12.3713
:1706,	-12.3714
▁ultimately	-12.3714
▁bold	-12.3714
▁officially	-12.3714
▁mama	-12.3714
▁collector	-12.3715
▁wheat	-12.3715
▁Real	-12.3716
▁Show	-12.3716
▁jar	-12.3716
▁Run	-12.3716
,5|5|5_1|	-12.3716
▁humiliating	-12.3716
▁supr	-12.3717
▁july	-12.3717
cery	-12.3717
▁freezer	-12.3718
▁wage	-12.3718
▁specialist	-12.3722
rystal	-12.3722
▁sitter	-12.3723
▁spite	-12.3724
▁significantly	-12.3724
▁Years	-12.3727
▁Typ	-12.3727
▁anticipated	-12.3729
▁flaked	-12.373
▁psyched	-12.373
▁Check	-12.3731
truction	-12.3733
▁fif	-12.3733
watched	-12.3733
▁toast	-12.3733
▁Won	-12.3735
▁bullying	-12.3735
▁shovel	-12.3738
▁correctly	-12.3738
▁deny	-12.3738
▁Aug	-12.3739
▁professionally	-12.374
▁Hug	-12.3741
▁gag	-12.3744
▁created	-12.3746
▁drowning	-12.3747
▁tricky	-12.3747
▁Exp	-12.3747
:15744,	-12.3748
▁flipp	-12.3749
:15709,	-12.3751
▁particularly	-12.3752
uffed	-12.3757
▁growth	-12.3759
:1713,	-12.3763
▁condo	-12.3765
▁larger	-12.3765
:15708,	-12.3769
▁bitter	-12.3781
:1710,	-12.3786
:10998,	-12.3787
0,1,	-12.3836
:361	-12.3867
▁tub	-12.3876
▁whipp	-12.3888
▁hoo	-12.389
NE	-12.3891
gen	-12.3893
ARE	-12.3909
obb	-12.3913
Liv	-12.3919
hopping	-12.3926
▁busies	-12.394
pper	-12.3984
▁tourist	-12.4045
▁Ask	-12.4056
!,5|5|5_3|	-12.4064
▁sufficien	-12.4079
▁lav	-12.4095
,44,	-12.4103
▁enti	-12.4114
▁zip	-12.4116
2|3|4	-12.4128
▁thi	-12.4135
:251	-12.4163
▁spic	-12.4197
,4|4|4_5|	-12.4385
hahah	-12.442
▁nu	-12.4446
0$	-12.4467
aur	-12.4516
▁pac	-12.4558
▁believ	-12.4618
▁sympath	-12.4637
rench	-12.4639
▁infa	-12.4668
gna	-12.4676
AW	-12.4683
▁hav	-12.4728
lated	-12.4763
▁achiev	-12.4826
SE	-12.4844
▁breathe	-12.4879
▁america	-12.4883
ustin	-12.4903
▁ohhh	-12.4929
ppreciate	-12.4946
▁folk	-12.4982
▁grandparent	-12.4985
ailor	-12.4999
▁manner	-12.5006
LY	-12.5026
patio	-12.5049
full	-12.5058
▁rack	-12.5059
hard	-12.508
▁sooooo	-12.5085
though	-12.5094
▁rub	-12.5095
▁embarrass	-12.5098
order	-12.5103
▁shove	-12.5106
grass	-12.5106
Unfortunately	-12.5106
Time	-12.5106
Exactly	-12.5106
hope	-12.5106
Will	-12.5106
Hopefully	-12.5106
foot	-12.5106
lock	-12.5108
▁slid	-12.511
▁Step	-12.511
soft	-12.511
keep	-12.5113
mail	-12.5113
Try	-12.5116
▁wander	-12.5116
1|3	-12.5121
▁engage	-12.5123
case	-12.5123
▁approve	-12.5127
▁Grand	-12.5127
Uh	-12.5129
▁scree	-12.513
about	-12.5131
▁empt	-12.5132
▁ultimate	-12.5132
▁official	-12.5132
▁technical	-12.5133
▁publish	-12.5133
▁sentiment	-12.5134
▁whip	-12.5135
▁slight	-12.5137
ternity	-12.5137
▁fulfil	-12.5138
hydrate	-12.5138
▁medic	-12.5138
runch	-12.5138
nior	-12.5138
:2172,	-12.5138
:400,	-12.5138
:3140,	-12.5138
:9376,	-12.5138
:999	-12.5138
▁curfew	-12.5138
:19154,	-12.5138
:20775,	-12.5138
▁NYC	-12.5138
▁Oooh	-12.5138
▁swoop	-12.5138
,159,	-12.5138
.,609,	-12.5138
:20874,	-12.5138
:20914,	-12.5138
=	-12.5138
Graduat	-12.5138
Ugghhh	-12.5138
[	-12.5138
agle	-12.5138
▁,449,	-12.5138
▁;-)	-12.5138
▁ASAP	-12.5138
▁Alaska	-12.5138
▁April	-12.5138
▁British	-12.5138
▁China	-12.5138
▁Civic	-12.5138
▁Economics	-12.5138
▁Education	-12.5138
▁Financial	-12.5138
▁Fortunately	-12.5138
▁HUGE	-12.5138
▁Human	-12.5138
▁Jesus	-12.5138
▁NHL	-12.5138
▁Olympics	-12.5138
▁Quest	-12.5138
▁READ	-12.5138
▁RUDE	-12.5138
▁SEC	-12.5138
▁Scotland	-12.5138
▁Syracuse	-12.5138
▁TIME	-12.5138
▁Toyota	-12.5138
▁Turkey	-12.5138
▁UPS	-12.5138
▁WEEK	-12.5138
▁WHO	-12.5138
▁aggravated	-12.5138
▁allergy	-12.5138
▁ambulance	-12.5138
▁analyst	-12.5138
▁announcement	-12.5138
▁armadillo	-12.5138
▁artificial	-12.5138
▁autonomy	-12.5138
▁beauty	-12.5138
▁breweries	-12.5138
▁burglar	-12.5138
▁cartwheel	-12.5138
▁chapter	-12.5138
▁chubby	-12.5138
▁cooperate	-12.5138
▁cooperati	-12.5138
▁cranky	-12.5138
▁creek	-12.5138
▁crisis	-12.5138
▁criticism	-12.5138
▁deceased	-12.5138
▁decorating	-12.5138
▁discouraging	-12.5138
▁disguise	-12.5138
▁domestic	-12.5138
▁electronics	-12.5138
▁encouraging	-12.5138
▁enroll	-12.5138
▁ensure	-12.5138
▁ethic	-12.5138
▁expedition	-12.5138
▁experiencing	-12.5138
▁fatigue	-12.5138
▁filter	-12.5138
▁forecast	-12.5138
▁genuine	-12.5138
▁grandchildren	-12.5138
▁hawaii	-12.5138
▁heartwarming	-12.5138
▁helicopter	-12.5138
▁incompetent	-12.5138
▁intelligent	-12.5138
▁judgment	-12.5138
▁leadership	-12.5138
▁leisure	-12.5138
▁lobster	-12.5138
▁luxurious	-12.5138
▁magazine	-12.5138
▁microwave	-12.5138
▁nanny	-12.5138
▁neutral	-12.5138
▁october	-12.5138
▁optom	-12.5138
▁pancreatitis	-12.5138
▁paralyz	-12.5138
▁perfume	-12.5138
▁pessimistic	-12.5138
▁portrait	-12.5138
▁predicament	-12.5138
▁preview	-12.5138
▁qualities	-12.5138
▁quiz	-12.5138
▁rambunctious	-12.5138
▁rattlesnake	-12.5138
▁reckless	-12.5138
▁region	-12.5138
▁reluctant	-12.5138
▁roast	-12.5138
▁snag	-12.5138
▁sophomore	-12.5138
▁statistics	-12.5138
▁strategy	-12.5138
▁structure	-12.5138
▁sunshine	-12.5138
▁surgeon	-12.5138
▁toenail	-12.5138
▁traumatized	-12.5138
▁trunk	-12.5138
▁turbulence	-12.5138
▁universal	-12.5138
▁victim	-12.5138
▁volleyball	-12.5138
▁vulnerable	-12.5138
▁weightlifting	-12.5138
▁wolf	-12.5138
▁wrangler	-12.5138
▁yourselves	-12.5138
,563,	-12.5138
.,746,	-12.5138
.,80,	-12.5138
curricul	-12.5138
▁COD	-12.5138
▁German	-12.5138
▁Hillary	-12.5138
▁Information	-12.5138
▁barefoot	-12.5138
▁chemotherapy	-12.5138
▁conquer	-12.5138
▁cowboys	-12.5138
▁criminal	-12.5138
▁eagles	-12.5138
▁endeavor	-12.5138
▁extort	-12.5138
▁garlic	-12.5138
▁immigrants	-12.5138
▁orange	-12.5138
▁overflow	-12.5138
▁sassy	-12.5138
▁stretch	-12.5138
▁strive	-12.5138
▁unicycle	-12.5138
▁whatsoever	-12.5138
:21140,	-12.5138
▁ANY	-12.5138
▁Darn	-12.5138
▁appeal	-12.5138
▁backseat	-12.5138
▁chainsaw	-12.5138
▁frantic	-12.5138
▁iPad	-12.5138
▁scatter	-12.5138
▁violent	-12.5138
:21157,	-12.5138
:339	-12.5138
:6986,	-12.5138
▁consume	-12.5138
▁context	-12.5138
▁miscarriage	-12.5138
:17044,	-12.5138
▁curve	-12.5138
:3136,	-12.5138
▁tongue	-12.5138
EGG	-12.5138
▁tele	-12.5138
:1720,	-12.5138
:4917,	-12.5138
▁Dragon	-12.5138
▁Kart	-12.5138
▁Audi	-12.5138
▁dozen	-12.5138
▁getaway	-12.5138
▁instance	-12.5138
▁troubling	-12.5138
▁Health	-12.5138
▁exited	-12.5138
▁gramma	-12.5138
▁extent	-12.5138
▁beleive	-12.5138
▁wellington	-12.5138
▁contra	-12.5138
▁privacy	-12.5138
▁basket	-12.5138
▁fulfilled	-12.5138
▁sweep	-12.5138
▁transmission	-12.5138
▁observ	-12.5138
▁surface	-12.5138
▁Pink	-12.5138
▁stopping	-12.5138
▁insult	-12.5138
arrange	-12.5138
▁95%	-12.5138
▁OFF	-12.5138
▁Kong	-12.5138
▁replacing	-12.5138
IGHT	-12.5138
▁Emerald	-12.5138
▁division	-12.5138
▁reset	-12.5139
▁snowboard	-12.5139
▁shelf	-12.5139
▁uncertainty	-12.5139
▁york	-12.5139
▁pupper	-12.5139
▁fought	-12.5139
▁roadkill	-12.5139
▁brick	-12.5139
▁infest	-12.5139
▁saint	-12.5139
▁scenery	-12.5139
▁recieve	-12.5139
▁ewww	-12.5139
▁unaware	-12.5139
▁overheat	-12.5139
▁sheep	-12.5139
▁beaming	-12.514
▁substan	-12.514
▁studies	-12.514
▁quar	-12.514
▁rival	-12.514
▁nursery	-12.514
▁sofa	-12.514
▁Face	-12.514
▁production	-12.514
▁Dead	-12.514
▁Often	-12.514
▁2019	-12.514
▁strawberry	-12.5141
▁State	-12.5141
,4|3|5_5|5|5,	-12.5141
▁dwell	-12.5141
▁yum	-12.5141
▁cardio	-12.5141
:15706,	-12.5141
▁pond	-12.5142
▁gul	-12.5142
▁medal	-12.5142
▁mule	-12.5142
▁kara	-12.5142
▁Hold	-12.5142
▁Saving	-12.5142
▁fend	-12.5142
▁stack	-12.5142
▁Rome	-12.5143
▁Four	-12.5143
▁publisher	-12.5143
▁tenant	-12.5143
▁warranty	-12.5144
▁loop	-12.5144
▁chunky	-12.5146
▁sleepover	-12.5146
NU	-12.5146
▁rust	-12.5146
▁shine	-12.5147
▁shameful	-12.5148
▁powerful	-12.5148
▁code	-12.5148
▁fearful	-12.5149
▁vey	-12.5149
▁Deal	-12.5149
▁Grandpa	-12.5149
▁shit	-12.515
▁sane	-12.515
▁politely	-12.5151
▁sandwiches	-12.5152
estate	-12.5152
▁commute	-12.5152
▁Mud	-12.5152
▁stil	-12.5153
ville	-12.5155
▁overthink	-12.5155
Sat	-12.5155
▁Say	-12.5156
▁flake	-12.5157
▁Somewhat	-12.5158
▁flyers	-12.5158
▁Land	-12.5159
▁bitten	-12.5159
hroom	-12.5163
▁SW	-12.5164
ational	-12.5166
ju	-12.5167
▁union	-12.5169
awareness	-12.5181
▁dancer	-12.5182
▁Less	-12.5185
▁pitcher	-12.5188
Cra	-12.5193
▁Gree	-12.5193
aul	-12.5201
▁menu	-12.5206
▁clubbin	-12.5218
last	-12.5233
▁India	-12.5262
fortunatley	-12.5267
▁Couldn	-12.5271
semi	-12.528
auze	-12.5294
▁350	-12.5309
dditional	-12.5316
▁Fri	-12.5355
ngers	-12.5379
▁marker	-12.542
Order	-12.5476
BO	-12.5493
,2|3|4_5|5|	-12.5527
olice	-12.5529
▁happ	-12.554
?,5|5|5_3|	-12.5543
▁barge	-12.5593
:1121	-12.5599
▁disabilit	-12.5638
:1123	-12.5649
aga	-12.5704
cockroaches	-12.5711
▁55	-12.5839
vice	-12.5849
▁shopp	-12.5891
▁wha	-12.5901
eering	-12.6003
▁pest	-12.6016
▁expans	-12.6026
▁Col	-12.6026
ANT	-12.6035
lain	-12.6097
,422,	-12.6187
▁spice	-12.6194
,580,	-12.6327
,375,	-12.6336
▁unreal	-12.6339
lueless	-12.6387
▁mil	-12.6412
oops	-12.6449
▁multi	-12.6492
bon	-12.6516
washer	-12.6586
▁bounc	-12.6595
▁nick	-12.6615
▁diagno	-12.6622
▁Brother	-12.6646
▁appliance	-12.6646
▁alien	-12.6647
▁assignment	-12.6647
▁errand	-12.6647
EW	-12.6664
▁Hate	-12.6667
hhhhh	-12.668
2|3|2	-12.6701
racking	-12.6719
▁Hahahaha	-12.6723
2|4|2	-12.6726
style	-12.6764
ERAL	-12.6771
pilot	-12.6771
painted	-12.6771
everytime	-12.6772
Famil	-12.6772
Hang	-12.6772
Stay	-12.6772
Super	-12.6772
grown	-12.6773
Glad	-12.6773
finally	-12.6773
job	-12.6773
kids	-12.6773
▁cuddl	-12.6774
until	-12.6775
wood	-12.6775
Nothing	-12.6776
Over	-12.6777
▁abo	-12.6779
▁disturb	-12.6783
home	-12.6783
▁download	-12.6785
▁neglect	-12.6785
▁tak	-12.6788
▁tick	-12.6789
▁,4|4|	-12.6789
▁determine	-12.679
▁affor	-12.6791
▁choke	-12.6792
▁pun	-12.6792
▁twi	-12.6793
▁positiv	-12.6797
▁warrant	-12.6798
▁necessar	-12.6798
▁custom	-12.6799
▁immediate	-12.6799
▁instant	-12.6799
▁explor	-12.68
▁champ	-12.68
▁interact	-12.6803
▁juggl	-12.6803
elieve	-12.6803
▁congra	-12.6803
▁commend	-12.6804
ifferent	-12.6804
▁sku	-12.6805
▁surround	-12.6805
:20084,	-12.6805
fortable	-12.6805
▁absen	-12.6805
▁straw	-12.6805
?,4|	-12.6805
:22880,	-12.6805
:7023,	-12.6805
▁embar	-12.6805
,278,	-12.6805
,289,	-12.6805
,547,	-12.6805
:15250,	-12.6805
:20071,	-12.6805
:5025,	-12.6805
Exciting	-12.6805
temporarily	-12.6805
▁Counsel	-12.6805
▁caregiver	-12.6805
▁memorabilia	-12.6805
▁paralysis	-12.6805
▁stabilize	-12.6805
▁unpredictab	-12.6805
!,291,	-12.6805
,117,	-12.6805
,158,	-12.6805
,231,	-12.6805
,328,	-12.6805
,587,	-12.6805
.,436,	-12.6805
.,640,	-12.6805
.,762,	-12.6805
:15248,	-12.6805
:1641,	-12.6805
:401,	-12.6805
:9377,	-12.6805
Possibly	-12.6805
Scratch	-12.6805
]	-12.6805
abbed	-12.6805
dministration	-12.6805
▁$60	-12.6805
▁,671,	-12.6805
▁Adult	-12.6805
▁Braves	-12.6805
▁Brazil	-12.6805
▁Congradulations	-12.6805
▁DIDNT	-12.6805
▁Dude	-12.6805
▁GPS	-12.6805
▁Glory	-12.6805
▁HARD	-12.6805
▁Hulk	-12.6805
▁Insidious	-12.6805
▁Jeez	-12.6805
▁Jerry	-12.6805
▁Leafs	-12.6805
▁Marine	-12.6805
▁Nashville	-12.6805
▁Paris	-12.6805
▁Practic	-12.6805
▁Ramen	-12.6805
▁Safe	-12.6805
▁Shark	-12.6805
▁Technology	-12.6805
▁Tennis	-12.6805
▁Vacation	-12.6805
▁Whew	-12.6805
▁Women	-12.6805
▁Xbox	-12.6805
▁Zelda	-12.6805
▁admirable	-12.6805
▁alligator	-12.6805
▁article	-12.6805
▁atmosphere	-12.6805
▁attachment	-12.6805
▁backtrack	-12.6805
▁bbq	-12.6805
▁beneficial	-12.6805
▁bikini	-12.6805
▁biopsy	-12.6805
▁bizarre	-12.6805
▁blonde	-12.6805
▁cheesy	-12.6805
▁cheque	-12.6805
▁choosing	-12.6805
▁clutter	-12.6805
▁conclusion	-12.6805
▁confusing	-12.6805
▁cramming	-12.6805
▁crazies	-12.6805
▁crisp	-12.6805
▁crucial	-12.6805
▁cuisine	-12.6805
▁curb	-12.6805
▁dairy	-12.6805
▁defenitly	-12.6805
▁defensive	-12.6805
▁democrats	-12.6805
▁deserving	-12.6805
▁diligent	-12.6805
▁diploma	-12.6805
▁disgrace	-12.6805
▁disrupt	-12.6805
▁dunno	-12.6805
▁educated	-12.6805
▁elephant	-12.6805
▁embrac	-12.6805
▁energetic	-12.6805
▁enlighten	-12.6805
▁enthusiast	-12.6805
▁entrance	-12.6805
▁esteem	-12.6805
▁exhibit	-12.6805
▁fainted	-12.6805
▁filthy	-12.6805
▁gender	-12.6805
▁generator	-12.6805
▁granddaughter	-12.6805
▁gullible	-12.6805
▁horizon	-12.6805
▁horrific	-12.6805
▁impulsive	-12.6805
▁inconvenience	-12.6805
▁inherited	-12.6805
▁inspected	-12.6805
▁invention	-12.6805
▁jello	-12.6805
▁judging	-12.6805
▁kangaroo	-12.6805
▁leather	-12.6805
▁mexico	-12.6805
▁midwest	-12.6805
▁mobile	-12.6805
▁murcialago	-12.6805
▁mushy	-12.6805
▁necessit	-12.6805
▁nutrition	-12.6805
▁offensive	-12.6805
▁overweight	-12.6805
▁pamper	-12.6805
▁pencil	-12.6805
▁phrase	-12.6805
▁pianist	-12.6805
▁popsicles	-12.6805
▁predict	-12.6805
▁principal	-12.6805
▁profusely	-12.6805
▁recharge	-12.6805
▁recreational	-12.6805
▁refrigerator	-12.6805
▁relieving	-12.6805
▁renovation	-12.6805
▁retrieve	-12.6805
▁sausage	-12.6805
▁sculpture	-12.6805
▁severance	-12.6805
▁shotgun	-12.6805
▁sneeze	-12.6805
▁snotty	-12.6805
▁splurge	-12.6805
▁stereo	-12.6805
▁stitches	-12.6805
▁strapped	-12.6805
▁streak	-12.6805
▁suspended	-12.6805
▁sweatshop	-12.6805
▁terror	-12.6805
▁thirsty	-12.6805
▁thoroughly	-12.6805
▁trampoline	-12.6805
▁tuesday	-12.6805
▁unzipped	-12.6805
▁vaccine	-12.6805
▁videogame	-12.6805
▁virtual	-12.6805
▁whiske	-12.6805
▁windshield	-12.6805
▁wrestle	-12.6805
.,291,	-12.6805
.,420,	-12.6805
.,598,	-12.6805
.,684,	-12.6805
:17587,	-12.6805
:3129,	-12.6805
:7008,	-12.6805
ification	-12.6805
nfinity	-12.6805
wolves	-12.6805
▁Tonight	-12.6805
▁Understandable	-12.6805
▁Vietnam	-12.6805
▁asheville	-12.6805
▁autistic	-12.6805
▁delighted	-12.6805
▁figurines	-12.6805
▁pesky	-12.6805
▁recruit	-12.6805
▁syndrome	-12.6805
▁workforce	-12.6805
,416,	-12.6805
,66,	-12.6805
assachuset	-12.6805
pension	-12.6805
▁Batman	-12.6805
▁Guard	-12.6805
▁cinna	-12.6805
▁panicked	-12.6805
▁refusing	-12.6805
,79,	-12.6805
:15251,	-12.6805
:18842,	-12.6805
:18853,	-12.6805
:20065,	-12.6805
:20075,	-12.6805
▁offense	-12.6805
▁rabies	-12.6805
▁repulsi	-12.6805
▁troll	-12.6805
-60	-12.6805
:10596,	-12.6805
ECT	-12.6805
▁Afterwards	-12.6805
▁dmv	-12.6805
Fruit	-12.6805
▁Learn	-12.6805
▁tithes	-12.6805
▁sandals	-12.6805
▁undies	-12.6805
:20070,	-12.6805
:2141,	-12.6805
etallica	-12.6805
▁detect	-12.6805
▁genre	-12.6805
▁method	-12.6805
▁scarred	-12.6805
▁versa	-12.6805
▁reveal	-12.6805
relevan	-12.6805
▁lamp	-12.6805
▁superior	-12.6805
▁misplace	-12.6805
▁slick	-12.6805
Orange	-12.6805
▁crust	-12.6805
▁lonley	-12.6805
▁pears	-12.6805
▁teammate	-12.6805
▁arriving	-12.6805
▁bushes	-12.6805
,495,	-12.6805
▁undone	-12.6805
▁IKEA	-12.6805
▁trou	-12.6805
nguish	-12.6805
▁defeat	-12.6805
▁satisfaction	-12.6805
▁awoke	-12.6805
▁Smell	-12.6805
▁obedience	-12.6805
▁Weird	-12.6805
▁remorseful	-12.6805
▁retro	-12.6805
amsung	-12.6805
▁Indiana	-12.6805
▁Bull	-12.6805
▁Coast	-12.6805
▁shallow	-12.6805
▁surroundings	-12.6805
.,81,	-12.6805
▁confrontational	-12.6805
▁disorder	-12.6805
▁scale	-12.6805
▁link	-12.6805
▁youthful	-12.6805
▁absence	-12.6805
▁bleach	-12.6805
Dairy	-12.6805
▁river	-12.6805
▁rapid	-12.6805
▁unsettling	-12.6805
▁disown	-12.6805
pleasur	-12.6806
▁organs	-12.6806
▁device	-12.6806
▁display	-12.6806
▁membership	-12.6806
▁shore	-12.6806
▁commendable	-12.6806
412	-12.6806
▁reduce	-12.6806
▁diver	-12.6806
▁silent	-12.6806
volent	-12.6806
▁hallway	-12.6806
WAY	-12.6806
▁sprain	-12.6806
riggin	-12.6806
▁foolish	-12.6806
▁East	-12.6806
▁Tough	-12.6806
▁buff	-12.6806
▁carelessness	-12.6806
▁panties	-12.6806
▁soldier	-12.6807
▁Yale	-12.6807
▁dramatic	-12.6807
▁effective	-12.6807
▁wireless	-12.6807
▁aweful	-12.6807
▁interaction	-12.6807
▁terrific	-12.6807
▁remake	-12.6807
▁shall	-12.6807
▁overeat	-12.6807
▁hound	-12.6807
▁Grac	-12.6808
▁tame	-12.6808
▁affection	-12.6808
▁cast	-12.6809
:1717,	-12.6809
▁steady	-12.6809
▁cancelling	-12.6809
▁March	-12.681
▁wealthy	-12.681
▁waist	-12.681
▁insect	-12.6811
▁Amen	-12.6811
▁eight	-12.6812
▁pure	-12.6813
▁plea	-12.6813
▁Fold	-12.6813
▁development	-12.6813
▁Naw	-12.6813
▁director	-12.6814
▁twist	-12.6814
▁expression	-12.6814
▁fess	-12.6815
▁punches	-12.6815
▁Smok	-12.6815
▁Night	-12.6816
▁dependable	-12.6816
▁EP	-12.6817
▁tornadoes	-12.6817
▁Bring	-12.6818
▁fist	-12.6818
▁KY	-12.6818
▁psycho	-12.6819
ubaru	-12.6819
▁Asian	-12.6823
▁debate	-12.6823
equ	-12.6826
▁realise	-12.6842
LD	-12.6848
pour	-12.6871
▁terrifie	-12.6875
▁2005	-12.6902
▁automat	-12.6905
▁mustang	-12.6939
▁stepmo	-12.6972
ciati	-12.698
▁grip	-12.6989
▁dragg	-12.6993
aware	-12.7055
▁Cheat	-12.7085
illiams	-12.7135
kype	-12.7164
RR	-12.7192
:1143	-12.7207
▁rigg	-12.722
▁chow	-12.7281
CO	-12.7386
ctively	-12.759
▁bio	-12.768
esides	-12.7729
5%	-12.7797
,3|5|5_5|	-12.7808
apping	-12.7834
▁legg	-12.8003
▁snuggl	-12.8132
Stepp	-12.8178
teakhouse	-12.8212
▁approv	-12.829
3|3|4	-12.8315
▁parl	-12.832
tube	-12.8381
▁Gab	-12.8402
Meet	-12.8476
,4|5|4_	-12.8499
▁Egg	-12.8532
.,2|4|	-12.8542
PO	-12.8543
▁Send	-12.8561
▁loos	-12.8678
▁exclu	-12.8706
riders	-12.8709
|4|5_5|5|5,	-12.8756
check	-12.8769
Check	-12.8771
happy	-12.8772
mission	-12.8772
College	-12.8772
Seriously	-12.8772
familiar	-12.8772
Okay	-12.8772
nearby	-12.8772
cough	-12.8773
food	-12.8773
dark	-12.8773
girlfriend	-12.8773
loved	-12.8773
:(	-12.8774
spend	-12.8774
Like	-12.8774
however	-12.8775
gran	-12.8775
▁debat	-12.8783
▁arrest	-12.8785
▁haunt	-12.8786
controll	-12.8786
▁quic	-12.8789
▁dedicate	-12.8789
▁promote	-12.879
▁injure	-12.879
▁wealth	-12.8798
▁numb	-12.8799
▁landscap	-12.88
▁griev	-12.88
▁Franc	-12.88
ivalr	-12.8802
OOOO	-12.8802
▁empath	-12.8802
uarterback	-12.8803
▁obli	-12.8804
omputer	-12.8804
onfidence	-12.8804
ustomer	-12.8804
heesecake	-12.8804
urprise	-12.8804
|5_4|4|4,	-12.8804
merald	-12.8804
entioned	-12.8804
▁Pub	-12.8804
inclu	-12.8804
▁divis	-12.8804
▁Thai	-12.8805
:19047,	-12.8805
:15209,	-12.8805
:16172,	-12.8805
:1680,	-12.8805
:1695,	-12.8805
:17112,	-12.8805
:17512,	-12.8805
:20952,	-12.8805
:20971,	-12.8805
:21173,	-12.8805
:22886,	-12.8805
:23262,	-12.8805
:23293,	-12.8805
:23305,	-12.8805
:4914,	-12.8805
:4931,	-12.8805
:15220,	-12.8805
:1686,	-12.8805
:17530,	-12.8805
:17578,	-12.8805
:17584,	-12.8805
:17602,	-12.8805
:19111,	-12.8805
:20117,	-12.8805
:22884,	-12.8805
:23154,	-12.8805
:4976,	-12.8805
:13244,	-12.8805
:17569,	-12.8805
:17582,	-12.8805
:19083,	-12.8805
:20037,	-12.8805
:20044,	-12.8805
:20057,	-12.8805
:20793,	-12.8805
:20865,	-12.8805
:20969,	-12.8805
:21155,	-12.8805
:21167,	-12.8805
:21174,	-12.8805
:2215,	-12.8805
:23158,	-12.8805
:23364,	-12.8805
:23368,	-12.8805
:397,	-12.8805
:4926,	-12.8805
:7002,	-12.8805
:7022,	-12.8805
,5|5	-12.8805
,716,	-12.8805
.,642,	-12.8805
:15228,	-12.8805
:15247,	-12.8805
:15265,	-12.8805
:1672,	-12.8805
:1729,	-12.8805
:17544,	-12.8805
:17564,	-12.8805
:17565,	-12.8805
:19062,	-12.8805
:19092,	-12.8805
:19155,	-12.8805
:20085,	-12.8805
:20102,	-12.8805
:20104,	-12.8805
:20766,	-12.8805
:20795,	-12.8805
:20888,	-12.8805
:20960,	-12.8805
:21176,	-12.8805
:2144,	-12.8805
:2182,	-12.8805
:22211,	-12.8805
:22214,	-12.8805
:2238,	-12.8805
:23172,	-12.8805
:23195,	-12.8805
:23272,	-12.8805
:23322,	-12.8805
:3130,	-12.8805
:4890,	-12.8805
:5030,	-12.8805
:6827,	-12.8805
:731,	-12.8805
▁gadget	-12.8805
▁immigra	-12.8805
***	-12.8805
,174,	-12.8805
,287,	-12.8805
.,386,	-12.8805
cycling	-12.8805
▁bacteria	-12.8805
▁behaviour	-12.8805
▁bridesmaid	-12.8805
▁convention	-12.8805
▁eveything	-12.8805
▁glutton	-12.8805
▁grandchild	-12.8805
▁pancreati	-12.8805
▁prince	-12.8805
▁scumbag	-12.8805
,4|5|4_3|	-12.8805
,818,	-12.8805
.,216,	-12.8805
.,413,	-12.8805
.,578,	-12.8805
.,743,	-12.8805
:15224,	-12.8805
:15230,	-12.8805
:15249,	-12.8805
:15950,	-12.8805
:1666,	-12.8805
:1682,	-12.8805
:1692,	-12.8805
:17053,	-12.8805
:17058,	-12.8805
:1724,	-12.8805
:17529,	-12.8805
:17553,	-12.8805
:17621,	-12.8805
:17622,	-12.8805
:18175,	-12.8805
:19028,	-12.8805
:19129,	-12.8805
:20049,	-12.8805
:20094,	-12.8805
:20801,	-12.8805
:20811,	-12.8805
:20859,	-12.8805
:20905,	-12.8805
:20908,	-12.8805
:20962,	-12.8805
:2139,	-12.8805
:2148,	-12.8805
:2201,	-12.8805
:2209,	-12.8805
:23151,	-12.8805
:23170,	-12.8805
:23186,	-12.8805
:23256,	-12.8805
:23383,	-12.8805
:2524,	-12.8805
:3121,	-12.8805
:408,	-12.8805
:4925,	-12.8805
:4947,	-12.8805
:4962,	-12.8805
:4966,	-12.8805
:5634,	-12.8805
:5638,	-12.8805
:6974,	-12.8805
:7009,	-12.8805
:9213,	-12.8805
:9364,	-12.8805
:9390,	-12.8805
Hillbillies	-12.8805
Horrible	-12.8805
evolution	-12.8805
raneosyneostosis	-12.8805
script	-12.8805
▁,315,	-12.8805
▁24/7	-12.8805
▁Avatar	-12.8805
▁Bipolar	-12.8805
▁Burger	-12.8805
▁Chemistry	-12.8805
▁Chlorella	-12.8805
▁Chris	-12.8805
▁Club	-12.8805
▁Congress	-12.8805
▁DVD	-12.8805
▁Depends	-12.8805
▁Diego	-12.8805
▁Domino	-12.8805
▁GOOD	-12.8805
▁Incredibl	-12.8805
▁Internet	-12.8805
▁Kansas	-12.8805
▁Kudos	-12.8805
▁LSAT	-12.8805
▁Labrador	-12.8805
▁London	-12.8805
▁Memphis	-12.8805
▁Mercedes	-12.8805
▁Obama	-12.8805
▁Patriots	-12.8805
▁Philippines	-12.8805
▁Queen	-12.8805
▁Ramsey	-12.8805
▁Remind	-12.8805
▁Statistic	-12.8805
▁Tornado	-12.8805
▁Truth	-12.8805
▁Twitch	-12.8805
▁Valentine	-12.8805
▁Zealand	-12.8805
▁abhor	-12.8805
▁algebra	-12.8805
▁apologizing	-12.8805
▁apology	-12.8805
▁apprehension	-12.8805
▁associate	-12.8805
▁bartender	-12.8805
▁bouquet	-12.8805
▁campaign	-12.8805
▁chaos	-12.8805
▁coincidence	-12.8805
▁combine	-12.8805
▁comparison	-12.8805
▁completly	-12.8805
▁consolation	-12.8805
▁cubicle	-12.8805
▁deadbeat	-12.8805
▁devoted	-12.8805
▁digital	-12.8805
▁edition	-12.8805
▁eggplant	-12.8805
▁entrepreneur	-12.8805
▁escalate	-12.8805
▁explosion	-12.8805
▁exposed	-12.8805
▁fabulous	-12.8805
▁france	-12.8805
▁freelance	-12.8805
▁frugal	-12.8805
▁frusterating	-12.8805
▁hazard	-12.8805
▁hoarder	-12.8805
▁honda	-12.8805
▁horrid	-12.8805
▁initiative	-12.8805
▁invitation	-12.8805
▁japan	-12.8805
▁jitter	-12.8805
▁journal	-12.8805
▁lanai	-12.8805
▁library	-12.8805
▁liquor	-12.8805
▁lyrics	-12.8805
▁malnourished	-12.8805
▁metabolism	-12.8805
▁moderation	-12.8805
▁napkin	-12.8805
▁nastiness	-12.8805
▁navigat	-12.8805
▁nonetheless	-12.8805
▁occurrence	-12.8805
▁oppos	-12.8805
▁orchestra	-12.8805
▁password	-12.8805
▁peanut	-12.8805
▁petrified	-12.8805
▁piercing	-12.8805
▁plague	-12.8805
▁podcast	-12.8805
▁premium	-12.8805
▁preordered	-12.8805
▁prestigious	-12.8805
▁prettiest	-12.8805
▁probation	-12.8805
▁produce	-12.8805
▁rainstorm	-12.8805
▁ravioli	-12.8805
▁reassure	-12.8805
▁recliner	-12.8805
▁representative	-12.8805
▁reserve	-12.8805
▁resolution	-12.8805
▁restaraunt	-12.8805
▁roadtrip	-12.8805
▁royal	-12.8805
▁scienti	-12.8805
▁scout	-12.8805
▁september	-12.8805
▁skeptical	-12.8805
▁smelt	-12.8805
▁solitude	-12.8805
▁spanish	-12.8805
▁species	-12.8805
▁squeeze	-12.8805
▁stoop	-12.8805
▁stranded	-12.8805
▁stunned	-12.8805
▁stutter	-12.8805
▁surgeries	-12.8805
▁survival	-12.8805
▁survivor	-12.8805
▁suspense	-12.8805
▁testimony	-12.8805
▁traumatizing	-12.8805
▁tweet	-12.8805
▁twenties	-12.8805
▁unbearable	-12.8805
▁uncommon	-12.8805
▁unconditional	-12.8805
▁unnerving	-12.8805
▁venom	-12.8805
▁victory	-12.8805
▁violinist	-12.8805
▁wednesday	-12.8805
!,292,	-12.8805
,368,	-12.8805
,3|4|1_5|5|5,	-12.8805
.,180,	-12.8805
.,315,	-12.8805
.,602,	-12.8805
.,65,	-12.8805
.,669,	-12.8805
REALLY	-12.8805
plicate	-12.8805
▁AMAZING	-12.8805
▁Bitter	-12.8805
▁Blood	-12.8805
▁GROSS	-12.8805
▁General	-12.8805
▁Manager	-12.8805
▁Michigan	-12.8805
▁Royal	-12.8805
▁appalled	-12.8805
▁assault	-12.8805
▁bitcoin	-12.8805
▁chili	-12.8805
▁comfy	-12.8805
▁critical	-12.8805
▁desert	-12.8805
▁eerie	-12.8805
▁entry	-12.8805
▁fierce	-12.8805
▁frown	-12.8805
▁hinder	-12.8805
▁indulge	-12.8805
▁interfere	-12.8805
▁kindergarden	-12.8805
▁meanwhile	-12.8805
▁motivating	-12.8805
▁presidency	-12.8805
▁sailed	-12.8805
▁shoplift	-12.8805
▁tyke	-12.8805
▁verbal	-12.8805
▁worthwhile	-12.8805
,2|2|2_5|5|5,	-12.8805
,421,	-12.8805
3|3_5|	-12.8805
:10592,	-12.8805
:15210,	-12.8805
:15214,	-12.8805
:15237,	-12.8805
:15244,	-12.8805
:15256,	-12.8805
:15262,	-12.8805
:15272,	-12.8805
:15273,	-12.8805
:15276,	-12.8805
:1638,	-12.8805
:1643,	-12.8805
:1691,	-12.8805
:17064,	-12.8805
:17091,	-12.8805
:1722,	-12.8805
:19007,	-12.8805
:19068,	-12.8805
:20045,	-12.8805
:20059,	-12.8805
:20064,	-12.8805
:20067,	-12.8805
:20115,	-12.8805
:20765,	-12.8805
:20791,	-12.8805
:20867,	-12.8805
:20896,	-12.8805
:20902,	-12.8805
:2151,	-12.8805
:2153,	-12.8805
:23152,	-12.8805
:23165,	-12.8805
:23175,	-12.8805
:23275,	-12.8805
:23308,	-12.8805
:23325,	-12.8805
:23344,	-12.8805
:23350,	-12.8805
:3133,	-12.8805
:393,	-12.8805
:402,	-12.8805
:4907,	-12.8805
:4928,	-12.8805
:4956,	-12.8805
:6802,	-12.8805
:736,	-12.8805
:9236,	-12.8805
▁Again	-12.8805
▁Feb	-12.8805
▁Fortnite	-12.8805
▁cupboards	-12.8805
▁german	-12.8805
▁germs	-12.8805
▁isolating	-12.8805
▁midterm	-12.8805
▁oyster	-12.8805
▁queen	-12.8805
▁unfortune	-12.8805
.,559,	-12.8805
.,78,	-12.8805
▁Pick	-12.8805
▁United	-12.8805
▁seperate	-12.8805
:12046,	-12.8805
:15202,	-12.8805
:15948,	-12.8805
:1685,	-12.8805
:17116,	-12.8805
:17559,	-12.8805
:18847,	-12.8805
:18984,	-12.8805
:18988,	-12.8805
:19119,	-12.8805
:20861,	-12.8805
:20957,	-12.8805
:2146,	-12.8805
:2207,	-12.8805
:23177,	-12.8805
:6971,	-12.8805
:7007,	-12.8805
:7051,	-12.8805
:9368,	-12.8805
:9383,	-12.8805
:9392,	-12.8805
▁Chihuahuas	-12.8805
▁Eek	-12.8805
▁stomp	-12.8805
:12019,	-12.8805
:15239,	-12.8805
:15259,	-12.8805
:17054,	-12.8805
:1734,	-12.8805
:17899,	-12.8805
:18975,	-12.8805
:19081,	-12.8805
:19158,	-12.8805
:20035,	-12.8805
:20040,	-12.8805
:20089,	-12.8805
:20854,	-12.8805
:2155,	-12.8805
:2522,	-12.8805
:4934,	-12.8805
:4957,	-12.8805
:4959,	-12.8805
:7035,	-12.8805
▁exceed	-12.8805
▁genes	-12.8805
▁grapes	-12.8805
▁hacked	-12.8805
▁neuro	-12.8805
▁swarm	-12.8805
▁tailgate	-12.8805
:15294,	-12.8805
:1679,	-12.8805
:17576,	-12.8805
:17620,	-12.8805
:18849,	-12.8805
:20074,	-12.8805
:20108,	-12.8805
:20777,	-12.8805
:20780,	-12.8805
:23335,	-12.8805
:396,	-12.8805
:9375,	-12.8805
▁BIG	-12.8805
▁goodluck	-12.8805
▁Lord	-12.8805
▁welcoming	-12.8805
:10595,	-12.8805
:12001,	-12.8805
:15219,	-12.8805
:15296,	-12.8805
:15297,	-12.8805
:16176,	-12.8805
:1675,	-12.8805
:17516,	-12.8805
:18841,	-12.8805
:19101,	-12.8805
:20121,	-12.8805
:23180,	-12.8805
:23297,	-12.8805
:23339,	-12.8805
:23340,	-12.8805
:6994,	-12.8805
:7042,	-12.8805
:735,	-12.8805
entral	-12.8805
▁Alone	-12.8805
:10600,	-12.8805
:17094,	-12.8805
:17119,	-12.8805
:21138,	-12.8805
▁kart	-12.8805
▁Forget	-12.8805
SOME	-12.8805
▁#1	-12.8805
▁Sheesh	-12.8805
▁pancake	-12.8805
▁trading	-12.8805
:17109,	-12.8805
▁Thailand	-12.8805
▁browse	-12.8805
▁mourn	-12.8805
▁Girlfriend	-12.8805
▁Jenn	-12.8805
▁Wii	-12.8805
▁YEAR	-12.8805
▁Spiderman	-12.8805
▁neighbourhood	-12.8805
▁permit	-12.8805
maze	-12.8805
tupid	-12.8805
▁Space	-12.8805
▁anime	-12.8805
▁greedy	-12.8805
▁wagon	-12.8805
▁italian	-12.8805
▁kidnapp	-12.8805
▁sickening	-12.8805
▁Speak	-12.8805
AVE	-12.8805
▁priorities	-12.8805
▁narrow	-12.8805
.,82,	-12.8805
▁acid	-12.8805
▁hostile	-12.8805
▁favour	-12.8805
▁btw	-12.8805
▁stripper	-12.8805
▁cellphone	-12.8805
▁chillax	-12.8805
▁companionship	-12.8805
▁persistent	-12.8805
▁affectionate	-12.8805
▁audience	-12.8805
▁cheeseburger	-12.8805
▁dodged	-12.8805
▁opera	-12.8805
▁mystery	-12.8805
▁booger	-12.8805
,62,	-12.8806
▁liberating	-12.8806
▁groom	-12.8806
▁KFC	-12.8806
▁calculator	-12.8806
▁penny	-12.8806
selle	-12.8806
▁Apple	-12.8806
▁border	-12.8806
▁squea	-12.8806
HAM	-12.8806
▁Exam	-12.8806
▁crunch	-12.8806
illion	-12.8806
▁TOO	-12.8806
swatter	-12.8806
▁foul	-12.8806
▁rowdy	-12.8806
▁weirdos	-12.8806
iterally	-12.8807
weating	-12.8807
▁trace	-12.8807
▁itchy	-12.8807
▁competent	-12.8807
▁yanke	-12.8807
▁courageous	-12.8807
▁legend	-12.8807
▁2004	-12.8807
:1136,	-12.8808
▁2006	-12.8808
▁bash	-12.8808
▁Oof	-12.8808
▁tripping	-12.8808
▁meditat	-12.8808
,5|4|5_3|	-12.8808
▁idk	-12.8809
▁visual	-12.8809
:11606,	-12.8809
0-50	-12.8809
:1596,	-12.881
▁champion	-12.881
entist	-12.881
:10997,	-12.881
▁distraction	-12.8812
▁attraction	-12.8815
2-3	-12.8816
Storm	-12.8818
,5|5|5_2|5|5,	-12.8819
▁parade	-12.8819
spicable	-12.8819
efinetly	-12.8821
▁utilit	-12.8821
hinese	-12.8822
bbing	-12.8825
▁Throw	-12.8827
▁Bob	-12.8829
▁urgent	-12.883
▁Mich	-12.8844
:2518,	-12.8851
:10988,	-12.8869
dmill	-12.8881
▁kee	-12.8886
▁smoothie	-12.8888
▁undermin	-12.89
:15719,	-12.8913
cessa	-12.8956
:1140,	-12.896
:2228,	-12.9008
:15720,	-12.9027
smith	-12.9046
:11010,	-12.905
rite	-12.9081
ception	-12.9086
ldnt	-12.909
▁shan	-12.9117
▁detr	-12.9184
,1|1|1_3|	-12.9205
4|3|4	-12.9227
aintance	-12.9235
LED	-12.928
▁shoo	-12.9299
approval	-12.9321
▁sche	-12.9329
realistic	-12.9371
burg	-12.9391
▁Bigge	-12.9414
,4|3|3_	-12.968
,3|2|3_4|	-12.9754
▁CAN	-12.9832
ansion	-12.9845
Driv	-12.9928
▁gradual	-13.0063
?,4|5|5_4|	-13.0234
▁Bill	-13.0565
odles	-13.0708
▁ppl	-13.0714
|4|4_4|3|	-13.0785
,332,	-13.0828
,128,	-13.0833
,527,	-13.0834
,727,	-13.0835
,4|5|5_	-13.1101
iculous	-13.1105
ccidents	-13.1111
▁pictur	-13.1123
▁reservation	-13.1148
▁critter	-13.1148
kill	-13.1149
place	-13.1186
▁App	-13.1216
▁consist	-13.1228
▁qua	-13.1228
▁celebr	-13.1251
,5|5|5_5|5|5	-13.1259
▁embarass	-13.1264
▁releas	-13.127
▁puk	-13.1271
understood	-13.1272
Please	-13.1272
Holy	-13.1272
habit	-13.1272
True	-13.1273
Kids	-13.1273
Because	-13.1273
world	-13.1273
Great	-13.1273
Luckily	-13.1273
Yikes	-13.1273
strange	-13.1273
couldn	-13.1273
together	-13.1273
maybe	-13.1273
wife	-13.1273
first	-13.1273
haven	-13.1273
wanted	-13.1273
with	-13.1273
most	-13.1273
,5|5|5_4|	-13.1275
horn	-13.1276
▁respon	-13.1276
▁infuriat	-13.1283
4.|4|5	-13.1284
▁excite	-13.1289
,5|5|5_3|2|	-13.1294
acuated	-13.1294
avia	-13.1298
▁stead	-13.1298
▁practical	-13.1299
,4|4|5_4|5|	-13.1299
▁Final	-13.1299
▁definite	-13.1299
▁colleg	-13.13
▁Blu	-13.13
ological	-13.13
▁unbelievabl	-13.13
▁licens	-13.1301
▁schoo	-13.1302
▁eww	-13.1302
|5|5_4|4|	-13.1303
lasses	-13.1304
▁threat	-13.1304
raffic	-13.1304
ineapple	-13.1304
lumber	-13.1304
▁evaluat	-13.1304
▁persiste	-13.1304
▁disrespect	-13.1304
iology	-13.1304
3|2|3,	-13.1304
uperbowl	-13.1304
▁telemark	-13.1304
▁Georg	-13.1304
bviously	-13.1304
eceived	-13.1304
oyalty	-13.1304
oneliness	-13.1304
logy	-13.1305
:18163,	-13.1305
:20889,	-13.1305
:2243,	-13.1305
:4990,	-13.1305
:7027,	-13.1305
:9204,	-13.1305
:15281,	-13.1305
:1646,	-13.1305
:1669,	-13.1305
:17087,	-13.1305
:1731,	-13.1305
:17591,	-13.1305
:20870,	-13.1305
:2202,	-13.1305
:23313,	-13.1305
:6983,	-13.1305
:733,	-13.1305
:9207,	-13.1305
:9221,	-13.1305
5_3|4|4,	-13.1305
:12007,	-13.1305
:12032,	-13.1305
:12040,	-13.1305
:12044,	-13.1305
:13237,	-13.1305
:15282,	-13.1305
:15283,	-13.1305
:16156,	-13.1305
:16168,	-13.1305
:16171,	-13.1305
:1673,	-13.1305
:17122,	-13.1305
:17528,	-13.1305
:17538,	-13.1305
:17546,	-13.1305
:17551,	-13.1305
:17566,	-13.1305
:17574,	-13.1305
:17603,	-13.1305
:18159,	-13.1305
:18165,	-13.1305
:18167,	-13.1305
:18995,	-13.1305
:18996,	-13.1305
:19005,	-13.1305
:19017,	-13.1305
:19026,	-13.1305
:19040,	-13.1305
:19051,	-13.1305
:19096,	-13.1305
:19102,	-13.1305
:19104,	-13.1305
:19105,	-13.1305
:19125,	-13.1305
:19132,	-13.1305
:19981,	-13.1305
:20051,	-13.1305
:20060,	-13.1305
:20804,	-13.1305
:20809,	-13.1305
:20812,	-13.1305
:20853,	-13.1305
:20864,	-13.1305
:20924,	-13.1305
:21143,	-13.1305
:21159,	-13.1305
:21168,	-13.1305
:2137,	-13.1305
:2165,	-13.1305
:2169,	-13.1305
:2173,	-13.1305
:2197,	-13.1305
:2206,	-13.1305
:2211,	-13.1305
:23182,	-13.1305
:23198,	-13.1305
:23202,	-13.1305
:23257,	-13.1305
:23274,	-13.1305
:23289,	-13.1305
:23360,	-13.1305
:23365,	-13.1305
:23366,	-13.1305
:23369,	-13.1305
:23375,	-13.1305
:23381,	-13.1305
:3135,	-13.1305
:3156,	-13.1305
:390,	-13.1305
:412,	-13.1305
:4906,	-13.1305
:4927,	-13.1305
:4933,	-13.1305
:4968,	-13.1305
:4987,	-13.1305
:4989,	-13.1305
:4997,	-13.1305
:4998,	-13.1305
:5636,	-13.1305
:5637,	-13.1305
:6400,	-13.1305
:6808,	-13.1305
:6821,	-13.1305
:6836,	-13.1305
:6838,	-13.1305
:6841,	-13.1305
:7012,	-13.1305
:9202,	-13.1305
:9348,	-13.1305
▁WHE	-13.1305
▁cigar	-13.1305
:12021,	-13.1305
:12030,	-13.1305
:15223,	-13.1305
:16151,	-13.1305
:16159,	-13.1305
:1678,	-13.1305
:17117,	-13.1305
:1737,	-13.1305
:17522,	-13.1305
:17542,	-13.1305
:17595,	-13.1305
:19011,	-13.1305
:19031,	-13.1305
:19078,	-13.1305
:19133,	-13.1305
:19157,	-13.1305
:20790,	-13.1305
:20862,	-13.1305
:21166,	-13.1305
:2149,	-13.1305
:2161,	-13.1305
:2188,	-13.1305
:2191,	-13.1305
:2200,	-13.1305
:23258,	-13.1305
:23268,	-13.1305
:23288,	-13.1305
:23310,	-13.1305
:23316,	-13.1305
:23352,	-13.1305
:23382,	-13.1305
:3145,	-13.1305
:3154,	-13.1305
:4894,	-13.1305
:4923,	-13.1305
:4954,	-13.1305
:4961,	-13.1305
:5008,	-13.1305
:5010,	-13.1305
:6848,	-13.1305
:6871,	-13.1305
:7041,	-13.1305
:730,	-13.1305
:9200,	-13.1305
:9215,	-13.1305
:9365,	-13.1305
,728,	-13.1305
,3,449,	-13.1305
,437,	-13.1305
,69,	-13.1305
.,652,	-13.1305
:11994,	-13.1305
:12003,	-13.1305
:12005,	-13.1305
:12010,	-13.1305
:12011,	-13.1305
:12014,	-13.1305
:12029,	-13.1305
:12041,	-13.1305
:13232,	-13.1305
:15204,	-13.1305
:15205,	-13.1305
:15208,	-13.1305
:15212,	-13.1305
:15213,	-13.1305
:15240,	-13.1305
:15252,	-13.1305
:15258,	-13.1305
:15263,	-13.1305
:15279,	-13.1305
:15280,	-13.1305
:15285,	-13.1305
:15293,	-13.1305
:15944,	-13.1305
:16153,	-13.1305
:16162,	-13.1305
:16166,	-13.1305
:1644,	-13.1305
:1667,	-13.1305
:1670,	-13.1305
:1684,	-13.1305
:1688,	-13.1305
:1693,	-13.1305
:17039,	-13.1305
:17049,	-13.1305
:17051,	-13.1305
:17062,	-13.1305
:17063,	-13.1305
:17065,	-13.1305
:17069,	-13.1305
:17106,	-13.1305
:17113,	-13.1305
:17124,	-13.1305
:1730,	-13.1305
:1732,	-13.1305
:1735,	-13.1305
:17509,	-13.1305
:17513,	-13.1305
:17519,	-13.1305
:17521,	-13.1305
:17524,	-13.1305
:17525,	-13.1305
:17532,	-13.1305
:17533,	-13.1305
:17545,	-13.1305
:17547,	-13.1305
:17585,	-13.1305
:17588,	-13.1305
:17592,	-13.1305
:17593,	-13.1305
:17594,	-13.1305
:17600,	-13.1305
:17606,	-13.1305
:17610,	-13.1305
:17611,	-13.1305
:17612,	-13.1305
:17896,	-13.1305
:18164,	-13.1305
:18176,	-13.1305
:18189,	-13.1305
:18844,	-13.1305
:18845,	-13.1305
:18850,	-13.1305
:19012,	-13.1305
:19018,	-13.1305
:19020,	-13.1305
:19032,	-13.1305
:19045,	-13.1305
:19053,	-13.1305
:19054,	-13.1305
:19064,	-13.1305
:19066,	-13.1305
:19067,	-13.1305
:19075,	-13.1305
:19076,	-13.1305
:19087,	-13.1305
:19094,	-13.1305
:19107,	-13.1305
:19109,	-13.1305
:19112,	-13.1305
:19145,	-13.1305
:19149,	-13.1305
:20031,	-13.1305
:20033,	-13.1305
:20034,	-13.1305
:20043,	-13.1305
:20046,	-13.1305
:20047,	-13.1305
:20053,	-13.1305
:20068,	-13.1305
:20086,	-13.1305
:20090,	-13.1305
:20103,	-13.1305
:20106,	-13.1305
:20111,	-13.1305
:20113,	-13.1305
:20770,	-13.1305
:20773,	-13.1305
:20782,	-13.1305
:20786,	-13.1305
:20806,	-13.1305
:20815,	-13.1305
:20852,	-13.1305
:20857,	-13.1305
:20866,	-13.1305
:20871,	-13.1305
:20883,	-13.1305
:20886,	-13.1305
:20893,	-13.1305
:20903,	-13.1305
:20904,	-13.1305
:20910,	-13.1305
:20912,	-13.1305
:20915,	-13.1305
:20921,	-13.1305
:20951,	-13.1305
:20953,	-13.1305
:20954,	-13.1305
:20964,	-13.1305
:20965,	-13.1305
:20966,	-13.1305
:20967,	-13.1305
:20968,	-13.1305
:21136,	-13.1305
:21142,	-13.1305
:21152,	-13.1305
:21160,	-13.1305
:21163,	-13.1305
:21169,	-13.1305
:21170,	-13.1305
:21172,	-13.1305
:2147,	-13.1305
:2150,	-13.1305
:2166,	-13.1305
:2167,	-13.1305
:2183,	-13.1305
:2185,	-13.1305
:2193,	-13.1305
:2194,	-13.1305
:2196,	-13.1305
:2199,	-13.1305
:2203,	-13.1305
:2204,	-13.1305
:2208,	-13.1305
:2212,	-13.1305
:2213,	-13.1305
:2219,	-13.1305
:22206,	-13.1305
:22304,	-13.1305
:2233,	-13.1305
:2235,	-13.1305
:2239,	-13.1305
:2247,	-13.1305
:23150,	-13.1305
:23167,	-13.1305
:23171,	-13.1305
:23178,	-13.1305
:23183,	-13.1305
:23184,	-13.1305
:23193,	-13.1305
:23269,	-13.1305
:23280,	-13.1305
:23284,	-13.1305
:23285,	-13.1305
:23290,	-13.1305
:23300,	-13.1305
:23302,	-13.1305
:23303,	-13.1305
:23306,	-13.1305
:23312,	-13.1305
:23314,	-13.1305
:23324,	-13.1305
:23327,	-13.1305
:23330,	-13.1305
:23331,	-13.1305
:23346,	-13.1305
:23347,	-13.1305
:23349,	-13.1305
:23353,	-13.1305
:23362,	-13.1305
:23370,	-13.1305
:23380,	-13.1305
:2526,	-13.1305
:3119,	-13.1305
:3126,	-13.1305
:3127,	-13.1305
:3139,	-13.1305
:3143,	-13.1305
:3147,	-13.1305
:3150,	-13.1305
:3152,	-13.1305
:3153,	-13.1305
:3155,	-13.1305
:3157,	-13.1305
:3789,	-13.1305
:389,	-13.1305
:404,	-13.1305
:4516,	-13.1305
:4898,	-13.1305
:4902,	-13.1305
:4908,	-13.1305
:4910,	-13.1305
:4911,	-13.1305
:4913,	-13.1305
:4930,	-13.1305
:4932,	-13.1305
:4945,	-13.1305
:4946,	-13.1305
:4950,	-13.1305
:4967,	-13.1305
:4970,	-13.1305
:4974,	-13.1305
:4979,	-13.1305
:4982,	-13.1305
:4992,	-13.1305
:5004,	-13.1305
:5005,	-13.1305
:5012,	-13.1305
:5023,	-13.1305
:5026,	-13.1305
:5028,	-13.1305
:5029,	-13.1305
:5031,	-13.1305
:5032,	-13.1305
:5035,	-13.1305
:6396,	-13.1305
:6807,	-13.1305
:6816,	-13.1305
:6819,	-13.1305
:6822,	-13.1305
:6824,	-13.1305
:6834,	-13.1305
:6835,	-13.1305
:6847,	-13.1305
:6849,	-13.1305
:6868,	-13.1305
:6869,	-13.1305
:6872,	-13.1305
:7026,	-13.1305
:7039,	-13.1305
:7059,	-13.1305
:7067,	-13.1305
:734,	-13.1305
:9205,	-13.1305
:9210,	-13.1305
:9224,	-13.1305
:9226,	-13.1305
:9227,	-13.1305
:9351,	-13.1305
:9352,	-13.1305
:9381,	-13.1305
:9382,	-13.1305
Understandabl	-13.1305
!,652,	-13.1305
,633,	-13.1305
,829,	-13.1305
.,138,	-13.1305
.,245,	-13.1305
.,513,	-13.1305
.,572,	-13.1305
.,795,	-13.1305
.,799,	-13.1305
:4973,	-13.1305
:5011,	-13.1305
:7050,	-13.1305
BLE	-13.1305
▁autograph	-13.1305
▁congesti	-13.1305
▁scalp	-13.1305
▁unicorn	-13.1305
,1|1|2_5|5|5,	-13.1305
,248,	-13.1305
,311,	-13.1305
,458,	-13.1305
,514,	-13.1305
,650,	-13.1305
,660,	-13.1305
,718,	-13.1305
.,127,	-13.1305
.,235,	-13.1305
.,242,	-13.1305
.,250,	-13.1305
.,318,	-13.1305
.,377,	-13.1305
.,543,	-13.1305
.,573,	-13.1305
.,616,	-13.1305
.,658,	-13.1305
.,662,	-13.1305
.,678,	-13.1305
.,726,	-13.1305
.,729,	-13.1305
.,843,	-13.1305
:10593,	-13.1305
:11610,	-13.1305
:11999,	-13.1305
:12008,	-13.1305
:12020,	-13.1305
:12024,	-13.1305
:12033,	-13.1305
:12036,	-13.1305
:12038,	-13.1305
:13231,	-13.1305
:13234,	-13.1305
:15207,	-13.1305
:15216,	-13.1305
:15217,	-13.1305
:15225,	-13.1305
:15226,	-13.1305
:15232,	-13.1305
:15233,	-13.1305
:15241,	-13.1305
:15246,	-13.1305
:15253,	-13.1305
:15257,	-13.1305
:15266,	-13.1305
:15268,	-13.1305
:15269,	-13.1305
:15271,	-13.1305
:15289,	-13.1305
:15946,	-13.1305
:1645,	-13.1305
:1655,	-13.1305
:1656,	-13.1305
:1657,	-13.1305
:1690,	-13.1305
:1697,	-13.1305
:17030,	-13.1305
:17033,	-13.1305
:17036,	-13.1305
:17038,	-13.1305
:17042,	-13.1305
:17052,	-13.1305
:17057,	-13.1305
:17059,	-13.1305
:17066,	-13.1305
:17076,	-13.1305
:17086,	-13.1305
:17102,	-13.1305
:17123,	-13.1305
:1723,	-13.1305
:1725,	-13.1305
:1733,	-13.1305
:17541,	-13.1305
:17552,	-13.1305
:17556,	-13.1305
:17563,	-13.1305
:17589,	-13.1305
:17608,	-13.1305
:17613,	-13.1305
:17617,	-13.1305
:17893,	-13.1305
:17894,	-13.1305
:18161,	-13.1305
:18162,	-13.1305
:18169,	-13.1305
:18171,	-13.1305
:18172,	-13.1305
:18181,	-13.1305
:18182,	-13.1305
:18188,	-13.1305
:18840,	-13.1305
:18846,	-13.1305
:19002,	-13.1305
:19003,	-13.1305
:19004,	-13.1305
:19006,	-13.1305
:19008,	-13.1305
:19027,	-13.1305
:19034,	-13.1305
:19043,	-13.1305
:19044,	-13.1305
:19046,	-13.1305
:19048,	-13.1305
:19050,	-13.1305
:19052,	-13.1305
:19061,	-13.1305
:19072,	-13.1305
:19086,	-13.1305
:19088,	-13.1305
:19103,	-13.1305
:19106,	-13.1305
:19110,	-13.1305
:19122,	-13.1305
:19124,	-13.1305
:19127,	-13.1305
:19128,	-13.1305
:19139,	-13.1305
:19144,	-13.1305
:19151,	-13.1305
:19153,	-13.1305
:20036,	-13.1305
:20063,	-13.1305
:20767,	-13.1305
:20785,	-13.1305
:20789,	-13.1305
:20803,	-13.1305
:20805,	-13.1305
:20808,	-13.1305
:20850,	-13.1305
:20851,	-13.1305
:20868,	-13.1305
:20873,	-13.1305
:20887,	-13.1305
:20891,	-13.1305
:20892,	-13.1305
:20897,	-13.1305
:20909,	-13.1305
:20917,	-13.1305
:20956,	-13.1305
:20963,	-13.1305
:20970,	-13.1305
:21162,	-13.1305
:21164,	-13.1305
:21177,	-13.1305
:21180,	-13.1305
:21181,	-13.1305
:2157,	-13.1305
:2158,	-13.1305
:2178,	-13.1305
:2189,	-13.1305
:2198,	-13.1305
:2214,	-13.1305
:22213,	-13.1305
:2232,	-13.1305
:2234,	-13.1305
:2245,	-13.1305
:2248,	-13.1305
:23153,	-13.1305
:23160,	-13.1305
:23162,	-13.1305
:23164,	-13.1305
:23168,	-13.1305
:23194,	-13.1305
:23273,	-13.1305
:23282,	-13.1305
:23291,	-13.1305
:23292,	-13.1305
:23309,	-13.1305
:23318,	-13.1305
:23323,	-13.1305
:23333,	-13.1305
:23348,	-13.1305
:23363,	-13.1305
:23373,	-13.1305
:23374,	-13.1305
:23377,	-13.1305
:23384,	-13.1305
:2528,	-13.1305
:3132,	-13.1305
:3134,	-13.1305
:3138,	-13.1305
:3144,	-13.1305
:3149,	-13.1305
:3790,	-13.1305
:399,	-13.1305
:403,	-13.1305
:4518,	-13.1305
:4889,	-13.1305
:4891,	-13.1305
:4893,	-13.1305
:4921,	-13.1305
:4922,	-13.1305
:4924,	-13.1305
:4942,	-13.1305
:4944,	-13.1305
:4953,	-13.1305
:4960,	-13.1305
:4969,	-13.1305
:4971,	-13.1305
:4972,	-13.1305
:4975,	-13.1305
:4986,	-13.1305
:4993,	-13.1305
:4994,	-13.1305
:4995,	-13.1305
:5000,	-13.1305
:5001,	-13.1305
:5002,	-13.1305
:5006,	-13.1305
:5007,	-13.1305
:5013,	-13.1305
:5022,	-13.1305
:5027,	-13.1305
:5034,	-13.1305
:6395,	-13.1305
:6399,	-13.1305
:6799,	-13.1305
:6803,	-13.1305
:6809,	-13.1305
:6810,	-13.1305
:6811,	-13.1305
:6829,	-13.1305
:6830,	-13.1305
:6831,	-13.1305
:6832,	-13.1305
:6844,	-13.1305
:6850,	-13.1305
:6851,	-13.1305
:6870,	-13.1305
:7010,	-13.1305
:7030,	-13.1305
:7034,	-13.1305
:7043,	-13.1305
:7048,	-13.1305
:7058,	-13.1305
:732,	-13.1305
:9206,	-13.1305
:9208,	-13.1305
:9222,	-13.1305
:9225,	-13.1305
:9231,	-13.1305
:9232,	-13.1305
:9233,	-13.1305
:9346,	-13.1305
:9379,	-13.1305
:9380,	-13.1305
Chevrolet	-13.1305
Nervous	-13.1305
irreplaceable	-13.1305
nquir	-13.1305
nsense	-13.1305
nstagram	-13.1305
obsessed	-13.1305
ssociation	-13.1305
utumn	-13.1305
|1|3_4|	-13.1305
|2|2_5|5|5,	-13.1305
▁$65	-13.1305
▁,356,	-13.1305
▁,726,	-13.1305
▁,740,	-13.1305
▁2014	-13.1305
▁Argentina	-13.1305
▁Barney	-13.1305
▁Blackjack	-13.1305
▁Bulgaria	-13.1305
▁CPS	-13.1305
▁Communi	-13.1305
▁DRINK	-13.1305
▁Defenitly	-13.1305
▁Dinner	-13.1305
▁Dolphin	-13.1305
▁Employe	-13.1305
▁Evil	-13.1305
▁FIFA	-13.1305
▁Filipino	-13.1305
▁Finance	-13.1305
▁GREAT	-13.1305
▁Hershey	-13.1305
▁Hockey	-13.1305
▁Holiday	-13.1305
▁Impressive	-13.1305
▁Jordan	-13.1305
▁Karate	-13.1305
▁Karma	-13.1305
▁Knock	-13.1305
▁Knox	-13.1305
▁LIFE	-13.1305
▁Marriage	-13.1305
▁Midwest	-13.1305
▁Millenial	-13.1305
▁NBA	-13.1305
▁Naturally	-13.1305
▁Nigeria	-13.1305
▁Nowadays	-13.1305
▁Phoenix	-13.1305
▁Place	-13.1305
▁Potter	-13.1305
▁Problem	-13.1305
▁Relationship	-13.1305
▁Republicans	-13.1305
▁Rugrats	-13.1305
▁Scarface	-13.1305
▁Senior	-13.1305
▁Strzok	-13.1305
▁Suddenly	-13.1305
▁Surprisingly	-13.1305
▁Swift	-13.1305
▁Tahiti	-13.1305
▁Tennessee	-13.1305
▁WHY	-13.1305
▁Weeknd	-13.1305
▁alzheimer	-13.1305
▁ambitious	-13.1305
▁antibiotics	-13.1305
▁apologise	-13.1305
▁applaud	-13.1305
▁arrival	-13.1305
▁assemble	-13.1305
▁automatically	-13.1305
▁behalf	-13.1305
▁blackjack	-13.1305
▁bleak	-13.1305
▁blogging	-13.1305
▁brisket	-13.1305
▁cactus	-13.1305
▁charlotte	-13.1305
▁chemo	-13.1305
▁cologne	-13.1305
▁combo	-13.1305
▁communities	-13.1305
▁compensation	-13.1305
▁competitor	-13.1305
▁consuming	-13.1305
▁convincing	-13.1305
▁cozumel	-13.1305
▁criticiz	-13.1305
▁crosswalk	-13.1305
▁cruising	-13.1305
▁decorations	-13.1305
▁delicate	-13.1305
▁detention	-13.1305
▁discourage	-13.1305
▁doritos	-13.1305
▁earliest	-13.1305
▁earthquake	-13.1305
▁eclipse	-13.1305
▁elected	-13.1305
▁enormous	-13.1305
▁established	-13.1305
▁excursion	-13.1305
▁exhilarating	-13.1305
▁explanation	-13.1305
▁exposure	-13.1305
▁fajitas	-13.1305
▁flames	-13.1305
▁frankly	-13.1305
▁fuzzy	-13.1305
▁gauge	-13.1305
▁gouvernment	-13.1305
▁guacamole	-13.1305
▁gymnastics	-13.1305
▁honeslty	-13.1305
▁horrendous	-13.1305
▁hulu	-13.1305
▁identity	-13.1305
▁incorrect	-13.1305
▁indicators	-13.1305
▁insecurit	-13.1305
▁insulin	-13.1305
▁intervene	-13.1305
▁intimidated	-13.1305
▁investigation	-13.1305
▁irrational	-13.1305
▁janitor	-13.1305
▁jinx	-13.1305
▁leche	-13.1305
▁lipstick	-13.1305
▁lucrative	-13.1305
▁malicious	-13.1305
▁merchandise	-13.1305
▁michigan	-13.1305
▁millennial	-13.1305
▁miserably	-13.1305
▁mortifying	-13.1305
▁negativity	-13.1305
▁november	-13.1305
▁nutrient	-13.1305
▁paradise	-13.1305
▁philosophy	-13.1305
▁plasma	-13.1305
▁possibilities	-13.1305
▁productivity	-13.1305
▁profile	-13.1305
▁proposing	-13.1305
▁purple	-13.1305
▁quirk	-13.1305
▁quote	-13.1305
▁reboot	-13.1305
▁recession	-13.1305
▁reciprocate	-13.1305
▁regain	-13.1305
▁relocate	-13.1305
▁rewind	-13.1305
▁ricky	-13.1305
▁rifle	-13.1305
▁salsa	-13.1305
▁scrambl	-13.1305
▁sequel	-13.1305
▁snapchat	-13.1305
▁southeast	-13.1305
▁starbucks	-13.1305
▁stellar	-13.1305
▁strategies	-13.1305
▁sunglasses	-13.1305
▁swimsuit	-13.1305
▁tendency	-13.1305
▁thrive	-13.1305
▁tortoise	-13.1305
▁tumor	-13.1305
▁tunnel	-13.1305
▁unbreakable	-13.1305
▁unfortunatly	-13.1305
▁universe	-13.1305
▁unnoticed	-13.1305
▁unreasonable	-13.1305
▁unwind	-13.1305
▁vampire	-13.1305
▁venue	-13.1305
▁villain	-13.1305
▁vinegar	-13.1305
▁volcan	-13.1305
▁yuk	-13.1305
!,241,	-13.1305
!,449,	-13.1305
!,509,	-13.1305
.,1|1|5_5|5|5,	-13.1305
.,230,	-13.1305
.,356,	-13.1305
.,511,	-13.1305
.,742,	-13.1305
:17562,	-13.1305
:21171,	-13.1305
:5020,	-13.1305
:7028,	-13.1305
▁Duty	-13.1305
▁Post	-13.1305
▁Prepare	-13.1305
▁Truly	-13.1305
▁WORK	-13.1305
▁accommodat	-13.1305
▁clerk	-13.1305
▁crib	-13.1305
▁dictat	-13.1305
▁foreclos	-13.1305
▁grrrr	-13.1305
▁loaf	-13.1305
▁lunatic	-13.1305
▁manifest	-13.1305
▁manufact	-13.1305
▁minimize	-13.1305
▁mistreat	-13.1305
▁nonstop	-13.1305
▁plummet	-13.1305
▁radiation	-13.1305
▁religio	-13.1305
▁transparen	-13.1305
▁vague	-13.1305
▁workload	-13.1305
,338,	-13.1305
.,122,	-13.1305
.,411,	-13.1305
:11357,	-13.1305
:11611,	-13.1305
:11612,	-13.1305
:11995,	-13.1305
:12002,	-13.1305
:12004,	-13.1305
:12006,	-13.1305
:12009,	-13.1305
:12012,	-13.1305
:12016,	-13.1305
:12018,	-13.1305
:12023,	-13.1305
:12025,	-13.1305
:12027,	-13.1305
:12028,	-13.1305
:13239,	-13.1305
:13245,	-13.1305
:14580,	-13.1305
:15203,	-13.1305
:15206,	-13.1305
:15221,	-13.1305
:15222,	-13.1305
:15227,	-13.1305
:15229,	-13.1305
:15231,	-13.1305
:15242,	-13.1305
:15245,	-13.1305
:15254,	-13.1305
:15264,	-13.1305
:15286,	-13.1305
:15288,	-13.1305
:15290,	-13.1305
:15299,	-13.1305
:15947,	-13.1305
:15949,	-13.1305
:16165,	-13.1305
:16167,	-13.1305
:16169,	-13.1305
:16173,	-13.1305
:1642,	-13.1305
:1668,	-13.1305
:1683,	-13.1305
:1698,	-13.1305
:1699,	-13.1305
:17031,	-13.1305
:17032,	-13.1305
:17034,	-13.1305
:17043,	-13.1305
:17048,	-13.1305
:17055,	-13.1305
:17060,	-13.1305
:17083,	-13.1305
:17107,	-13.1305
:17114,	-13.1305
:1728,	-13.1305
:1736,	-13.1305
:17518,	-13.1305
:17550,	-13.1305
:17570,	-13.1305
:17575,	-13.1305
:17577,	-13.1305
:17580,	-13.1305
:17590,	-13.1305
:17609,	-13.1305
:17616,	-13.1305
:17895,	-13.1305
:17900,	-13.1305
:18156,	-13.1305
:18158,	-13.1305
:18166,	-13.1305
:18173,	-13.1305
:18184,	-13.1305
:18185,	-13.1305
:18187,	-13.1305
:18839,	-13.1305
:18977,	-13.1305
:18983,	-13.1305
:18993,	-13.1305
:19000,	-13.1305
:19019,	-13.1305
:19023,	-13.1305
:19024,	-13.1305
:19038,	-13.1305
:19058,	-13.1305
:19063,	-13.1305
:19065,	-13.1305
:19069,	-13.1305
:19071,	-13.1305
:19080,	-13.1305
:19093,	-13.1305
:19095,	-13.1305
:19099,	-13.1305
:19113,	-13.1305
:19121,	-13.1305
:19123,	-13.1305
:19136,	-13.1305
:19138,	-13.1305
:19140,	-13.1305
:19142,	-13.1305
:19150,	-13.1305
:20032,	-13.1305
:20042,	-13.1305
:20054,	-13.1305
:20062,	-13.1305
:20069,	-13.1305
:20082,	-13.1305
:20083,	-13.1305
:20091,	-13.1305
:20093,	-13.1305
:20105,	-13.1305
:20764,	-13.1305
:20772,	-13.1305
:20784,	-13.1305
:20788,	-13.1305
:20794,	-13.1305
:20796,	-13.1305
:20802,	-13.1305
:20863,	-13.1305
:20877,	-13.1305
:20898,	-13.1305
:20926,	-13.1305
:20955,	-13.1305
:20959,	-13.1305
:21135,	-13.1305
:21178,	-13.1305
:2143,	-13.1305
:2145,	-13.1305
:2152,	-13.1305
:2164,	-13.1305
:2168,	-13.1305
:2170,	-13.1305
:2171,	-13.1305
:2179,	-13.1305
:2180,	-13.1305
:2187,	-13.1305
:2190,	-13.1305
:2210,	-13.1305
:2217,	-13.1305
:2218,	-13.1305
:22202,	-13.1305
:22205,	-13.1305
:22216,	-13.1305
:2230,	-13.1305
:2237,	-13.1305
:2244,	-13.1305
:23155,	-13.1305
:23173,	-13.1305
:23174,	-13.1305
:23181,	-13.1305
:23189,	-13.1305
:23192,	-13.1305
:23200,	-13.1305
:23254,	-13.1305
:23263,	-13.1305
:23264,	-13.1305
:23267,	-13.1305
:23277,	-13.1305
:23281,	-13.1305
:23286,	-13.1305
:23287,	-13.1305
:23296,	-13.1305
:23301,	-13.1305
:23319,	-13.1305
:23321,	-13.1305
:23334,	-13.1305
:23336,	-13.1305
:23337,	-13.1305
:23343,	-13.1305
:23354,	-13.1305
:23361,	-13.1305
:23367,	-13.1305
:23372,	-13.1305
:23386,	-13.1305
:3123,	-13.1305
:3131,	-13.1305
:3142,	-13.1305
:3148,	-13.1305
:392,	-13.1305
:411,	-13.1305
:4517,	-13.1305
:4892,	-13.1305
:4897,	-13.1305
:4900,	-13.1305
:4904,	-13.1305
:4909,	-13.1305
:4918,	-13.1305
:4937,	-13.1305
:4940,	-13.1305
:4949,	-13.1305
:4951,	-13.1305
:4952,	-13.1305
:4955,	-13.1305
:4965,	-13.1305
:4980,	-13.1305
:4983,	-13.1305
:4988,	-13.1305
:4991,	-13.1305
:4996,	-13.1305
:4999,	-13.1305
:5003,	-13.1305
:5009,	-13.1305
:5016,	-13.1305
:5018,	-13.1305
:5021,	-13.1305
:5633,	-13.1305
:5641,	-13.1305
:6401,	-13.1305
:6804,	-13.1305
:6806,	-13.1305
:6812,	-13.1305
:6813,	-13.1305
:6818,	-13.1305
:6826,	-13.1305
:6828,	-13.1305
:6837,	-13.1305
:6842,	-13.1305
:6845,	-13.1305
:6852,	-13.1305
:6853,	-13.1305
:6858,	-13.1305
:6862,	-13.1305
:6864,	-13.1305
:6865,	-13.1305
:6867,	-13.1305
:6982,	-13.1305
:6993,	-13.1305
:6999,	-13.1305
:7024,	-13.1305
:7033,	-13.1305
:7037,	-13.1305
:7046,	-13.1305
:7049,	-13.1305
:7060,	-13.1305
:7066,	-13.1305
:9201,	-13.1305
:9203,	-13.1305
:9211,	-13.1305
:9212,	-13.1305
:9214,	-13.1305
:9216,	-13.1305
:9217,	-13.1305
:9228,	-13.1305
:9230,	-13.1305
:9353,	-13.1305
:9373,	-13.1305
:9384,	-13.1305
ttorney	-13.1305
▁2017	-13.1305
▁<3	-13.1305
▁Becky	-13.1305
▁Earth	-13.1305
▁Elvis	-13.1305
▁Fair	-13.1305
▁HAPP	-13.1305
▁Honor	-13.1305
▁Jerk	-13.1305
▁MAN	-13.1305
▁Power	-13.1305
▁bodybuild	-13.1305
▁courtesy	-13.1305
▁obstacle	-13.1305
▁oreos	-13.1305
▁properties	-13.1305
▁reptile	-13.1305
▁retain	-13.1305
▁bogus	-13.1305
calyp	-13.1305
▁Clearwater	-13.1305
▁Team	-13.1305
▁WEll	-13.1305
▁capture	-13.1305
▁upbeat	-13.1305
!,385,	-13.1305
.,481,	-13.1305
:12000,	-13.1305
:14577,	-13.1305
:14579,	-13.1305
:15211,	-13.1305
:15270,	-13.1305
:16157,	-13.1305
:17046,	-13.1305
:17068,	-13.1305
:17084,	-13.1305
:17115,	-13.1305
:17120,	-13.1305
:17523,	-13.1305
:17536,	-13.1305
:17568,	-13.1305
:17573,	-13.1305
:17623,	-13.1305
:18180,	-13.1305
:18183,	-13.1305
:18986,	-13.1305
:19030,	-13.1305
:19085,	-13.1305
:19130,	-13.1305
:20048,	-13.1305
:20061,	-13.1305
:20110,	-13.1305
:20778,	-13.1305
:20792,	-13.1305
:20799,	-13.1305
:20856,	-13.1305
:20899,	-13.1305
:20923,	-13.1305
:20925,	-13.1305
:21147,	-13.1305
:21148,	-13.1305
:21149,	-13.1305
:2138,	-13.1305
:2184,	-13.1305
:2192,	-13.1305
:2216,	-13.1305
:23166,	-13.1305
:23187,	-13.1305
:23188,	-13.1305
:23190,	-13.1305
:23259,	-13.1305
:23271,	-13.1305
:23298,	-13.1305
:23299,	-13.1305
:23315,	-13.1305
:23358,	-13.1305
:2527,	-13.1305
:3151,	-13.1305
:409,	-13.1305
:4905,	-13.1305
:4948,	-13.1305
:5014,	-13.1305
:5019,	-13.1305
:5024,	-13.1305
:6398,	-13.1305
:6801,	-13.1305
:6815,	-13.1305
:6823,	-13.1305
:6833,	-13.1305
:6843,	-13.1305
:6846,	-13.1305
:6873,	-13.1305
:6989,	-13.1305
:7052,	-13.1305
:7054,	-13.1305
:7062,	-13.1305
:7236,	-13.1305
:9209,	-13.1305
:9394,	-13.1305
Accounting	-13.1305
oothpaste	-13.1305
▁Series	-13.1305
▁length	-13.1305
▁strut	-13.1305
▁Peru	-13.1305
▁Roller	-13.1305
▁aloof	-13.1305
▁measure	-13.1305
▁native	-13.1305
:10599,	-13.1305
:11358,	-13.1305
:12034,	-13.1305
:12042,	-13.1305
:13240,	-13.1305
:13241,	-13.1305
:13242,	-13.1305
:14578,	-13.1305
:15201,	-13.1305
:15215,	-13.1305
:15218,	-13.1305
:15234,	-13.1305
:15236,	-13.1305
:15255,	-13.1305
:15267,	-13.1305
:15274,	-13.1305
:15295,	-13.1305
:16175,	-13.1305
:1674,	-13.1305
:17041,	-13.1305
:17073,	-13.1305
:17074,	-13.1305
:17077,	-13.1305
:17085,	-13.1305
:17096,	-13.1305
:17097,	-13.1305
:17101,	-13.1305
:17105,	-13.1305
:17111,	-13.1305
:17515,	-13.1305
:17540,	-13.1305
:17557,	-13.1305
:17579,	-13.1305
:17598,	-13.1305
:17599,	-13.1305
:17624,	-13.1305
:17897,	-13.1305
:18157,	-13.1305
:18178,	-13.1305
:18838,	-13.1305
:18973,	-13.1305
:18974,	-13.1305
:18990,	-13.1305
:19015,	-13.1305
:19055,	-13.1305
:19060,	-13.1305
:19074,	-13.1305
:19077,	-13.1305
:19079,	-13.1305
:19097,	-13.1305
:19098,	-13.1305
:19114,	-13.1305
:19134,	-13.1305
:20038,	-13.1305
:20041,	-13.1305
:20055,	-13.1305
:20058,	-13.1305
:20077,	-13.1305
:20095,	-13.1305
:20100,	-13.1305
:20119,	-13.1305
:20122,	-13.1305
:20916,	-13.1305
:20920,	-13.1305
:21139,	-13.1305
:21154,	-13.1305
:21175,	-13.1305
:2154,	-13.1305
:2156,	-13.1305
:2159,	-13.1305
:2160,	-13.1305
:2174,	-13.1305
:2177,	-13.1305
:2181,	-13.1305
:2186,	-13.1305
:2195,	-13.1305
:22203,	-13.1305
:22204,	-13.1305
:22215,	-13.1305
:2236,	-13.1305
:23159,	-13.1305
:23179,	-13.1305
:23276,	-13.1305
:23294,	-13.1305
:23295,	-13.1305
:23317,	-13.1305
:23320,	-13.1305
:23341,	-13.1305
:23356,	-13.1305
:23376,	-13.1305
:23385,	-13.1305
:3120,	-13.1305
:4895,	-13.1305
:4899,	-13.1305
:4901,	-13.1305
:4903,	-13.1305
:4915,	-13.1305
:4919,	-13.1305
:4936,	-13.1305
:4941,	-13.1305
:4984,	-13.1305
:5015,	-13.1305
:5639,	-13.1305
:6800,	-13.1305
:6820,	-13.1305
:6840,	-13.1305
:6854,	-13.1305
:6855,	-13.1305
:6856,	-13.1305
:6857,	-13.1305
:6859,	-13.1305
:6860,	-13.1305
:6863,	-13.1305
:6875,	-13.1305
:6995,	-13.1305
:6996,	-13.1305
:6997,	-13.1305
:7018,	-13.1305
:7019,	-13.1305
:7069,	-13.1305
:9197,	-13.1305
:9198,	-13.1305
:9199,	-13.1305
:9218,	-13.1305
:9219,	-13.1305
:9220,	-13.1305
:9372,	-13.1305
:9374,	-13.1305
▁motto	-13.1305
▁retrac	-13.1305
▁sedan	-13.1305
.,13,	-13.1305
▁Woohoo	-13.1305
▁dissect	-13.1305
▁homeowner	-13.1305
:11359,	-13.1305
:11993,	-13.1305
:11997,	-13.1305
:12017,	-13.1305
:12035,	-13.1305
:13235,	-13.1305
:13243,	-13.1305
:15235,	-13.1305
:15243,	-13.1305
:15277,	-13.1305
:16158,	-13.1305
:16161,	-13.1305
:16170,	-13.1305
:1639,	-13.1305
:1660,	-13.1305
:1681,	-13.1305
:17072,	-13.1305
:17104,	-13.1305
:17110,	-13.1305
:17118,	-13.1305
:17511,	-13.1305
:17517,	-13.1305
:17537,	-13.1305
:17561,	-13.1305
:17618,	-13.1305
:17898,	-13.1305
:18160,	-13.1305
:18174,	-13.1305
:18177,	-13.1305
:18179,	-13.1305
:18994,	-13.1305
:18998,	-13.1305
:19016,	-13.1305
:19036,	-13.1305
:19037,	-13.1305
:19056,	-13.1305
:20056,	-13.1305
:20076,	-13.1305
:20120,	-13.1305
:20779,	-13.1305
:20860,	-13.1305
:20876,	-13.1305
:20881,	-13.1305
:20958,	-13.1305
:2176,	-13.1305
:23196,	-13.1305
:23199,	-13.1305
:23201,	-13.1305
:23203,	-13.1305
:23260,	-13.1305
:23357,	-13.1305
:23359,	-13.1305
:394,	-13.1305
:406,	-13.1305
:415,	-13.1305
:4896,	-13.1305
:4916,	-13.1305
:4938,	-13.1305
:4958,	-13.1305
:4978,	-13.1305
:5640,	-13.1305
:6394,	-13.1305
:6814,	-13.1305
:6817,	-13.1305
:6969,	-13.1305
:6970,	-13.1305
:6988,	-13.1305
:7040,	-13.1305
:7063,	-13.1305
:9196,	-13.1305
:9235,	-13.1305
:9349,	-13.1305
▁Iraq	-13.1305
FUL	-13.1305
▁clingy	-13.1305
▁squirm	-13.1305
:1696,	-13.1305
:17075,	-13.1305
:17093,	-13.1305
:17095,	-13.1305
:17099,	-13.1305
:17558,	-13.1305
:18978,	-13.1305
:18981,	-13.1305
:20098,	-13.1305
:20900,	-13.1305
:22209,	-13.1305
▁bald	-13.1305
▁combat	-13.1305
▁dawn	-13.1305
▁hostess	-13.1305
▁immens	-13.1305
:17089,	-13.1305
:20099,	-13.1305
:23279,	-13.1305
:4985,	-13.1305
▁overdue	-13.1305
▁rodents	-13.1305
▁Banks	-13.1305
▁identif	-13.1305
:17079,	-13.1305
:17081,	-13.1305
:20078,	-13.1305
:4977,	-13.1305
▁Husk	-13.1305
▁deductible	-13.1305
▁utter	-13.1305
▁impose	-13.1305
▁DID	-13.1305
▁Redemption	-13.1305
▁wiht	-13.1305
:17070,	-13.1305
:17100,	-13.1305
:17108,	-13.1305
:22208,	-13.1305
▁Circ	-13.1305
,152,	-13.1305
:17098,	-13.1305
▁Free	-13.1305
:17088,	-13.1305
:17080,	-13.1305
▁hesitate	-13.1305
Change	-13.1305
▁Special	-13.1305
▁korea	-13.1305
▁swimmer	-13.1305
MPH	-13.1305
▁waht	-13.1305
▁steer	-13.1305
▁visa	-13.1305
▁induce	-13.1305
▁cliff	-13.1305
▁buns	-13.1305
▁meetups	-13.1305
▁alternat	-13.1305
▁props	-13.1305
▁shrug	-13.1306
▁obligat	-13.1306
▁violat	-13.1306
▁urg	-13.1306
▁Benn	-13.1307
aunted	-13.1307
▁mount	-13.1307
aunting	-13.1308
,283,	-13.1308
clamp	-13.1308
alaxy	-13.1309
▁bask	-13.1309
▁inflat	-13.1313
}	-13.4638
Q	-13.9605
{	-13.9638
😒	-13.9638
^	-14.9638
😊	-14.9638
😋	-14.9638
😢	-14.9638
£	-15.2583
|	-15.2584
